{
  "version": "1.0",
  "truncation": null,
  "padding": null,
  "added_tokens": [
    {
      "id": 0,
      "content": "<PAD>",
      "single_word": false,
      "lstrip": false,
      "rstrip": false,
      "normalized": false,
      "special": true
    },
    {
      "id": 1,
      "content": "<START>",
      "single_word": false,
      "lstrip": false,
      "rstrip": false,
      "normalized": false,
      "special": true
    },
    {
      "id": 2,
      "content": "<END>",
      "single_word": false,
      "lstrip": false,
      "rstrip": false,
      "normalized": false,
      "special": true
    },
    {
      "id": 3,
      "content": "<UNK>",
      "single_word": false,
      "lstrip": false,
      "rstrip": false,
      "normalized": false,
      "special": true
    },
    {
      "id": 4,
      "content": "<SEP>",
      "single_word": false,
      "lstrip": false,
      "rstrip": false,
      "normalized": false,
      "special": true
    }
  ],
  "normalizer": null,
  "pre_tokenizer": {
    "type": "ByteLevel",
    "add_prefix_space": false,
    "trim_offsets": true,
    "use_regex": true
  },
  "post_processor": {
    "type": "TemplateProcessing",
    "single": [
      {
        "SpecialToken": {
          "id": "<START>",
          "type_id": 0
        }
      },
      {
        "Sequence": {
          "id": "A",
          "type_id": 0
        }
      },
      {
        "SpecialToken": {
          "id": "<END>",
          "type_id": 0
        }
      }
    ],
    "pair": [
      {
        "SpecialToken": {
          "id": "<START>",
          "type_id": 0
        }
      },
      {
        "Sequence": {
          "id": "A",
          "type_id": 0
        }
      },
      {
        "SpecialToken": {
          "id": "<SEP>",
          "type_id": 0
        }
      },
      {
        "Sequence": {
          "id": "B",
          "type_id": 0
        }
      },
      {
        "SpecialToken": {
          "id": "<END>",
          "type_id": 0
        }
      }
    ],
    "special_tokens": {
      "<END>": {
        "id": "<END>",
        "ids": [
          2
        ],
        "tokens": [
          "<END>"
        ]
      },
      "<SEP>": {
        "id": "<SEP>",
        "ids": [
          4
        ],
        "tokens": [
          "<SEP>"
        ]
      },
      "<START>": {
        "id": "<START>",
        "ids": [
          1
        ],
        "tokens": [
          "<START>"
        ]
      }
    }
  },
  "decoder": {
    "type": "ByteLevel",
    "add_prefix_space": true,
    "trim_offsets": true,
    "use_regex": true
  },
  "model": {
    "type": "BPE",
    "dropout": null,
    "unk_token": null,
    "continuing_subword_prefix": null,
    "end_of_word_suffix": null,
    "fuse_unk": false,
    "byte_fallback": false,
    "ignore_merges": false,
    "vocab": {
      "<PAD>": 0,
      "<START>": 1,
      "<END>": 2,
      "<UNK>": 3,
      "<SEP>": 4,
      "!": 5,
      "\"": 6,
      "$": 7,
      "%": 8,
      "'": 9,
      "(": 10,
      ")": 11,
      "+": 12,
      ",": 13,
      "-": 14,
      ".": 15,
      "/": 16,
      "0": 17,
      "1": 18,
      "2": 19,
      "3": 20,
      "4": 21,
      "5": 22,
      "6": 23,
      "7": 24,
      "8": 25,
      "9": 26,
      ":": 27,
      ";": 28,
      "?": 29,
      "A": 30,
      "B": 31,
      "C": 32,
      "D": 33,
      "E": 34,
      "F": 35,
      "G": 36,
      "H": 37,
      "I": 38,
      "J": 39,
      "K": 40,
      "L": 41,
      "M": 42,
      "N": 43,
      "O": 44,
      "P": 45,
      "Q": 46,
      "R": 47,
      "S": 48,
      "T": 49,
      "U": 50,
      "V": 51,
      "W": 52,
      "X": 53,
      "Z": 54,
      "a": 55,
      "b": 56,
      "c": 57,
      "d": 58,
      "e": 59,
      "f": 60,
      "g": 61,
      "h": 62,
      "i": 63,
      "k": 64,
      "l": 65,
      "m": 66,
      "n": 67,
      "o": 68,
      "p": 69,
      "q": 70,
      "r": 71,
      "s": 72,
      "t": 73,
      "u": 74,
      "v": 75,
      "w": 76,
      "x": 77,
      "y": 78,
      "z": 79,
      "¡": 80,
      "¢": 81,
      "£": 82,
      "¤": 83,
      "¥": 84,
      "¦": 85,
      "§": 86,
      "¨": 87,
      "©": 88,
      "ª": 89,
      "«": 90,
      "¬": 91,
      "®": 92,
      "¯": 93,
      "°": 94,
      "±": 95,
      "²": 96,
      "³": 97,
      "´": 98,
      "µ": 99,
      "¶": 100,
      "·": 101,
      "¸": 102,
      "¹": 103,
      "º": 104,
      "»": 105,
      "¼": 106,
      "½": 107,
      "¾": 108,
      "¿": 109,
      "Â": 110,
      "á": 111,
      "â": 112,
      "Ġ": 113,
      "Ģ": 114,
      "ģ": 115,
      "Ĥ": 116,
      "ĥ": 117,
      "Ħ": 118,
      "ħ": 119,
      "Ĩ": 120,
      "ĩ": 121,
      "Ī": 122,
      "ī": 123,
      "Ĭ": 124,
      "ĭ": 125,
      "Į": 126,
      "į": 127,
      "İ": 128,
      "ı": 129,
      "Ĳ": 130,
      "ĳ": 131,
      "Ĵ": 132,
      "ĵ": 133,
      "Ķ": 134,
      "ķ": 135,
      "ĸ": 136,
      "Ĺ": 137,
      "ĺ": 138,
      "Ļ": 139,
      "ļ": 140,
      "Ľ": 141,
      "ľ": 142,
      "Ŀ": 143,
      "ŀ": 144,
      "Ł": 145,
      "ł": 146,
      "Ń": 147,
      "áĪ": 148,
      "áĬ": 149,
      "áĭ": 150,
      "áī": 151,
      "áĮ": 152,
      "ĠáĬ": 153,
      "áį": 154,
      "áĬķ": 155,
      "áį¢": 156,
      "ĠáĪ": 157,
      "áĪĿ": 158,
      "áīµ": 159,
      "Ġáĭ": 160,
      "áĪĪ": 161,
      "áĪį": 162,
      "áĭį": 163,
      "Ġáī": 164,
      "ĠáĬł": 165,
      "áĪŃ": 166,
      "áĪµ": 167,
      "ĠáĬ¥": 168,
      "áĪħ": 169,
      "ĠáĬĲ": 170,
      "áīł": 171,
      "áĭ°": 172,
      "áĭŃ": 173,
      "áĪĺ": 174,
      "áī½": 175,
      "áĪģ": 176,
      "áĮĪ": 177,
      "áĭµ": 178,
      "áĮį": 179,
      "áĬ¥": 180,
      "áĪĭ": 181,
      "áĪ¨": 182,
      "áī°": 183,
      "áī¥": 184,
      "Ġáĭ¨": 185,
      "áĭ«": 186,
      "ĠáĮ": 187,
      "Ġáīł": 188,
      "áĬĵ": 189,
      "ĠáĪĺ": 190,
      "áĭ¨": 191,
      "áĬĲ": 192,
      "ĠáĬĲáĭį": 193,
      "ĠáĬ¥áĬķ": 194,
      "áįĪ": 195,
      "áĬĿ": 196,
      "áĪĽ": 197,
      "ĠáĭŃ": 198,
      "áī³": 199,
      "áĪĪáĪģ": 200,
      "áĪ«": 201,
      "áī¶": 202,
      "áĬł": 203,
      "áĮ¥": 204,
      "áĭĪ": 205,
      "áĮł": 206,
      "áĮ£": 207,
      "áĪ°": 208,
      "áĭ³": 209,
      "áĬĽ": 210,
      "áĬŃ": 211,
      "áī£": 212,
      "áĬ¨": 213,
      "áīħ": 214,
      "áĪī": 215,
      "áī¶áĪĿ": 216,
      "áīĢ": 217,
      "ĠáĪĽ": 218,
      "áĮĭ": 219,
      "áĪ³": 220,
      "áĭİ": 221,
      "áįį": 222,
      "Ġáĭ«": 223,
      "Ġáī°": 224,
      "ĠáĬĲáīł": 225,
      "ĠáĬłáĭŃ": 226,
      "áįĪáĪį": 227,
      "áĭļ": 228,
      "ĠáĪĪ": 229,
      "Ġáī¥": 230,
      "áĪĨ": 231,
      "ĠáĬłáĪį": 232,
      "ĠáĬłáĪĪ": 233,
      "ĠáĬĲáīłáĪŃ": 234,
      "áīĥ": 235,
      "áĪļ": 236,
      "ĠáĬ¥áĬķáĭ°": 237,
      "áĪĿáĬķ": 238,
      "áĬ©": 239,
      "ĠáĬ¨": 240,
      "Ġáīµ": 241,
      "ĠáĪĿ": 242,
      "áĮĪáĪŃ": 243,
      "áĪ©": 244,
      "ĠáĭĪ": 245,
      "áĭĭ": 246,
      "ĠáĪµ": 247,
      "áĭŃáĪħ": 248,
      "ĠáĪ°": 249,
      "áĭļáĪħ": 250,
      "Ġáĭį": 251,
      "áĮ£áĪĿ": 252,
      "áĬķáĪĿ": 253,
      "Ĭáĭ": 254,
      "áī»": 255,
      "ĠáĪĭ": 256,
      "áĬķáĭµ": 257,
      "áĬĶ": 258,
      "Ĭáĭľ": 259,
      "áĪĪáĪħ": 260,
      "áī±": 261,
      "áĭįáĬķ": 262,
      "áĪª": 263,
      "ĠáĪĭáĭŃ": 264,
      "áĬ«": 265,
      "áĪ±": 266,
      "áĭĿ": 267,
      "áĭĽ": 268,
      "áĪ½": 269,
      "ĠáĮĬáĭľ": 270,
      "áī¸": 271,
      "ĠáĬłáĪµ": 272,
      "áįĪáĪįáĮĭ": 273,
      "ĠáĬĲáĮĪáĪŃ": 274,
      "ĠáĪį": 275,
      "áĪµáĮ¥": 276,
      "áĪĺáĪµ": 277,
      "ĠáĭįáĪµáĮ¥": 278,
      "Ġáĭ°": 279,
      "áĬ¥áĬķ": 280,
      "áĪĥ": 281,
      "áĪĦ": 282,
      "áī½áĪĭ": 283,
      "áĭĺ": 284,
      "ĠáĬłáĭŃáĭ°": 285,
      "áĭ¬": 286,
      "áĪ®": 287,
      "áĪ¨áĮį": 288,
      "áĬĲáīµ": 289,
      "ĠáīłáĮ£áĪĿ": 290,
      "ĠáĮ¥": 291,
      "áĭĻ": 292,
      "áĬķáĬķ": 293,
      "áįĭ": 294,
      "áĭİáī½": 295,
      "ĠáĬłáĪĭ": 296,
      "áĭ°áĪŃ": 297,
      "áĪŀ": 298,
      "ĠáīĢ": 299,
      "áĪ»": 300,
      "áĭ²": 301,
      "ĠáĪģ": 302,
      "áĪĪáĪĿ": 303,
      "áĪ¬": 304,
      "áĪĨáĬķ": 305,
      "áĬ¥áĬĶ": 306,
      "áĮ¨": 307,
      "áī¸áĭį": 308,
      "áĪħáĬķ": 309,
      "Ġáĭ¨áĪļ": 310,
      "áīĨ": 311,
      "áĭµáĪ¨áĮį": 312,
      "áī½áĪį": 313,
      "áĬĽáĪį": 314,
      "áĮī": 315,
      "ĠáĮĭ": 316,
      "áī´": 317,
      "ĠáĬłáĪĪáī¥": 318,
      "áĪĨáĬĲ": 319,
      "ĠáĬ¥áĭ¨": 320,
      "áī¤": 321,
      "ĠáĬ¥áĬķáĭ³": 322,
      "áī¡": 323,
      "ĠáĭĪáĭ°": 324,
      "áīģ": 325,
      "áĬĳ": 326,
      "ĠáĮĭáĪŃ": 327,
      "´áīµ": 328,
      "áīłáīµ": 329,
      "ĠáĮĪ": 330,
      "áĪĪáĭį": 331,
      "áįĬ": 332,
      "áĭįáīĥ": 333,
      "áĪģáĬķ": 334,
      "Ġáī³": 335,
      "áĪµáī°": 336,
      "Ġáī¤": 337,
      "áĬĿáĪĿ": 338,
      "áĬĸ": 339,
      "áĮħ": 340,
      "ĠáĬ¥áĬĵ": 341,
      "áĪĦáĭµ": 342,
      "ĠáĬ¥áįĪáĪįáĮĭ": 343,
      "áĬ¥áĪŃ": 344,
      "ĠáĬ¥áįĪáĪįáĮĭáĪĪáĪģ": 345,
      "ĠáĮł": 346,
      "áĬķáī°": 347,
      "áĪĮ": 348,
      "ĠáĪĿáĬķ": 349,
      "ĠáĪĪáĪĺ": 350,
      "áĭįáīħ": 351,
      "áĭĪáĭ°": 352,
      "áĪīáĪĿ": 353,
      "áĪİ": 354,
      "áĮ½": 355,
      "Ġáĭ¨áī°": 356,
      "ĠáĪ°áĭį": 357,
      "áĭ±": 358,
      "ĠáĪĽáĭµáĪ¨áĮį": 359,
      "ĠáĭŃáĪĺáĪµ": 360,
      "áĪĭáĪį": 361,
      "ĠáĮį": 362,
      "áĭ¨áīµ": 363,
      "áīĤ": 364,
      "áĭĭáĪį": 365,
      "áĬĺ": 366,
      "áĬĵáĪį": 367,
      "áī½áĬķ": 368,
      "áĭ´áīµ": 369,
      "áīłáĮ£áĪĿ": 370,
      "Ġáī¥áī»": 371,
      "ĠáĪĪáĪĽ": 372,
      "áĮŃ": 373,
      "áī¼": 374,
      "áĮ«": 375,
      "áĬłáĬķáĭµ": 376,
      "áįĪáĪįáĮį": 377,
      "áīµáĬķ": 378,
      "Ġáĭ¨áĪĿ": 379,
      "áī½áĪįáĪĿ": 380,
      "áĪľ": 381,
      "áĬª": 382,
      "áĮĪáĬĵ": 383,
      "ĠáĬĲáĬĿ": 384,
      "áĪĻ": 385,
      "áī½áĪģ": 386,
      "áĮİ": 387,
      "Ġáī¤áīµ": 388,
      "ĠáįĪ": 389,
      "áĪĪáĬķ": 390,
      "áĭįáīħáĪĿ": 391,
      "áĭŃáĪħáĬķ": 392,
      "áĮĨ": 393,
      "ĠáĪĬ": 394,
      "áĮĢ": 395,
      "áĬĭ": 396,
      "áĪĥáĪį": 397,
      "áĬķáīµ": 398,
      "áĬ¥áĪ±": 399,
      "ĠáĬłáīµ": 400,
      "áī·": 401,
      "áĬ®": 402,
      "áĭļáĭ«": 403,
      "Ġáī¥áĭĻ": 404,
      "ĠáĬĲáĪħ": 405,
      "áĪµáīµ": 406,
      "áĬ¥áĬķáĭ°": 407,
      "áĪĪáī½": 408,
      "ĠáĬĵ": 409,
      "áĪµáĭİ": 410,
      "áĮįáĪŃ": 411,
      "ĠáĮ¥áĪ©": 412,
      "áĪ¸": 413,
      "áī¹": 414,
      "ĠáĬłáĭŃáĭ°áĪĪáĪĿ": 415,
      "áĪŃáĭ«": 416,
      "ĠáĭŃáī½áĪĭ": 417,
      "áĭİáīµ": 418,
      "áĮĪáī£": 419,
      "áĭĵ": 420,
      "áĪĪáīµ": 421,
      "áĬĲáīł": 422,
      "áī³áĪį": 423,
      "áĪ°áĪĽ": 424,
      "áĪĪáĪĿáĬķ": 425,
      "áĪ«áīµ": 426,
      "áĭĪáĭ³": 427,
      "áī¦": 428,
      "áĪħáĪį": 429,
      "áĪĪáī¥": 430,
      "áį£": 431,
      "Ġáī£": 432,
      "Ġáī¥áĭ¬": 433,
      "ĠáĬ¥áĬķáĭµ": 434,
      "áĭ¶": 435,
      "áīħáĪŃ": 436,
      "áĪµáĪĪ": 437,
      "áī¢": 438,
      "áī±áĬķ": 439,
      "áĪĺáĪĪ": 440,
      "ĠáĬ¥áĪŃ": 441,
      "ĠáĬŃ": 442,
      "ĠáĬ¥áĬķáĭ²": 443,
      "Ġáĭ«áĪħáĪį": 444,
      "áĮ¡": 445,
      "áĮĪáĪ¨": 446,
      "áĭµáĪŃ": 447,
      "ĠáĬłáĬķ": 448,
      "ĠáĬ¥áĬķáĭ°áĪļ": 449,
      "ĵáĭ°": 450,
      "Ġáĭµ": 451,
      "áĪ³áĭŃ": 452,
      "áĬ¥áī£": 453,
      "ĠáĬłáĪĭáĭįáīħáĪĿ": 454,
      "áįİ": 455,
      "áĭ«áĬķáĬķ": 456,
      "ĠáĬĵáī¸áĭį": 457,
      "áĪ¨áĬķ": 458,
      "áĬłáĪģáĬķ": 459,
      "áĪĬ": 460,
      "ĠáĪĿáĬķáĪĿ": 461,
      "áĮĥ": 462,
      "ĠáĪ³": 463,
      "áĭĽáĪ¬": 464,
      "áĪĿáĬķáĪĿ": 465,
      "áĪ°áĪ«": 466,
      "áī°áĬĽ": 467,
      "áĪĲ": 468,
      "áĬ¥áĭļáĪħ": 469,
      "áįĬáīµ": 470,
      "áĪģáĪīáĪĿ": 471,
      "áĪĺáĬķ": 472,
      "áĪĺáĮ£": 473,
      "áĪĪáĬĿáĪĿ": 474,
      "áĮ£áīµ": 475,
      "áĬ©áīµ": 476,
      "áĪªáĭ«": 477,
      "ĠáĪĺáĬķ": 478,
      "Ġáĭ«áĪµ": 479,
      "áĬĭáĪĭ": 480,
      "ĠáĬłáĭįáīĥ": 481,
      "áī¥áĭĻ": 482,
      "áĪĪáĬĽáĪį": 483,
      "ĠáĬ¥áĬķáĭ´áīµ": 484,
      "áĬŀ": 485,
      "áĬ¥áĪŃáĪµáĭİ": 486,
      "áĭ°áĪ¨": 487,
      "ĠáĬłáĭįáīĥáĪĪáĪģ": 488,
      "ĠáĬ¥áĭ«": 489,
      "ĠáĬłáĪįáī½áĪįáĪĿ": 490,
      "áĪŃáĭ«áĪĿ": 491,
      "áĪĿáĪħ": 492,
      "áįĪáĪįáĮįáĪĿ": 493,
      "ĠáĪģáĪī": 494,
      "ĠáĪĺáĪµ": 495,
      "áī£áīµ": 496,
      "áĬķáĭĺ": 497,
      "ĠáĬłáĭ«": 498,
      "ĠáĬ¥áĬķáĭ°áĪĨáĬĲ": 499,
      "Ġáĭ¨áĪĽ": 500,
      "ĠáĬ«": 501,
      "ĠáĪĺáĪĨáĬķ": 502,
      "ĠáĪµáĪĪ": 503,
      "áĬªáĬĵ": 504,
      "áīĦ": 505,
      "áīĭ": 506,
      "áĪĺáĪį": 507,
      "Ġáī¦": 508,
      "áįĪáĪįáĮĪ": 509,
      "ĠáīĨ": 510,
      "áī·áĪį": 511,
      "Ġáĭ¨áīµ": 512,
      "áĮįáĮł": 513,
      "áĪĿáīµ": 514,
      "ĠáĪĽáĬķ": 515,
      "ĠáĮī": 516,
      "ĠáĬłáĪĪáī¥áĬĿ": 517,
      "áĭ©": 518,
      "áĬ¥áĭį": 519,
      "ĠáĬłáĪī": 520,
      "ĠáĬłáĬķáĭµ": 521,
      "áĪ°áī¥": 522,
      "áĬłáĬķáī°": 523,
      "áĬ©áĪĿ": 524,
      "áĭ¬áĬķ": 525,
      "áįĪáĪĪ": 526,
      "áĪŃáīµ": 527,
      "áįĵ": 528,
      "ĠáĪĨ": 529,
      "ĠáĮįáĬķ": 530,
      "áĭİáĬķ": 531,
      "áĬ¥áĬĲ": 532,
      "áĪĽáĪª": 533,
      "Ġáĭĺ": 534,
      "áĪ¨áĭ³": 535,
      "áĬĵáĮĪáĪŃ": 536,
      "áī³áĭį": 537,
      "Ġáĭĵ": 538,
      "áĪ¨áĭį": 539,
      "ĠáīłáĬĭáĪĭ": 540,
      "áĬŃáĪį": 541,
      "áĪ·": 542,
      "ĠáĪĺáĮł": 543,
      "ĠáĪŀ": 544,
      "áĭĬ": 545,
      "áįĸ": 546,
      "ĠáĭŃáĪĺáĪµáĪĪáĬĽáĪį": 547,
      "áĪĺáĪŃ": 548,
      "ĠáĭŃáįĪáĪįáĮĭ": 549,
      "Ġáįį": 550,
      "áĪĽáĬķ": 551,
      "áĭ°áĪŃáĮĭ": 552,
      "áĮįáĮłáĬĽ": 553,
      "áĮĪáĭµ": 554,
      "áĪ¨áĬķáĪ³áĭŃ": 555,
      "Ġáī½": 556,
      "áĬĺáīµ": 557,
      "áī²": 558,
      "ĠáĬ¥áī½áĪĭ": 559,
      "ĠáĬ¥áī½áĪĭáĪĪáĪģ": 560,
      "Ġáĭ«áĪĪ": 561,
      "ĠáĮĵáĭ°": 562,
      "ĠáĭĿ": 563,
      "áĪ¨áĪµ": 564,
      "áĬķáĭĺáī¥": 565,
      "áįī": 566,
      "ĠáĬłáĪįáĬĲáīł": 567,
      "áī¶áī½": 568,
      "áīłáĭļáĪħ": 569,
      "áĪĪáĪĺ": 570,
      "ĠáĪµáĪ«": 571,
      "áĪµáī°áĬĽ": 572,
      "Ġáīµáī½áĪĭ": 573,
      "áĭĪáīµ": 574,
      "ĠáĪĺáĪĦáĭµ": 575,
      "ĠáĪ²": 576,
      "áĪĭáīµ": 577,
      "áĭķ": 578,
      "áī»áĪĪáĪģ": 579,
      "¥áĪ«": 580,
      "áĮ½áĪĲ": 581,
      "áĭĪáīħ": 582,
      "ĠáĬ¥áĭļáĪħ": 583,
      "áĬĽáĭį": 584,
      "Ġáī°áĪµ": 585,
      "ĠáĭŃáĪĺáĪµáĪĭáĪį": 586,
      "áĪ¨áĬķáĪ³áĭŃáĬĽ": 587,
      "Ġáī¶": 588,
      "áĭ°áĪŃáĮį": 589,
      "áī£áĪĪáĪģ": 590,
      "áī¤áīµ": 591,
      "áĬĵáĬķáīµ": 592,
      "ĠáīµáĬķ": 593,
      "áĭĭáĪĪáĪģ": 594,
      "áīłáĪĭ": 595,
      "áĪįáīħ": 596,
      "áĬ¥áī£áĬŃ": 597,
      "áĮĪáĬĺ": 598,
      "áĬ³": 599,
      "ĠáĭŃáī½áĪĭáĪį": 600,
      "áĪĺáīµ": 601,
      "áĭŃáĪħáĬķáĬķ": 602,
      "ĠáĬŃáįį": 603,
      "ĠáĪĻ": 604,
      "ĠáīłáįĬáīµ": 605,
      "áĬłáĬķ": 606,
      "ĠáĭŃáī½áĪĭáĪī": 607,
      "áĪ¶": 608,
      "áĪ©áĬķ": 609,
      "áĬĲáĮĪ": 610,
      "ĠáĬłáĭ°": 611,
      "áĬĲáĭį": 612,
      "Ġáĭ¨áĪļáĭ«": 613,
      "ĠáĪĢ": 614,
      "áīĢáĪĿ": 615,
      "ĠáĬķ": 616,
      "Ġáī¢": 617,
      "ĠáĬłáĭŃáĭ°áĪį": 618,
      "ĠáĬłáĪĪáĬĿ": 619,
      "ĠáīµáĬķáĪ½": 620,
      "ĠáĬĲáīłáĪ¨": 621,
      "ĠáĪ°áĭİáī½": 622,
      "Ġáīģ": 623,
      "áīłáĪĪ": 624,
      "ĠáĪĦ": 625,
      "áĪĭáĭŃ": 626,
      "Ġáīħ": 627,
      "áĪ®áī½": 628,
      "ĠáĬłáĪĪáī¥áĪħ": 629,
      "ĠáĬłáĭŃáĪĺáĪµ": 630,
      "áĪģáĬķáĪĿ": 631,
      "áĪįáĮ": 632,
      "áĪħáĪĿ": 633,
      "ĠáĬłáĪµáī£áĪĪáĪģ": 634,
      "áĪ´": 635,
      "ĠáĬłáĪįáįĪáĪįáĮįáĪĿ": 636,
      "áĪĿáĪħáĪŃáīµ": 637,
      "Ġáīµáī½áĪĭáĪĪáĪħ": 638,
      "áĭ¨áīĢ": 639,
      "áĬ¥áĬķáĭ´áīµ": 640,
      "áĭ¨áī°": 641,
      "ĠáĭŃáįĪáĪįáĮĭáĪī": 642,
      "ĠáĭŃáĪħáĬķ": 643,
      "áī½áĭį": 644,
      "ĠáīłáĪĺ": 645,
      "ĠáĬ¥áĪµ": 646,
      "Ġáī°áĪµáįĭ": 647,
      "ĠáĮĪáĬķáĭĺáī¥": 648,
      "ĠáĬłáĪ³": 649,
      "áĪĥáĪĪáĪģ": 650,
      "áĭ³áīµ": 651,
      "Ġáī¦áī³": 652,
      "Ġáī³áĭįáīĥ": 653,
      "áĬłáīµ": 654,
      "ĠáĬłáĭµáĪŃ": 655,
      "áĮįáī¥": 656,
      "áĮłáī¥": 657,
      "áīĢáĮ¥": 658,
      "áįķ": 659,
      "Ġáĭ¨áĪĪáĬĿáĪĿ": 660,
      "áĭĪáĭµ": 661,
      "áĬŃáĬŃáĪį": 662,
      "áĮ¨áĪ¨": 663,
      "áĪģáīµ": 664,
      "ĠáĮĢ": 665,
      "áīłáĪĪáĮł": 666,
      "ĠáĬłáĪµáī°": 667,
      "ĠáĪįáĮħ": 668,
      "ĠáĬłáĪįáĬĲáīłáĪ¨": 669,
      "áĭ«áĭį": 670,
      "áĭİáī½áĬķ": 671,
      "áįįáīµ": 672,
      "Ġáīĥ": 673,
      "áīłáīħ": 674,
      "áĪ³áī¥": 675,
      "áĬ¨áī°": 676,
      "ĠáĮ¨": 677,
      "áĬĵáīµ": 678,
      "Ġáī³áĭįáīĥáĪĪáĪħ": 679,
      "áĬ¥áĭįáĬĲáīµ": 680,
      "ĠáĪ¨": 681,
      "áīµáĬĵáĬķáīµ": 682,
      "áĪįáĪĿ": 683,
      "áĪįáĬŃ": 684,
      "ĠáĬ¥áĭĪáĭ³": 685,
      "áĪĽáĪŃ": 686,
      "ĠáĬłáĪįáī»": 687,
      "Ġáĭ¨áĪĺ": 688,
      "áĮĮ": 689,
      "Ġáĭ¨áĪĿáīµ": 690,
      "áīĢáĪĺ": 691,
      "áĮ¥áĪ©": 692,
      "ĠáĬ¥áĬķáĭµáīµ": 693,
      "Ġáī¶áĪĿ": 694,
      "áĬĵáĪĪáĪģ": 695,
      "áĪĽáĬķáĪĿ": 696,
      "áĭ«áĬķ": 697,
      "áĭ³áĬķáĭµ": 698,
      "áĬ¥áĬĽ": 699,
      "áī°áīµ": 700,
      "áĭĪáĪµ": 701,
      "áīłáĬł": 702,
      "ĠáĪ°áĭĵ": 703,
      "ĠáĬłáĪĪáĪħ": 704,
      "áĮ¨áĪ¨áĪ»": 705,
      "áĬĳáĬķ": 706,
      "áĬ¥áĪµ": 707,
      "áĭ¨áĪļ": 708,
      "ĠáĬ¥áĬķáĭ°áĪĽ": 709,
      "Ġáĭ°áĪµáī°áĬĽ": 710,
      "ĠáĬłáĪįáī°": 711,
      "ĠáĮĵáĭ°áĬĽ": 712,
      "ĠáĪĪáĪĿáĬķ": 713,
      "áĭ¨áĪĿ": 714,
      "áĮįáĪ": 715,
      "áįĴ": 716,
      "ĠáĬłáĪĪáī¥áĬķ": 717,
      "áĪįáĬĿ": 718,
      "áĬ¨áĪŃ": 719,
      "áīĢáĭµ": 720,
      "ĠáīłáĪĭáĭŃ": 721,
      "ĠáĬ¥áĭĪáĭ³áĪĪáĪģ": 722,
      "ĠáĬłáĭį": 723,
      "áĪµáĪ«": 724,
      "áĪĪáĪģáĪĿ": 725,
      "ĠáĬłáĭŃáĭ°áĪĪáĪģáĪĿ": 726,
      "áĮĢáĪĺ": 727,
      "ĠáĬłáĭŃáĬĲáīµ": 728,
      "ĠáĪĽáĪŃáĭ«áĪĿ": 729,
      "ĠáĬ¥áĭ¨áī°": 730,
      "áī³áīµ": 731,
      "áĬ¥áĬĲáĭļáĪħ": 732,
      "áĮĵ": 733,
      "áĭ°áĬķ": 734,
      "áī°áĪĥáĪį": 735,
      "áĭ«áīĦ": 736,
      "ĠáĮİ": 737,
      "áĬĲáĮĭ": 738,
      "ĠáĪĽáī³": 739,
      "ĠáĬłáĪĪáĭį": 740,
      "áĪĦáĭ³": 741,
      "áįĥ": 742,
      "Ġáī°áĬĵ": 743,
      "ĠáīĢáĬķ": 744,
      "ĠáĬĲáĮĪ": 745,
      "ĠáĪĺáĮ½áĪĲ": 746,
      "Ġáĭ¨áĪĪáĪĿ": 747,
      "ĠáĮīáĭ³": 748,
      "áĮģ": 749,
      "áĬŀáī½": 750,
      "Ġáī½áĮįáĪŃ": 751,
      "ĠáĬ¥áĪŃáĮįáĮłáĬĽ": 752,
      "áĪ³áīµ": 753,
      "áĬĴ": 754,
      "ĠáĬ¥áĬķáĭ°áĪĿ": 755,
      "áĬĸáĪŃ": 756,
      "áĭ°áĭį": 757,
      "ĠáĭĪáĭŃ": 758,
      "áĪµáī³": 759,
      "ĠáīłáĬł": 760,
      "áī¹áĬķ": 761,
      "áĬĶáī³": 762,
      "áĪ«áĪį": 763,
      "áĮĨáī½": 764,
      "áĮłáĭŃ": 765,
      "ĠáĪĺáĬķáĮĪáĭµ": 766,
      "áĪĮáĪĭ": 767,
      "ĠáīµáįĪáĪįáĮĭ": 768,
      "ĠáĪħ": 769,
      "áĪ±áĬķ": 770,
      "ĠáĬłáĭ°áĪŃáĮĭ": 771,
      "ĠáĬłáī³": 772,
      "áĭµáĬķ": 773,
      "Ġ\"": 774,
      "áĮĬ": 775,
      "ĠáĪĺáĪį": 776,
      "áīµáĬķáĪ½": 777,
      "Ġáĭ¨áĪĨáĬĲ": 778,
      "áĪĭáī½": 779,
      "ĠáĭŃáĪĨ": 780,
      "ĠáĬłáĭ°áĪŃáĮĭáĪĪáĪģ": 781,
      "áĬķáĭ«": 782,
      "áĮłáĬķ": 783,
      "áĮ¦": 784,
      "áīłáĪį": 785,
      "áĬ¬": 786,
      "áī£áĭµ": 787,
      "ĠáĪĺáĬªáĬĵ": 788,
      "ĠáĪĿáĬŃ": 789,
      "áĭ´": 790,
      "áĮĪáĭį": 791,
      "áĮĢáĪĺáĪªáĭ«": 792,
      "ĠáĪĿáĬķáĭµ": 793,
      "áĭ°áī¥": 794,
      "ĠáĬĲáĭİáīµ": 795,
      "áĬ¸": 796,
      "áĪµáī¥": 797,
      "ĠáĪ°áĭĵáīµ": 798,
      "áĮ»": 799,
      "áĭİáī³áĪį": 800,
      "áįĪáĪįáĮĪáĭį": 801,
      "ĠáĪģáĬĶáī³": 802,
      "áīħáĪŃáī³": 803,
      "ĠáĪĮ": 804,
      "ĠáĪ¥áĪ«": 805,
      "áĪĺáĪ°": 806,
      "áĪĭáī½áĪģ": 807,
      "áĮįáĬĺáīµ": 808,
      "áĬłáĪµ": 809,
      "áĭĪáĮ£": 810,
      "áĮĦ": 811,
      "áĪįáĪħ": 812,
      "áĮĪáĬĿ": 813,
      "ĠáīłáĪĽ": 814,
      "áĭĪáĪ°": 815,
      "áįĪáĭį": 816,
      "áĬ¨áīµ": 817,
      "ĠáĪĽáĪĪáīµ": 818,
      "áĬ¥áĪ·": 819,
      "ĠáĭŃáĪħ": 820,
      "ĠáĪĻáĪī": 821,
      "áī°áĭĭáĪį": 822,
      "ĠáĬĲáī½": 823,
      "ĠáīµáįĪáĪįáĮĭáĪĪáĪħ": 824,
      "áĪ²": 825,
      "ĠáĮ£": 826,
      "áĪģáĪĪ": 827,
      "áĪ«áĪĪáĪģ": 828,
      "áĬĲáĮį": 829,
      "áĬĽáĪĪáĪģ": 830,
      "áĭ²áĪµ": 831,
      "ĠáĭŃáĪĨáĬĵáĪį": 832,
      "ĠáĪĽáĭ¨áīµ": 833,
      "áĪĿáĪŃ": 834,
      "ĠáĬ¥áĬķáĭ³áĪĪ": 835,
      "Ġáĭ¨áīłáĪĪáĮł": 836,
      "ĠáĬ¥áĬĶ": 837,
      "ĠáĭŃáĪ°áĪĽ": 838,
      "áīłáĪ¨": 839,
      "ĠáĪĺáĮ½áĪĲáįį": 840,
      "áįĢ": 841,
      "ĠáĪĪáĪĽáĭµáĪ¨áĮį": 842,
      "ĠáĪįáīµ": 843,
      "áĪĺáĪĪáĪµ": 844,
      "ĠáĬłáĪģáĬķ": 845,
      "áīłáĪĺ": 846,
      "áĬ¥áī£áĬŃáĪħ": 847,
      "áĮ¸": 848,
      "áĪķ": 849,
      "Ġáī¥áĪİ": 850,
      "áĭŀ": 851,
      "áĮħáĪĿ": 852,
      "áĪµáī°áĬķ": 853,
      "áĮ¥áĬĲáīµ": 854,
      "áī¶áĪĿáĬķ": 855,
      "áīĢáĭį": 856,
      "áĬ¨áĭļáĪħ": 857,
      "áīĨáĪĿ": 858,
      "áīģáĪĿ": 859,
      "áĬķáĮĨ": 860,
      "Ġáĭ«áĬķáĬķ": 861,
      "áĭ«áĪĪáĪģ": 862,
      "ĠáĮīáĭ³áĭŃ": 863,
      "ĠáĪĺáī¥": 864,
      "áĮłáĬĿ": 865,
      "Ġáĭ¨áĬł": 866,
      "áī¥áĬĿ": 867,
      "áĮ¥áįİ": 868,
      "áĬ¥áĬĵ": 869,
      "áĮīáīµ": 870,
      "ĠáĬłáĭŃáĪĺáĪµáĪĪáĬĿáĪĿ": 871,
      "áī°áĭį": 872,
      "áĪŀáĬŃ": 873,
      "áĪįáįį": 874,
      "áĮłáĪ¨": 875,
      "ıáĪį": 876,
      "áĪł": 877,
      "ĠáĭŃáĭĪáĭ³": 878,
      "áĭ®": 879,
      "ĠáĮ¥áĭ«áīĦ": 880,
      "áĮ¥áĪŃ": 881,
      "Ġáĭ«áĭįáīĥ": 882,
      "ĠáĬ¨áĪĺ": 883,
      "ĠáīµáĪįáīħ": 884,
      "áĪŃáĭ«áĪĿáĬķ": 885,
      "áĪħáĬĵ": 886,
      "ĠáĪµáĪľ": 887,
      "áĬ«áĪģáĬķ": 888,
      "áīłáĪŃ": 889,
      "áĬłáĪį": 890,
      "Ġáĭĭ": 891,
      "ĠáĪµáĬķáīµ": 892,
      "áĮ«áĭĪáīµ": 893,
      "ĠáīĥáĪį": 894,
      "áī£áĪĪ": 895,
      "áī´áĬķ": 896,
      "ĠáĬ¨áī£áĭµ": 897,
      "áĪĪáĬĽ": 898,
      "ĠáĬ¥áĭį": 899,
      "áĭĿáĬĵ": 900,
      "ĠáĬ¥áĬķáĭ³áĪĪáī¥": 901,
      "áĪĻáĪī": 902,
      "ĠáĬŃáįįáĪį": 903,
      "áĬĻ": 904,
      "áī°áĪŃ": 905,
      "áĬłáĪģáĬķáĪĿ": 906,
      "áī¥áĪµ": 907,
      "áĪĿáĬķáīµ": 908,
      "áīĤáīµ": 909,
      "áĪĤ": 910,
      "ĠáįĪáĪ¨áĬķáĪ³áĭŃáĬĽ": 911,
      "ĠáĬłáĪįáĬĲáīłáĪ¨áĪĿ": 912,
      "ĠáĬłáĬķáī°": 913,
      "ĠáĬłáĪµáįĪ": 914,
      "ĠáĭĽ": 915,
      "áĪ¨áĮĭ": 916,
      "áĮĪáĪ¨áĬĿ": 917,
      "ĠáĪĽáĭĪáīħ": 918,
      "áĮĵáĭ°": 919,
      "áĭ¨áĪŃ": 920,
      "áĪŃáĪ³": 921,
      "ĠáĭµáĪ¨áĪµ": 922,
      "Ġáĭķ": 923,
      "ĠáĬ¥áĭµ": 924,
      "Ġáīłáįį": 925,
      "áįĪáĪ¨áĬķáĪ³áĭŃáĬĽ": 926,
      "áĭ°áĪĿ": 927,
      "Ġáĭ°áĪµ": 928,
      "ĠáĪĽáĬķáĪĿ": 929,
      "áī¥áī»": 930,
      "áĬĲáĮĭáĮĪáĪŃ": 931,
      "áĪ³áī½": 932,
      "áįĵáĪŃ": 933,
      "áĪ¨áīµ": 934,
      "áĬ¨áĭį": 935,
      "ĠáĬłáĪĿ": 936,
      "ĠáĪĢáĪ³áī¥": 937,
      "ĠáĬĲáĬķ": 938,
      "áĭ¨áĪģ": 939,
      "áĪ°áĭį": 940,
      "áĪĺáĪ¨": 941,
      "áĭ¨áĪĨáĬĲ": 942,
      "áīłáī¥": 943,
      "¯áĪį": 944,
      "Ġáĭ¨áĪĪáī¥": 945,
      "áĭĺáĮĭ": 946,
      "Ġáĭ«áĪĪáĭį": 947,
      "áĬłáĬķáĭ³áĬķáĭµ": 948,
      "ĠáĪĺáĪµáĪİ": 949,
      "áĪĺáĪ°áĮį": 950,
      "ĠáĪĺáĭį": 951,
      "áĭ¨áīħ": 952,
      "áĭ³áī³": 953,
      "áīłáīĥ": 954,
      "áĭ°áĪ¨áĮį": 955,
      "ĠáĬłáĪĪáīłáīµ": 956,
      "ĠáĬ¥áĪĺ": 957,
      "áĪ¥": 958,
      "ĠáĪ«": 959,
      "ĠáĪĿáĬŃáĬķáĭ«": 960,
      "áīłáĭĿ": 961,
      "áĪħáī°áīµ": 962,
      "ĠáĪĺáĮį": 963,
      "áĪĽáīµ": 964,
      "ĠáĬłáĭ«áĪµ": 965,
      "áĪĭáĮĬ": 966,
      "ĠáĪĿáĮįáī¥": 967,
      "áĭŃáĭĪáīµ": 968,
      "Ġáĭ«áĪĪáī¥": 969,
      "áĪĪáĭįáĪĿ": 970,
      "áĭĭáīµ": 971,
      "áĬ¨áĪį": 972,
      "áĪŃáĪµ": 973,
      "ĠáĬłáĪµáĭ°": 974,
      "ĠáĬ¥áĬķáĭ°áĪĿáīµ": 975,
      "ĠáĪĿáĬķáĭµáĬķ": 976,
      "áĬłáī£": 977,
      "áĬŃáįį": 978,
      "áĪĨáĬĳ": 979,
      "áĪĢ": 980,
      "áĪĺáĬªáĬĵ": 981,
      "áĮĪáĬĽ": 982,
      "áĪĭáĪī": 983,
      "ĠáĪµáĪľáīµ": 984,
      "áĮ¹": 985,
      "áĭĽáīµ": 986,
      "áĮįáĮģ": 987,
      "áĪģáĪī": 988,
      "áĬĲáĪ³": 989,
      "áĬ¨áĪ°": 990,
      "ĠáĬ®": 991,
      "ĠáĬłáĮį": 992,
      "áīĢáīħ": 993,
      "áĪĭáī½áĬķáĪĿ": 994,
      "ĠáĪĽáĪŃáĭ«áĪĿáĬķ": 995,
      "áĬ¥áĭįáĬĲ": 996,
      "Ġáīłáī°": 997,
      "áĬ¨áĪ¨": 998,
      "áĬ¥áĪŃáĮįáĮłáĬĽ": 999,
      "ĠáīĨáĬķáĮĨ": 1000,
      "áī°áĬĵáĪį": 1001,
      "áĬĵáĮĪ": 1002,
      "áīĢáĪŃ": 1003,
      "áĮİáīµ": 1004,
      "ĠáĬłáĮĪáĬĺ": 1005,
      "áīĢáīµ": 1006,
      "áĭĪáĭµáĪĿ": 1007,
      "áĪĿáĮ£áīµ": 1008,
      "Ġáĭ¨áĪĪáĭįáĪĿ": 1009,
      "áĮįáĭ³": 1010,
      "áīħáĭµ": 1011,
      "áĪįáĬ©": 1012,
      "ĠáĬ¨áī°": 1013,
      "ĠáīµáĪĿáĪħáĪŃáīµ": 1014,
      "áĮ¨áĬĲ": 1015,
      "áĪĪáĪĽ": 1016,
      "áĮĪáĭĽ": 1017,
      "áĪįáĬ©áĪĿ": 1018,
      "áĭ³áĬķ": 1019,
      "áĪ»áĪĪ": 1020,
      "áĮįáĪŃáĪħ": 1021,
      "ĠáĬ¥áĬķáĭ°áĮĪáĬĵ": 1022,
      "áĪİáī½": 1023,
      "áĪĪáĬĿ": 1024,
      "áĪµáĪĿ": 1025,
      "ĠáĪĺáī¼": 1026,
      "ĠáĬłáī¥": 1027,
      "áįĸáĪĬ": 1028,
      "áĪ¨áĮĥ": 1029,
      "ĠáĬ¥áĬķáĭ³áĪį": 1030,
      "ĠáĬĸ": 1031,
      "áĬ¨áĪĺ": 1032,
      "áĬĵáĪįáī£áīµ": 1033,
      "áī¢áĭ«": 1034,
      "ĠáĪĺáĮ£": 1035,
      "áī½áĪīáĪĿ": 1036,
      "áĬ¨áįį": 1037,
      "áĪĪáįį": 1038,
      "áĪģáĪīáĬķáĪĿ": 1039,
      "áĭįáĪ»": 1040,
      "áī¸áĭįáĬķ": 1041,
      "ĠáĭŃáĪ°áĪĽáĬĽáĪį": 1042,
      "áī³áĪĿ": 1043,
      "áĬ³áĬķ": 1044,
      "ĠáĪĬáĪĨáĬķ": 1045,
      "áĪįáĮĬáĭľ": 1046,
      "áĬĵáĮĪáĪ¨": 1047,
      "áĪ«áĪµ": 1048,
      "áĪ¥áĪ«": 1049,
      "ĠáĬłáĭŃáī½áĪīáĪĿ": 1050,
      "áĬ«áī½áĪģ": 1051,
      "áĮįáĮ¥": 1052,
      "áĮłáĪŃ": 1053,
      "áĪĺáĪ³": 1054,
      "áī³áĪĪáĪģ": 1055,
      "áĭ±áĬķ": 1056,
      "ĠáĪĮáĪĭ": 1057,
      "áĬķáīĥ": 1058,
      "áī£áĪį": 1059,
      "áĭ¨áĬł": 1060,
      "áīłáīĢ": 1061,
      "áīĤáīĥ": 1062,
      "áĪĪáĪħáĪĿ": 1063,
      "áĮ¨áĪĽáĪª": 1064,
      "Ġáī¥áĪĪáĭį": 1065,
      "ĠáĬłáĮįáĬĿ": 1066,
      "áīª": 1067,
      "áīĢáĮ¥áĪĪáĭį": 1068,
      "ĠáĪĺáĪµáĪİáĬĿ": 1069,
      "áĮĬáĭľ": 1070,
      "ĠáĬłáĪĺáīµ": 1071,
      "ĠáīĢáĪĭáĪį": 1072,
      "ĠáĬłáĪĪáī¥áĭİáīµ": 1073,
      "áĬłáĭŃ": 1074,
      "áĭ¶áī½": 1075,
      "áĪĺáĭµ": 1076,
      "áĭ°áĪ¨áĮĪ": 1077,
      "ĠáĮĪáī£": 1078,
      "áĮįáĪĬáĭ": 1079,
      "áĬ¥áĬķáĭµ": 1080,
      "áĪĽáĪĽ": 1081,
      "ĠáĬ¥áĮł": 1082,
      "Ġáīłáīµ": 1083,
      "ĠáĪĽáĮįáĬĺáīµ": 1084,
      "áĬłáī¥": 1085,
      "Ġáĭ°áīĤáīĥ": 1086,
      "Ġáĭ³": 1087,
      "ĠáīłáĪį": 1088,
      "ĠáĬłáĪµáįĪáĪĭáĮĬ": 1089,
      "áĪ¨áĬĿ": 1090,
      "´áĭĽ": 1091,
      "áĮ´áĭĽ": 1092,
      "áīº": 1093,
      "áįĮ": 1094,
      "ĠáĭĪáĬķ": 1095,
      "áĭĪáĪĭ": 1096,
      "ĠáĬ¥áĬķáĭ°áĪĨáĬķ": 1097,
      "áĭ°áĪŃáĮĪáĭį": 1098,
      "áĬ¥áī£áĬ«áī½áĪģ": 1099,
      ".\"": 1100,
      "áĪļáīĢáĮ¥áĪĪáĭį": 1101,
      "ĠáĬ¥áĪ±": 1102,
      "ĠáĪģáĪīáĪĿ": 1103,
      "áĭ°áĬķáī¥": 1104,
      "áĪĺáī¼": 1105,
      "ĠáĬłáĪįáī»áĪįáĬ©áĪĿ": 1106,
      "ĠáĬłáĪģáĬķáĪĿ": 1107,
      "Ġáĭ¨áĪĽáĭŃ": 1108,
      "Ġáī¡": 1109,
      "ĠáĬłáĪµáī¤": 1110,
      "áĮĤ": 1111,
      "áĭ²áĪħ": 1112,
      "ĠáĪķ": 1113,
      "áĭ«áĪµ": 1114,
      "áĭĪáĬķáĭµ": 1115,
      "áĪ°áī£": 1116,
      "áĭ³áī¤": 1117,
      "áĪīáīµ": 1118,
      "ĠáĪĽáĪµ": 1119,
      "áīĥáīµ": 1120,
      "ĠáĬ¨áįį": 1121,
      "áĮ¤": 1122,
      "áĮĭáĭį": 1123,
      "Ġáĭ«áĪį": 1124,
      "áīĢáĪĺáĮ¥": 1125,
      "Ġáĭ¨áĪĪ": 1126,
      "ĠáĬłáĭ«áĭįáīħáĪĿ": 1127,
      "áĬ¨áī¥": 1128,
      "ĠáĭĪáĪ°": 1129,
      "áĭľ": 1130,
      "ĠáĪĨáĬĸ": 1131,
      "áĪĭáĮİáīµ": 1132,
      "ĠáĪģáĪĪáīµ": 1133,
      "áĬ¥áĭ¨": 1134,
      "ĠáĪĺáīĨ": 1135,
      "áĭ¨áĪĿáīµ": 1136,
      "áīĨáĭŃ": 1137,
      "áĪģáĪĭáī½áĬķáĪĿ": 1138,
      "ĠáĪĺáĬĵáĮĪáĪŃ": 1139,
      "áįĪáĪ«": 1140,
      "áĬĿáĬĲáīµ": 1141,
      "ĠáĭŃáĮĪáī£": 1142,
      "áī°áĬĵ": 1143,
      "ĠáĬ¥áĬķáĬ³áĬķ": 1144,
      "áĪĽáĪŃáĭ«áĪĿ": 1145,
      "ĠáĪµáĪħáī°áīµ": 1146,
      "áįĪáĪĪáĮį": 1147,
      "ĠáĪĺáĮ¥áįİ": 1148,
      "ĠáįĪáĪį": 1149,
      "áīłáĪµ": 1150,
      "ĠáĪĺáĪĨ": 1151,
      "áī¡áĬķ": 1152,
      "áĬ¥áĬķáĭ°áĮĪáĬĵ": 1153,
      "áĪ°áĪį": 1154,
      "ĠáĬłáĮ¥": 1155,
      "ĠáīłáĪĻáĪī": 1156,
      "Ġáī£áĪĪ": 1157,
      "ĠáĪĨáĬĲ": 1158,
      "ĠáĮĪáĭĽ": 1159,
      "áĪ¹": 1160,
      "áĭŃáīħáĪŃáī³": 1161,
      "ĠáĬĲáīłáĪ©": 1162,
      "áĪ°áĮ¥": 1163,
      "áĪŀáĬ¨áĪŃ": 1164,
      "áĬ©áĪħ": 1165,
      "áįĵáĬķ": 1166,
      "áĭ¨áĪĽ": 1167,
      "ĠáĪĽáĭį": 1168,
      "áĬķáĮį": 1169,
      "ĠáĬłáĮł": 1170,
      "áĬ¥áĮįáĪŃ": 1171,
      "ĠáįĬ": 1172,
      "Ġáĭ¨áĪĿáįĪáĪįáĮĪáĭį": 1173,
      "áĭ¨áĪĺ": 1174,
      "áīħáĪŃáī¡": 1175,
      "ĠáĪ³áĪĿáĬķáīµ": 1176,
      "ĠáĮ«": 1177,
      "áīħáĪĿ": 1178,
      "áĪªáĬŃ": 1179,
      "ĠáĭĪáĭŃáĪĿ": 1180,
      "áĪĿáĪ®": 1181,
      "áĪĭáĪĪáĪģ": 1182,
      "ĠáĬłáĪµáĭ°áĪ³áī½": 1183,
      "áĪ´áīµ": 1184,
      "áĮĪáī¥": 1185,
      "áī³áī½": 1186,
      "áĮ«áĭĪ": 1187,
      "áĪ«áĭį": 1188,
      "ĠáĪĿáĪŃ": 1189,
      "ĠáĭĿáĮįáĮģ": 1190,
      "ĠáĪĿáĬŃáĬķáĭ«áīµ": 1191,
      "áįģ": 1192,
      "áĪ°áĭĵ": 1193,
      "ĠáĬ¥áĪĺáĬĽáĪĪáĪģ": 1194,
      "ĠáĬ¥áĪŃáĪµáĭİ": 1195,
      "áĬ¥áĭļáĭ«": 1196,
      "áĬ¥áĬķáĭ°áĭļáĪħ": 1197,
      "ĠáĬ¥áĬķáĭ³áĪĪáī¥áĬĿ": 1198,
      "áĪ¨áįįáīµ": 1199,
      "ĠáĬĲáīłáĪŃáĬ©": 1200,
      "áī¤áī°": 1201,
      "ĠáĭĪáĮ£": 1202,
      "áĭ¥": 1203,
      "áĬŃáĪĮ": 1204,
      "ĠáĬłáĭŃáī½áĪįáĪĿ": 1205,
      "áĬ¥áĪŃáĮįáĮ¥": 1206,
      "ĠáĭĵáĭŃ": 1207,
      "Ġáī°áĮł": 1208,
      "ĠáĭįáĮŃ": 1209,
      "áī§": 1210,
      "áīłáĭį": 1211,
      "áĪĭáĪĪáĪħ": 1212,
      "áĭ¨áī¶áĪĿ": 1213,
      "áĮ¥áīĤáīµ": 1214,
      "ĠáĪĦáĭ°": 1215,
      "áĬ¥áĪµáĬ«áĪģáĬķ": 1216,
      "áĮ®": 1217,
      "áĮįáī£": 1218,
      "áĪ°áĪŃ": 1219,
      "ĠáĬłáĪĭáĪĿáĬķáĪĿ": 1220,
      "áĭ¨áīĢáĬĳ": 1221,
      "áīĢáĪµ": 1222,
      "áĬ«áĪį": 1223,
      "ĠáĪĺáĪŃ": 1224,
      "áī£áĪī": 1225,
      "ĠáĮłáĬķ": 1226,
      "áĬłáĭį": 1227,
      "¦áĪµáīµ": 1228,
      "ĠáīłáīĤ": 1229,
      "áĪµáī³áĭį": 1230,
      "áī¶áī¡": 1231,
      "áĬ«áĬ¨áĪį": 1232,
      "ĠáĭŃáĪ»": 1233,
      "áīĢáĬĿ": 1234,
      "ĠáĮłáĭ¨áīĢ": 1235,
      "ĠáĮłáĭĭáīµ": 1236,
      "áĮĪáĪĿ": 1237,
      "áĪīáĬķ": 1238,
      "Ġáĭ°áĪħáĬĵ": 1239,
      "áĮİáĭ³": 1240,
      "ĠáĪįáī³": 1241,
      "ĠáĪĺáī¥áĪĭáīµ": 1242,
      "Ġáĭ¶": 1243,
      "ĠáĭĪáĭµ": 1244,
      "Ġáĭ¨áĪĿáĬķ": 1245,
      "áĬĲáįį": 1246,
      "áĪ°áĭµ": 1247,
      "áĬ¥áĪ±áĬķ": 1248,
      "ĠáĪ³áĭŃ": 1249,
      "áĪ°áī¥áĬ©": 1250,
      "ĠáĬĲáīłáĪ¨áī¥áĬĿ": 1251,
      "áĪĨáĬĵ": 1252,
      "ĠáĬ¥áĬķáĭµáī³": 1253,
      "áįħ": 1254,
      "áĪĪáĭįáĬķ": 1255,
      "áīłáĭĽ": 1256,
      "ĠáĬ¥áĬķáĭ°áī°": 1257,
      "ĠáĬ¥áĬķáĭ²áĪħ": 1258,
      "ĠáīĢáĬĵáīµ": 1259,
      "áī¦áĪµáī°áĬķ": 1260,
      "ĠáĬłáĭ°áĮĭ": 1261,
      "ĠáīłáĭĿ": 1262,
      "ĠáĪĺáīĢ": 1263,
      "áĭĪáĬķ": 1264,
      "Ġáĭ¨áĪļáĭ«áĪµ": 1265,
      "ĠáīħáĪŃ": 1266,
      "áĮįáĪ«": 1267,
      "áĪ³áĪį": 1268,
      "Ġáĭ°áī¥": 1269,
      "ĠáĬĲáĮĪáĪ®áī½": 1270,
      "áĬĲáĮĪáĪŃ": 1271,
      "áĮłáīłáīħ": 1272,
      "áĭĪáĭ°áĭį": 1273,
      "áĪĿáĬĵáĪįáī£áīµ": 1274,
      "áĭ«áĪĪ": 1275,
      "áĬĸáī½": 1276,
      "áĪ«áĪ´": 1277,
      "áĭİáī¹": 1278,
      "ĠáĪ´áīµ": 1279,
      "áĪĺáĭį": 1280,
      "ĠáĬłáĪįáĭĪáĭµáĪĿ": 1281,
      "áĭĿáīĥ": 1282,
      "ĠáĭĽáĪ¬": 1283,
      "áĬłáī£áī´": 1284,
      "áĪıáĪį": 1285,
      "áīłáįį": 1286,
      "áįĪáĪįáĮī": 1287,
      "ĠáįįáĪĭáĮİáīµ": 1288,
      "áĭĪáĪĪ": 1289,
      "áĪŀáī½": 1290,
      "ĠáĬłáīµáī½áĪįáĪĿ": 1291,
      "áĭİáīµáĪĿ": 1292,
      "ĠáīµáĪĺáĪµ": 1293,
      "áĪ½áīµ": 1294,
      "áĪŀáīµ": 1295,
      "áĭ£": 1296,
      "ĠáĬłáĭĿ": 1297,
      "áĪĺáĮ½áĪĲ": 1298,
      "ĠáĪ¥": 1299,
      "áĪŁ": 1300,
      "áĪįáĪĥáĪį": 1301,
      "áĬķáīĭ": 1302,
      "áīłáī°": 1303,
      "ĠáĬ¨áĬ¥áĬĶ": 1304,
      "áī¦áī½": 1305,
      "áĮĭáĪª": 1306,
      "áĪįáĮ½": 1307,
      "áĪĺáĪĿ": 1308,
      "Ġáĭįáĭµ": 1309,
      "ĠáĬłáīģáĪĿ": 1310,
      "áĪģáĪĪáīµ": 1311,
      "áĭ¨áĭį": 1312,
      "áįīáĬķ": 1313,
      "áĮłáĭŃáīħ": 1314,
      "áįĸáĪĬáĪµ": 1315,
      "áĬķáī¥": 1316,
      "Ġáĭ«áĭįáīĥáĪį": 1317,
      "áī¶áī½áĬķ": 1318,
      "áĪ©áīµ": 1319,
      "ĠáĬ¥áĭįáĬĲáīµ": 1320,
      "áĮ¹áĪĿ": 1321,
      "ĠáįĪáĪįáĮĮ": 1322,
      "áĬ¨áĬ¥áĬĶ": 1323,
      "Ġáī¤áī°": 1324,
      "ĠáĬłáĬķáĭ³áĬķáĭµ": 1325,
      "ĠáĪł": 1326,
      "ĠáĪŃ": 1327,
      "ĠáĬ©": 1328,
      "áĪ°áĮł": 1329,
      "áĪªáĬ«": 1330,
      "ĠáĪģáĪį": 1331,
      "ĠáĪĺáĮłáīłáīħ": 1332,
      "ĠáĭŃáĭĪáĭ³áĪī": 1333,
      "áĬŃáĪŀ": 1334,
      "Ġáī°áĪĺáĪį": 1335,
      "ĠáĪµáīµ": 1336,
      "áī±áĪĿ": 1337,
      "áĭ³áĪį": 1338,
      "ĠáĬ¥áĪµáĬ¨": 1339,
      "áĭ°áĪ°": 1340,
      "áī¥áĪ«": 1341,
      "ĠáĬ¥áĬķáī½áĪĭ": 1342,
      "ĠáīłáįįáĮ¥áĬĲáīµ": 1343,
      "ĠáĬ¥áĬķáī½áĪĭáĪĪáĬķ": 1344,
      "áĪ«áĪ½": 1345,
      "ĠáĪĥ": 1346,
      "Ġáī°áĪĽáĪª": 1347,
      "áī¥áĪŃ": 1348,
      "ĠáĭŃáįĪáĪįáĮĭáĪį": 1349,
      "ĠáĬ¥áĬķáīħ": 1350,
      "áĭŃáĭĪ": 1351,
      "áĪ¨áĮħáĪĿ": 1352,
      "áĬŃáĬŃ": 1353,
      "áī£áī¡": 1354,
      "ĠáĪ°áĮł": 1355,
      "áĭĪáĪŃ": 1356,
      "ĠáĭįáĪĥ": 1357,
      "áĭ«áĭĿ": 1358,
      "áĪĺáĪ³áĪ³áĭŃ": 1359,
      "áĬ«áĪĿ": 1360,
      "áĪ¸áĬķ": 1361,
      "ĠáĭĵáĪĺ": 1362,
      "áĬ¥áī£áĬŃáĭİáĬķ": 1363,
      "ĠáĭŃáĮł": 1364,
      "áĬŃáīµ": 1365,
      "áĪ®áī½áĬķ": 1366,
      "áī£áĪĪáįĪáĭį": 1367,
      "ĠáĪĽáĭįáĪ«áīµ": 1368,
      "áī½áĬĭ": 1369,
      "áĪ¨áĮ¥": 1370,
      "Ġáīłáĭ°áĬķáī¥": 1371,
      "áĮ£áĪį": 1372,
      "áī¢áĭ«áĭį": 1373,
      "áī½áĬķáĬķ": 1374,
      "Ġáĭ¨áĬ¥áĬĶ": 1375,
      "ĠáīłáĬ¥áĭįáĬĲáīµ": 1376,
      "ĠáĬ¥áĬķáĭ³áīµ": 1377,
      "ĠáįĪáīĥ": 1378,
      "áĪ°áĪĽáĬĿ": 1379,
      "áĬĹ": 1380,
      "ĠáĭŃáīħáĪŃáī³": 1381,
      "áĪŃáī£": 1382,
      "áĪĽáĬķáĬĽáĭį": 1383,
      "áīłáĪļáīĢáĮ¥áĪĪáĭį": 1384,
      "áĬĲáĮįáĪŃáĪħ": 1385,
      "áĮ£áĪĪáĪģ": 1386,
      "áĮ¦áī³": 1387,
      "áĭĭáĬķ": 1388,
      "ĠáĮ¨áĭĭ": 1389,
      "ĠáĭĭáĮĭ": 1390,
      "ĠáĪ¶": 1391,
      "ĠáĬłáĭ²áĪµ": 1392,
      "áįĭáīµ": 1393,
      "ĠáĪļ": 1394,
      "áįĵáĪŃáī²": 1395,
      "áĭįáīĢáĭį": 1396,
      "áĭµáĬĲáĭį": 1397,
      "ĠáĮĪáĬĵ": 1398,
      "ĠáĬ¥áĬķáĭ²áĭ«": 1399,
      "ĠáĬķáĮĪáĪ¨áĬĿ": 1400,
      "áįĢáĮī": 1401,
      "áī°áĪħ": 1402,
      "ĠáĪ°áĪŃ": 1403,
      "Ġáįİ": 1404,
      "ĠáĪ°áĪĿ": 1405,
      "Ġáĭ«áĪµáī£áĪī": 1406,
      "áĮįáĭŃ": 1407,
      "áĪ·áĪį": 1408,
      "ĠáĪµáĪĿ": 1409,
      "áĪµáĪĪáĭļáĪħ": 1410,
      "áĮĥáįĵáĬķ": 1411,
      "ĠáĪ½": 1412,
      "ĠáĬ¨áĭļáĪħ": 1413,
      "áįĪáĬķ": 1414,
      "áĬ¥áĬķáĮįáĪĬáĭ": 1415,
      "áĮĨáī¼": 1416,
      "áĪĺáĪ°áĮįáĬĵáĪĪáĪģ": 1417,
      "ĠáĬ¥áĭļáĭ«": 1418,
      "áĪ³áĪĪáĪģ": 1419,
      "ĠáĬ¥áĭ¨áĪ°áĪ«": 1420,
      "áĬŃáĪĿ": 1421,
      "áĪ³áī°": 1422,
      "Ġáī°áĪĺáĪĪ": 1423,
      "ĠáĪ°áĪĽ": 1424,
      "ĠáĭĵáĪĺáīµ": 1425,
      "áįķáĪĭ": 1426,
      "ĠáĬłáĪįáī»áĪĪáĪĿ": 1427,
      "ĠáĪ»": 1428,
      "ĠáīłáĪ¨": 1429,
      "ĠáĮįáĭµ": 1430,
      "ĠáĪĺáĪĿáĮ£áīµ": 1431,
      "áĭĭáĬĺáīµ": 1432,
      "ĠáĬłáĭŃáĭ°áĪĪáĪħáĪĿ": 1433,
      "ĠáĪĬáĭ«": 1434,
      "áīµáĪĿáĪħáĪŃáīµ": 1435,
      "áĭµáĪĺ": 1436,
      "áĬĲáī±": 1437,
      "áĬ¨áī£": 1438,
      "áĮįáĪ©": 1439,
      "ĠáĪĺáĭĿ": 1440,
      "áĪ°áīł": 1441,
      "áĪĬáĭ«": 1442,
      "áĭµáĪľ": 1443,
      "áĮłáįĭ": 1444,
      "ĠáĭĪáĪŃ": 1445,
      "ĠáĪµáĮłáĬĿ": 1446,
      "ĠáĪįáĮĨáī½": 1447,
      "ĠáĬ¥áĪŃáĭ³áī³": 1448,
      "áĭĿáīĥáĭĽ": 1449,
      "áĭ°áĬĽ": 1450,
      "ĠáīµáĬŃáĬŃáĪį": 1451,
      "áĪĻáĬķ": 1452,
      "áīĭáĪį": 1453,
      "áīłáĬ¥áĭįáĬĲáīµ": 1454,
      "áĪģáĭµ": 1455,
      "áĬĵáī¥": 1456,
      "áįĪáīµ": 1457,
      "ĠáĬłáĪŃ": 1458,
      "áĪĭáī¸áĭį": 1459,
      "áĪ«áĪī": 1460,
      "áĪ¨áĭ³áĪħ": 1461,
      "áĮłáīł": 1462,
      "áĮłáĬĵ": 1463,
      "ĠáĭĪáĬķáĭµ": 1464,
      "áĪĮáĪĿ": 1465,
      "áĮŃáĪ«áĪ½": 1466,
      "ĠáĪģáĪīáĬķáĪĿ": 1467,
      "áĪ¾": 1468,
      "áĪĪáĭļáĪħ": 1469,
      "ĠáĬ¨áĪ°": 1470,
      "ĠáĪĺáĮįáĭĽáīµ": 1471,
      "Ġáį£": 1472,
      "áīłáĪ³": 1473,
      "áĭ¨áĬĿ": 1474,
      "áĬłáĭ²áĪµ": 1475,
      "Ġáī¦áĪµáī°áĬķ": 1476,
      "Ġáĭ¨áī°áĪ»áĪĪ": 1477,
      "ĠáīłáīµáĬŃáĬŃáĪį": 1478,
      "áĮįáĪ¬": 1479,
      "ĠáĪĺáĮ«áĭĪáīµ": 1480,
      "áī»áĪĭáĪį": 1481,
      "áĮ¨áĪµ": 1482,
      "áĭ±áīµ": 1483,
      "Ġáī¥áīµ": 1484,
      "Ġáī¥áĪŃ": 1485,
      "ĠáĬ¥áĬķáĭ°áĭļáĪħ": 1486,
      "áĭŃáĬķ": 1487,
      "áī³áĪĽ": 1488,
      "áĭĪáĪ°áĬĲ": 1489,
      "ĠáīłáĭĿáī¶": 1490,
      "áĪħáĪŃ": 1491,
      "áĭļáīĥ": 1492,
      "áĬ«áĪ«": 1493,
      "áĪįáĭµ": 1494,
      "ĠáĭŃáĬĸ": 1495,
      "Ġáī°áĪ³": 1496,
      "Ġáī¥áĪĪáĪħ": 1497,
      "áĬķáĪµ": 1498,
      "áī½áĬĿ": 1499,
      "áĪģáĪĿ": 1500,
      "áĬ¨áī¶áĪĿ": 1501,
      "ĠáĬłáĪīáĬĿ": 1502,
      "ĠáĮİáīłáĭĿ": 1503,
      "áĮĪáīł": 1504,
      "áĪĽáĭµáĪ¨áĮį": 1505,
      "ĠáĭŃáī»áĪĭáĪį": 1506,
      "áīĢáĪ¨": 1507,
      "ĠáĬłáĪįáĮĪáī£": 1508,
      "áĬĸáĪ¨áĭį": 1509,
      "ĠáĬ¥áĬķáįĪáĪįáĮĭ": 1510,
      "ĠáĪ¨áĮħáĪĿ": 1511,
      "áĮįáĪ¯áĪį": 1512,
      "áĪĤáĭµ": 1513,
      "ĠáīłáĭļáĪħ": 1514,
      "ĠáīģáĮ¥áĪŃ": 1515,
      "ĠáĬ¥áĬķáįĪáĪįáĮĭáĪĪáĬķ": 1516,
      "áī¥áĪħ": 1517,
      "áĮ¥áĬķ": 1518,
      "ĠáĪĪáĬ¥áĬĶ": 1519,
      "áĪļáĭ«": 1520,
      "áĭ²áĭ«áĭį": 1521,
      "ĠáĮīáĭŀ": 1522,
      "áĪĨáĬķáĪĿ": 1523,
      "ĠáĭµáĪĿ": 1524,
      "ĠáĬłáĭ°áĪ¨áĮį": 1525,
      "áĬ¬áīµ": 1526,
      "áĪ¯áĪį": 1527,
      "áĬ©áĬĿ": 1528,
      "áī¤áī´": 1529,
      "áĪľáĪªáĬ«": 1530,
      "ĠáĬłáĬķáĭ±": 1531,
      "áĬ¥áĬĵáī´": 1532,
      "áīłáĪ¨áĭ¶": 1533,
      "áĪ£": 1534,
      "ĠáĬłáĮ£": 1535,
      "áĭ°áĪµáī°áĬĽ": 1536,
      "ĠáĪĿáĪ½áīµ": 1537,
      "áĮĦáĭĭáĪĪáĪģ": 1538,
      "Ġáĭ«áĭįáīĥáĪī": 1539,
      "áĬ¥áĪ«áīµ": 1540,
      "áĪĭáĪ³": 1541,
      "ĠáĭĿáĬĵáī¥": 1542,
      "áĭ·": 1543,
      "áĪŃáĭĿ": 1544,
      "áĬ¥áĪħ": 1545,
      "áĬĲáĪµ": 1546,
      "ĠáĭįáĪ»": 1547,
      "Ġáī°áĬĵáĮįáĪ¯áĪį": 1548,
      "ĠáĪĺáĪ°": 1549,
      "áįĪáĪŃ": 1550,
      "ĠáīĢáĮł": 1551,
      "áĮįáĭµ": 1552,
      "áĬĽáĪĪáĪħ": 1553,
      "ĠáĪĺáĮłáĬķ": 1554,
      "ĠáĭŃáĭĪáĭ³áĪį": 1555,
      "Ġáĭ°áī¥áĭ³áī¤": 1556,
      "ĠáĬłáĪĺáĪ°áĮįáĬĵáĪĪáĪģ": 1557,
      "áī³áī½áĬķ": 1558,
      "áĪ³áĬĶ": 1559,
      "áĮĢáĪĺáĪŃ": 1560,
      "Ġáī¡áĬĵ": 1561,
      "áĪįáĪĥáĪĪáĪģ": 1562,
      "Ġáīĭ": 1563,
      "áĭŃáīµ": 1564,
      "áī½áĪĪáĭį": 1565,
      "áī³áĭĬ": 1566,
      "áĭĿáĪĿ": 1567,
      "áĭĪáĪµáĭµ": 1568,
      "áĮĪáĬķáĭĺáī¥": 1569,
      "áĭ«áĭ¨áīµ": 1570,
      "ĠáĪĺáĪĽáĪŃ": 1571,
      "ĠáĪĺáĬĸáĪŃ": 1572,
      "áĮłáĪ¨áĮ´áĭĽ": 1573,
      "ĠáĬ¨áī°áĪĽ": 1574,
      "áīłáīħáĪŃáī¡": 1575,
      "áĪ¨áĭµ": 1576,
      "áīĥáĪį": 1577,
      "áĮĵáĭ°áĬĽ": 1578,
      "áī£áī¸áĭį": 1579,
      "áĪ©áĬĿ": 1580,
      "ĠáĪµáĪĭ": 1581,
      "áī¸áĮĭáĪª": 1582,
      "Ġáĭ«áĪµáįĪáĪįáĮį": 1583,
      "áĬ¸áĭį": 1584,
      "ĠáĬ¥áĭµáĪį": 1585,
      "áįıáĪį": 1586,
      "ĠáĮŃ": 1587,
      "áĬ¨áī±": 1588,
      "ĠáĪĽáĪ³": 1589,
      "Ġáī°áĪĺáĪ³áĪ³áĭŃ": 1590,
      "áĪĦáĭ³áĪĪáĪģ": 1591,
      "Ġáī³áĪªáĬŃ": 1592,
      "ĠáĬĲáīłáĪŃáĬŃ": 1593,
      "ĠáĬłáĬķáī½áĪįáĪĿ": 1594,
      "00": 1595,
      "áĬ¤": 1596,
      "áīłáīĤ": 1597,
      "áīĥáĪĪáĪģ": 1598,
      "áĪ¥áĪ«áīµ": 1599,
      "áĮª": 1600,
      "áĪĿáįĴ": 1601,
      "ĠáĬłáīł": 1602,
      "ĠáĬ¥áĪĦáĭ³áĪĪáĪģ": 1603,
      "áī·áĬķ": 1604,
      "ĠáīĭáĬķáīĭ": 1605,
      "Ġáĭ«áĪµáįĪáĪįáĮįáĭİáī³áĪį": 1606,
      "áĭ°áĪį": 1607,
      "áĭŃáĪį": 1608,
      "áĪĽáĪį": 1609,
      "ĠáĪµáĪŃ": 1610,
      "ĠáĬ¥áīħáĭµ": 1611,
      "áĬ¥áĬĲáĭļáĭ«": 1612,
      "áĭ°áĭµ": 1613,
      "ĠáĭĺáĮįáĭŃ": 1614,
      "áĭ¨áĬ¥áĬĶ": 1615,
      "áĮłáīµ": 1616,
      "ĠáĬłáĪĪáĬķ": 1617,
      "áĪłáĪ«": 1618,
      "ĠáĬ¥áī£": 1619,
      "áĭŃáī³": 1620,
      "ĠáĬ¥áĬķáĮįáĭ³": 1621,
      "áĬłáĪµáī°": 1622,
      "Ġáĭ°áĪŃ": 1623,
      "ĠáĪĺáīĨáĭ¨áīµ": 1624,
      "áĬłáĭ°": 1625,
      "áīłáīµáĬŃáĬŃáĪį": 1626,
      "áī°áĬĽáīµ": 1627,
      "ĠáĮĢáĪĺáĪ¨": 1628,
      "áĬķáīħ": 1629,
      "áĪĪáĭ«": 1630,
      "áĪĪáī¶áĪĿ": 1631,
      "áĬ¥áĭ«": 1632,
      "Ġáī°áĬ¨": 1633,
      "áĪ®áįķáĪĭ": 1634,
      "áĪĪáĪĿáĬķáĭµáĬĲáĭį": 1635,
      "Ġáĭ³áĪŃ": 1636,
      "áĬŃáĪĮáīµ": 1637,
      "áĪįáĮĨ": 1638,
      "ĠáĬłáĮĪ": 1639,
      "ĠáīłáīĢ": 1640,
      "áĪŃáĮī": 1641,
      "Ġáī³áĭ°áĪŃáĮĭ": 1642,
      "ĠáĪĺáĭįáĮ£áīµ": 1643,
      "áĪ¨áįį": 1644,
      "ĠáĪĺáī³": 1645,
      "ĠáĪĽáĮ¥": 1646,
      "Ġáī°áīĢ": 1647,
      "ĠáĭĪáĪµ": 1648,
      "ĠáĪµáĮ¦áī³": 1649,
      "Ġáĭ°áĬŃáĪŀ": 1650,
      "ĠáĬłáĭŃáĭ°áĪīáĪĿ": 1651,
      "ĠáĬłáĪīáīµ": 1652,
      "ĠáĬ¥áĬķáĭ°áĪĨáĬķáĬŃ": 1653,
      "áįĪáĮłáĪ¨": 1654,
      "ĠáĪĪáī¥": 1655,
      "Ġáĭ«áĪµáįĪáĪįáĮĪ": 1656,
      "áĮłáī¥áīħ": 1657,
      "áĪģáĪįáĮĬáĭľ": 1658,
      "ĠáĪĪáĪĽáĭ¨áīµ": 1659,
      "áī¼áĬķ": 1660,
      "áĪµáīµáĪ«": 1661,
      "áī£áī¢": 1662,
      "áĪĦáĭ°": 1663,
      "áĪ¸áīµ": 1664,
      "áĪ¶áĪµáīµ": 1665,
      "áī¥áī³áĪĿ": 1666,
      "ĠáĪĺáĭµ": 1667,
      "áĪ«áĮŃ": 1668,
      "áĮłáĮ£": 1669,
      "áĪ°áĭİáī½": 1670,
      "Ġáī°áĮ¨áĪĽáĪª": 1671,
      "Ġáĭ°áĪ¨": 1672,
      "Ġáĭ¨áĪĪáī¥áĪħáĪĿ": 1673,
      "ĠáĪĺáĪĨáĬĳáĬķ": 1674,
      "áĮłáĪ«": 1675,
      "ĠáĬĸáĪ®": 1676,
      "áĬĹáĪį": 1677,
      "áĪĪáĭ¨": 1678,
      "áĭ°áīµ": 1679,
      "áĪģáĬĳ": 1680,
      "ĠáīłáĮ¥": 1681,
      "ĠáĮĵáĭ°áĬŀáī½": 1682,
      "Ġáī¥áĪİáĬĽáĪį": 1683,
      "áĬ¨áĬ¥áĪŃáĪµáĭİ": 1684,
      "áĭ°áĪŃáĮĪ": 1685,
      "áĪĭáĪĿ": 1686,
      "ĠáĪĺáĬ«áĬ¨áĪį": 1687,
      "áĬĽáĭįáĬķ": 1688,
      "áĬ¥áĬķáĮį": 1689,
      "áīłáīµáĬķ": 1690,
      "áĪ¸áĬĲáįį": 1691,
      "áĪĽáĬķáĬĽáĭįáĪĿ": 1692,
      "ĠáĬłáĪįáįĪáĪĪ": 1693,
      "Ġáĭ°áĮį": 1694,
      "áĬĲáīłáĪŃ": 1695,
      "Ġáī£áī¡": 1696,
      "áĬ¨áī°áĪĽ": 1697,
      "ĠáĬ¥áĬķáĭ°áĪĽáĭŃ": 1698,
      "áĭĿáĬĵáī¥": 1699,
      "ĠáĭĪáĭµáĮĦáĭĭáĪĪáĪģ": 1700,
      "ĠáīµáĪĺáĪµáĪĭáĪĪáĪħ": 1701,
      "ĠáĪ¸": 1702,
      "ĠáĮ½": 1703,
      "áĭ¨áīłáĪĪáĮł": 1704,
      "ĠáĪĪáĪĽáĪŃáĭ«áĪĿ": 1705,
      "áīĭáīĭ": 1706,
      "áĪĭáī½áĪģáĪĿ": 1707,
      "ĠáĬĲáĪ½": 1708,
      "Ġáĭ«áĭµáĪŃ": 1709,
      "áĬ«áī£áī¢": 1710,
      "áĮ»áįį": 1711,
      "ĠáįĪáīĥáĭ°áĬĽ": 1712,
      "Ġáī´": 1713,
      "ĠáĪģáĪįáĮĬáĭľ": 1714,
      "ĠáĬ¥áĪµáĬ«áĪģáĬķ": 1715,
      "áįģáĪĿ": 1716,
      "ĠáĬłáĭ¨": 1717,
      "áīłáĪ©áĬķ": 1718,
      "áĭ°áĮį": 1719,
      "áĭ°áĭĪ": 1720,
      "Ġáĭ«áĭ°áĪ¨": 1721,
      "áĪı": 1722,
      "áĪµáįĴ": 1723,
      "áĭ°áĪŃáĮī": 1724,
      "ĠáīĢáĪĪáĪĿ": 1725,
      "ĠáīĢáĭĿáīĥáĭĽ": 1726,
      "áīĢáĭµáĪŀ": 1727,
      "ĠáĪ¶áĪµáīµ": 1728,
      "áĪ¦áĪµáīµ": 1729,
      "ĠáĪĲ": 1730,
      "ĠáĪĺáĬŃ": 1731,
      "ĠáĬłáĪ³áĪį": 1732,
      "áĪĪáĪį": 1733,
      "áīĤáĬĿ": 1734,
      "áĪĺáĬķáĮĪ": 1735,
      "ĠáĬ³": 1736,
      "ĠáĪ±": 1737,
      "áĪģáĪĮáĪĿ": 1738,
      "Ġáĭ¨áĪĺáĮ£": 1739,
      "ĠáĪ°áĬłáīµ": 1740,
      "áĬ®áīµáĬķ": 1741,
      "áīħáĪŃáī¥": 1742,
      "áĬķáīĥáīĦ": 1743,
      "ĠáīµáĪĨáĬĵ": 1744,
      "ĠáĭĵáĪĺáī³áīµ": 1745,
      "ĠáĮĥ": 1746,
      "ĠáĪĽáĪĺáĬķ": 1747,
      "ĠáĪįáĬķ": 1748,
      "Ġáĭ°áĪ¨áĮĥ": 1749,
      "áĪ¶áī½": 1750,
      "ĠáĬłáĪµáī°áĪĽáĪª": 1751,
      "ĠáĬłáĮĭ": 1752,
      "ĠáĬ¥áĪģáĭµ": 1753,
      "áĭĪáĪ«": 1754,
      "ĠáĭŃáĪħáĬķáĬķ": 1755,
      "ĠáĪľ": 1756,
      "áĪįáĮħ": 1757,
      "áīłáĬłáĬķáĭµ": 1758,
      "ĠáĪĺáĪĺáĪĪáĪµ": 1759,
      "ĠáĭŃáĪĪáĬĽáĪį": 1760,
      "ĠáĭŃáĪĦáĭ³": 1761,
      "ĠáīµáĬĵáĬķáīµ": 1762,
      "ĠáĪµáĪĪáĭļáĪħ": 1763,
      "áĪµáīµáĪ«áĪĬáĭ«": 1764,
      "áĪµáĬķáīµ": 1765,
      "ĠáīłáĬ¥": 1766,
      "ĠáĭŃáīĨ": 1767,
      "ĠáĬ¨áĬł": 1768,
      "ĠáĪĿáĪµ": 1769,
      "áįĸáĪŃáīµ": 1770,
      "áĮ§": 1771,
      "áĭįáĪĥ": 1772,
      "áīłáĭ¨áīĢáĬĳ": 1773,
      "áĭĪáĮ¥": 1774,
      "ĠáĬłáĪµáī¸áĮĭáĪª": 1775,
      "áĮ¨áĪ¨áĪµ": 1776,
      "ĠáĪĪáĪĽáĮįáĬĺáīµ": 1777,
      "áĬ¥áĬĲáĪ±": 1778,
      "áĭĭáīĤ": 1779,
      "Ġáī¥áī»áĭ¬áĬķ": 1780,
      "ĠáĬ«áĪį": 1781,
      "ĠáĮĵáĭ°áĬĽáĭ¬": 1782,
      "áĪµáī¥áĪ°áī£": 1783,
      "ĠáĬ¥áĬķáīħáĪįáįį": 1784,
      "ĠáĬ¥áĪĺáĪŃ": 1785,
      "áĬŃáĪŃ": 1786,
      "áĬ¥áĬķáĭµáīµ": 1787,
      "ĠáįĬáĪįáĪĿ": 1788,
      "Ġáįİáī¶": 1789,
      "Ġáį¢": 1790,
      "ĠáĭĪáĪ¨": 1791,
      "áĪ½áĪĿ": 1792,
      "áĮ¡áīµ": 1793,
      "ĠáĬ¥áĪĺáĪŃáĮ£áĪĪáĪģ": 1794,
      "ĠáĬłáĭ¨áĪģ": 1795,
      "áĪµáĪĽáĪĽ": 1796,
      "áĭ°áĪħáĬĵ": 1797,
      "áĮĪáīµ": 1798,
      "áĪĭáĪŃ": 1799,
      "áĪ¨áĭĭáĪį": 1800,
      "ĠáīłáĮŃáĪ«áĪ½": 1801,
      "ĠáĪĽáīĨáĪĿ": 1802,
      "Ġáī°áĬĿ": 1803,
      "ĠáĭĪáĭ°áĭļáĭ«": 1804,
      "Ġáī³áĪµ": 1805,
      "áįĪáĪįáĮĪáĭįáĬķ": 1806,
      "áĬ¥áĭįáĬĲáī±": 1807,
      "áĬĵáĮĪáĪ¨áĭį": 1808,
      "áĮłáĭŃáīħáĪħ": 1809,
      "Ġáī³áĭ°áĪŃáĮĭáĪĪáĪħ": 1810,
      "Ġáĭ¨áī¤áīµ": 1811,
      "áĬĵáĭį": 1812,
      "áĬ©áĪį": 1813,
      "áĪĬáīµ": 1814,
      "ĠáĬłáĭŃáĪĺáĪµáĪįáĪĿ": 1815,
      "ĠáĬłáĭ«áĪµáįĪáĪįáĮįáĪĿ": 1816,
      "áī¶áī¡áĪµ": 1817,
      "áĪ¨áĭ³áīµ": 1818,
      "áīłáĪ©": 1819,
      "áī³áĪĪáī½": 1820,
      "áĬłáĪĪáĪģ": 1821,
      "ĠáĪĽáĪµáī°": 1822,
      "áĮĭáīµ": 1823,
      "áĪ½áĬķ": 1824,
      "áĪĮáīª": 1825,
      "áĬłáĬķáī°áĬķ": 1826,
      "áĪĮáīªáĭ¥": 1827,
      "ĺáĬĽ": 1828,
      "ĠáĬ¥áįĪ": 1829,
      "áĭµáĬ©": 1830,
      "áĮįáĪį": 1831,
      "ĠáīłáĪļ": 1832,
      "áĬ«áĬķáī°": 1833,
      "áĬ¥áī£áĬ®áīµáĬķ": 1834,
      "áĪ¨áĭ³áĬĿ": 1835,
      "Ġáĭ¨áĮĪáĬĵ": 1836,
      "áīĥáĪļ": 1837,
      "ĠáīµáĭĪáĭ³": 1838,
      "áīĤáĭ«": 1839,
      "Ġáĭ«áĪĪáĭįáĬķ": 1840,
      "ĠáĪ®": 1841,
      "áīłáĬ¥": 1842,
      "áĪĺáī³": 1843,
      "ĠáĪĺáĪĪ": 1844,
      "ĠáĪĺáįį": 1845,
      "Ġáī°áĪ«": 1846,
      "ĠáįĪáĪĪ": 1847,
      "Ġáī¥áĭĻáĪĿ": 1848,
      "ĠáĬłáĭ°áĬķáīĥ": 1849,
      "ĠáĬ¨áĪ°áĬłáīµ": 1850,
      "áĭ°áīł": 1851,
      "áĮłáĭį": 1852,
      "ĠáĭĪáĮ¥": 1853,
      "áī»áĪį": 1854,
      "áĪĲáĭŃ": 1855,
      "ĠáĪĽáĬķáīłáī¥": 1856,
      "ĠáĪĺáĮłáīĢáĪĿ": 1857,
      "Ġáįĸ": 1858,
      "ĠáĬ¢": 1859,
      "Ġáĭ¨áĬĶ": 1860,
      "áĮłáĭ¨áīħ": 1861,
      "ĠáĮ¥áīĤáīµ": 1862,
      "áĪĦáĭµáĪĿ": 1863,
      "ĠáĪĺáĪµáĪ«áīµ": 1864,
      "ĠáĪĺáĪµáĪĽáīµ": 1865,
      "áĭ°áĭįáĪį": 1866,
      "áĬ¥áĬķáĮįáĭ²áĪħ": 1867,
      "ĠáĬłáĭ°áĬķáīĥáĪĪáĪģ": 1868,
      "áĬ¢": 1869,
      "áĬķáīĢ": 1870,
      "áī°áĮ¨áĪĽáĪª": 1871,
      "áĪĺáĪµáĬ®": 1872,
      "áĬ¥áĬĶáĪĿ": 1873,
      "áī½áĪģáĪĿ": 1874,
      "áĪŀáĬŃáĪ©": 1875,
      "ĠáĬ¥áĭįáĬĲ": 1876,
      "áĪ°áĭĵáī±": 1877,
      "Ġ1": 1878,
      "áĭ°áĭ°": 1879,
      "áī£áĪħáĪŃ": 1880,
      "áĬ¨áĬĿ": 1881,
      "áĪ¨áĮĭáĮĪ": 1882,
      "áĪ¨áī¥": 1883,
      "áĬ¨áĬķ": 1884,
      "Ġáĭ«áĬķáī°": 1885,
      "Ġáī°áĬĽ": 1886,
      "ĠáĬłáĭµáĪŃáĮĪ": 1887,
      "ĠáĪĺáĪįáĪµ": 1888,
      "áīłáĪĺáĮ¨áĪ¨áĪ»": 1889,
      "áī½áĬĭáĪĪáĪģ": 1890,
      "ĠáĬłáĪįáĮĪáī£áĬĿáĪĿ": 1891,
      "ĠáįĬáīµ": 1892,
      "ĠáĬ¥áĮĪáĪĿ": 1893,
      "Ġáĭ«áĪ³": 1894,
      "ĠáĪĪáĪĺáĪµ": 1895,
      "ĠáĪįáī¥": 1896,
      "ĠáĬ³áĪµ": 1897,
      "ĠáĬ¥áĮĪáĪĿáī³áĪĪáĪģ": 1898,
      "áīłáĪħ": 1899,
      "áīłáĭĭáĪį": 1900,
      "áĮĪáĬķáĭĺ": 1901,
      "ĠáĭŃáĬĵáĮĪ": 1902,
      "áĮ£áĬķ": 1903,
      "áĬŃáĪµ": 1904,
      "áįįáĪ«": 1905,
      "Ġáī°áīĥ": 1906,
      "ĠáĭĪáīħ": 1907,
      "ĠáĪįáĬĲáĮįáĪŃáĪħ": 1908,
      "ĠáĪĪáĪĺáĪŃ": 1909,
      "ĠáĮįáĪ«": 1910,
      "áĮĪáĬĵáĬĿ": 1911,
      "áĪĺáĮ£áĪį": 1912,
      "ĠáĬ¥áĬķáĭ°áĪĽáīµ": 1913,
      "ĠáĭĵáĭŃáĬĲáīµ": 1914,
      "áĭ·áĪį": 1915,
      "áĪµáįĴáī³áĪį": 1916,
      "ĠáīµáĪĨáĬĵáĪĪáĪħ": 1917,
      "áĮ§áĪį": 1918,
      "áī°áĭĪ": 1919,
      "áĬŃáĪ²": 1920,
      "ĠáīĢáĭ°áĪĿ": 1921,
      "ĠáĬ¥áĬķáĭ³áĭŃ": 1922,
      "Ġáī¤áī±": 1923,
      "áĪĪáī½áĪĿ": 1924,
      "áįĪáĪĪáĮī": 1925,
      "ĠáĪ¨áĪ³": 1926,
      "áĬĴáĪµ": 1927,
      "ĠáĬ¥áĬĲ": 1928,
      "áĪĺáĪĦáĭµ": 1929,
      "áĮĪáĮį": 1930,
      "áĬ¥áĪĿáĪ®": 1931,
      "áĬ¨áįĭ": 1932,
      "áĪįáĮģ": 1933,
      "áĬ¥áĬĲáĭļáĪħáĬķ": 1934,
      "áĮłáĪ¨áĮ´áĭĽáĭį": 1935,
      "Ġáĭľ": 1936,
      "áĪĪáĭĭáĪį": 1937,
      "áĭ³áĪľ": 1938,
      "ĠáīµáĬ©": 1939,
      "áīĢáĪĺáĮ«": 1940,
      "ĠáĬ¥áĮłáĪĭáĪĪáĪģ": 1941,
      "áĪŃáĮīáĪĿ": 1942,
      "ĠáĪĤ": 1943,
      "áĭįáĪĿ": 1944,
      "ĠáĬłáĭµ": 1945,
      "áĪĭáĪĪáī½": 1946,
      "Ġáĭ¨áĬ¥áĪŃáĪµáĭİ": 1947,
      "áĮ¥áī¥": 1948,
      "áĮ¥áĭ«áīĦ": 1949,
      "ĠáīĢáĭŃ": 1950,
      "ĠáĮłáĪ¨": 1951,
      "ĠáĬ¥áĬķáĭ°áĪļáĭ«": 1952,
      "áī¥áī»áĭ¬áĬķ": 1953,
      "ĠáĮ¨áĭĭáī³": 1954,
      "ĠáĪĪáĪĺáĪŃáĭ³áīµ": 1955,
      "áīłáĬ¥áĪŃáĮįáĮ¥": 1956,
      "áī½áĪī": 1957,
      "áĮįáĪ©áĬķ": 1958,
      "ĠáĪĺáĮ¥": 1959,
      "ĠáĭŃáĭį": 1960,
      "áĪ«áĭĬ": 1961,
      "áĬłáī³": 1962,
      "áĬ¥áĪŃáĭ³áī³": 1963,
      "áįİáī½": 1964,
      "áįķáĪ®": 1965,
      "ĠáīĥáĪĭáīµ": 1966,
      "Ġáĭ¨áĬłáĭ¨áĪŃ": 1967,
      "ĠáĪĺáĭįáĪ°áĭµ": 1968,
      "Ġáĭ¶áĪĭáĪŃ": 1969,
      "áīłáĭļáĭ«": 1970,
      "áī£áĬķ": 1971,
      "ĠáĪĿáĪ³": 1972,
      "ĠáĮĪáī¥": 1973,
      "ĠáĪĪáĪĺáĪĨáĬķ": 1974,
      "áĭ°áĪ°áīµ": 1975,
      "ĿáĬĽ": 1976,
      "ĠáĬłáĪ°áī¥áĬ©": 1977,
      "áĪŃáĭµ": 1978,
      "áĭ¨áĬ¥áĪ±": 1979,
      "áĮłáīĢáĪĿ": 1980,
      "áĬŃáī°áĪŃ": 1981,
      "Ġáī°áĪ°áĪĽáĬĿ": 1982,
      "Ġáī¥áĪµ": 1983,
      "ĠáĭįáĪ³áĬĶ": 1984,
      "ĠáĮ¨áĪŃ": 1985,
      "ĠáĬ¥áįĪáĪ«áĪĪáĪģ": 1986,
      "áĭĺáĮĭáĮĢ": 1987,
      "ĠáĭŃáĮĪáī£áĪį": 1988,
      "áĮįáĭĽáīµ": 1989,
      "áĭ«áĬĸ": 1990,
      "áĪ°áĭ±": 1991,
      "Ġáī°áĭĪ": 1992,
      "ĠáĬłáĭµáĪŃáĮĮ": 1993,
      "áįĪáĪĪáĮįáĬŃ": 1994,
      "ĠáĬ©áī£": 1995,
      "ĠáĭĪáīħáīµ": 1996,
      "áĬ¦": 1997,
      "áĪĿáĪ³": 1998,
      "áĪ«áī¸áĭį": 1999,
      "áįįáĬķ": 2000,
      "áī¡áĬĵ": 2001,
      "ĠáĭĿáĪĿ": 2002,
      "áĬ¥áĬĵáĬķáī°": 2003,
      "áĮ¨áĬĲáīħ": 2004,
      "áĬŃáĬŃáĪĪáĬĽ": 2005,
      "áįĢáĮīáĪŃ": 2006,
      "ĠáĪĪáĭį": 2007,
      "ĠáĪĪáĬ¥áĪŃáĪµáĭİ": 2008,
      "áĪĿáĮ¡": 2009,
      "áĪŃáįį": 2010,
      "áĪ³áĬ«": 2011,
      "ĠáĪįáĭ©": 2012,
      "ĠáĪģáĪĪ": 2013,
      "ĠáĮįáĪįáĮ½": 2014,
      "áĮĪáĬĵáĬĺ": 2015,
      "ĠáĮłáĬķáĬ«áĪ«": 2016,
      "ĠáĬłáī£": 2017,
      "ĠáĬ¥áĪ«": 2018,
      "áĪħáī°": 2019,
      "áĭ¨áĬ¥áĪŃáĪµáĭİ": 2020,
      "áĪļáĪµ": 2021,
      "áī¸áĭĭáĪį": 2022,
      "ĠáĪįáī¥áĪµ": 2023,
      "ĠáĪģáĬķ": 2024,
      "ĠáĪĺáĮłáĭ¨áīħ": 2025,
      "áĪĺáĪ°áĮįáĬĵ": 2026,
      "áĪµáī³áĭįáĪµáĪĿ": 2027,
      "ĠáĪĺáĪ¥áĪ«áīµ": 2028,
      "ĠáĬłáĪµáī³áĭį": 2029,
      "ĠáĬ¥áĬķáĭ°áĪĿáī½áĪį": 2030,
      "áĪģáĪĪáī±áĪĿ": 2031,
      "ĠáĬª": 2032,
      "áĪĺáĭĿ": 2033,
      "áĬ¥áĬķáĭ²áĪħ": 2034,
      "áī¿": 2035,
      "ĠáĬłáĭ°áĪ¨áĮĪ": 2036,
      "ĠáĪĺáĪ³": 2037,
      "áĬ¨áĬłáĪģáĬķ": 2038,
      "áĪĨáĬĵáĪĪáĪģ": 2039,
      "áĪĭáī½áĬĭ": 2040,
      "Ġáĭ³áĪŃáī»": 2041,
      "ĠáĬłáĪĺ": 2042,
      "ĠáĬ¥áĪĨáĬĵáĪĪáĪģ": 2043,
      "ĠáĬĲáįĥ": 2044,
      "ĠáĭŃáĬķ": 2045,
      "áĭĪáĪ¨": 2046,
      "áĪ¬áīµ": 2047,
      "áīģáĪŃ": 2048,
      "ĠáĭµáĬķ": 2049,
      "ĠáĬ¥áī£áĬŃ": 2050,
      "áĪįáĮĨáī½": 2051,
      "áĬŃáī¥": 2052,
      "ĠáĬłáĬķáī¥": 2053,
      "áī¥áĭĻáĭįáĬķ": 2054,
      "ĠáĪĺáĪµáĮłáīµ": 2055,
      "ĠáĬłáĭµáĪŃáĮį": 2056,
      "ĠáĮ«áĪĽ": 2057,
      "áĮĪáĬĻ": 2058,
      "áĪĪáĪĺáĭ°": 2059,
      "áĮĵáĭĿ": 2060,
      "ĠáĬłáĮłáĮĪáī¥": 2061,
      "ĠáĬĲáĮĪáĪ¨áĬĿ": 2062,
      "áī½áĪĿ": 2063,
      "áī°áĬķ": 2064,
      "ĠáīłáĬłáĬķáĭµ": 2065,
      "áįĪáīĢ": 2066,
      "Ġáĭ«áĬķ": 2067,
      "Ġáĭ°áĭ°áī¥": 2068,
      "áĭĵáĪĪáĪĿ": 2069,
      "áĬ¥áĪµáĬ¨": 2070,
      "áĬķáĮ¥": 2071,
      "áīłáĮ¥": 2072,
      "áĬĵáĮį": 2073,
      "Ġáĭ«áĭ°áĪŃáĮĭ": 2074,
      "ĠáĬ¨áĪĽáĪŃáĭ«áĪĿ": 2075,
      "áįĭáĬķ": 2076,
      "Ġáĭ¨áĪĿáī³": 2077,
      "áĭĺáĮĭáĮħ": 2078,
      "ĠáīłáĭĿáī¶áī¥": 2079,
      "áīĭáīĭáĪĿ": 2080,
      "áĪįáĬķ": 2081,
      "ĠáĬłáĭ³": 2082,
      "ĠáĬłáĬ«áī£áī¢": 2083,
      "ĠáīłáĪ©áĬķ": 2084,
      "ĠáĬ¨áĬ¥áĪŃáĪµáĭİ": 2085,
      "ĠáĬ¥áĬķáĭ³áĪĪáĪħ": 2086,
      "áĬ®áĪĮ": 2087,
      "ĠáĬ¥áĬķáĭ°áĪļáĪĨáĬķ": 2088,
      "ĠáĬ«áĬķáī°": 2089,
      "ĠáĬ¥áĬķáĭ°áĪĨáĬķáĬ©": 2090,
      "ĠáĮłáĪ¨áĮ´áĭĽ": 2091,
      "ĠáĬĥ": 2092,
      "Ġáī²": 2093,
      "ĠáĪĺáĬĲáĮĭáĮĪáĪŃ": 2094,
      "áĪĽáĪ½": 2095,
      "áĬŃáĪ¨": 2096,
      "ĠáĬ¨áĪĨáĬĲ": 2097,
      "áĭĺáĮį": 2098,
      "áĪ»áĪ»": 2099,
      "áĮ¨áĪ¨áĪ»áĭį": 2100,
      "áĬŃáįįáĪī": 2101,
      "áĪ¯": 2102,
      "áĮĪáĬķ": 2103,
      "áĮįáĪµáīµ": 2104,
      "ĠáīłáĪŃ": 2105,
      "áĬ¨áĭįáĬķ": 2106,
      "Ġáĭ«áĪī": 2107,
      "áĪ»áĪĪáĪģ": 2108,
      "ĠáĮłáī¥": 2109,
      "ĠáĮłáīĥáĪļ": 2110,
      "ĠáĮĢáĪĿáĪ®": 2111,
      "ĠáĬłáī³áĭµáĪŃ": 2112,
      "ĠáĬłáĭĿáĬĵáĪĪáĪģ": 2113,
      "áĪĿáĮįáī¥": 2114,
      "áĪĪáĭµ": 2115,
      "ĠáĬłáīħ": 2116,
      "áĭ«áĪį": 2117,
      "áĭ¨áĬĶ": 2118,
      "áĬłáĪĭ": 2119,
      "Ġáī°áīĢáĪĿ": 2120,
      "áĮĢáĪĿ": 2121,
      "áĪŁáĪį": 2122,
      "áĬ¥áĬĶáĬķ": 2123,
      "áĭ¨áīµáĬĽáĭį": 2124,
      "áĪ°áĪ«áĭį": 2125,
      "ĠáĪĿáĬŃáĪŃ": 2126,
      "ĠáĬłáĪĺáĮ£": 2127,
      "áĪ°áī¡": 2128,
      "áįįáĭ«": 2129,
      "áĭ²áĭ®": 2130,
      "áĪ¬áĬķ": 2131,
      "Ġáī³áĪĿ": 2132,
      "Ġáĭ¨áĪĺáĮĢáĪĺáĪªáĭ«": 2133,
      "30": 2134,
      "áĭ¨áī¤áīµ": 2135,
      "áĭ³áĭį": 2136,
      "Ġáī°áĬķ": 2137,
      "ĠáĪµáī¥": 2138,
      "áĭĺáĬķ": 2139,
      "ĠáīĨáĭŃ": 2140,
      "áĬłáīµáĬŃáĪį": 2141,
      "Ġáĭ¨áĪĪáī¥áĭİáīµáĪĿ": 2142,
      "áĪ¨áĮĭáĮĪáĮ¥": 2143,
      "áį¡": 2144,
      "áĭµáĪµáīµ": 2145,
      "áĪ¨áĪ³": 2146,
      "ĠáĭŃáĪĺáĪį": 2147,
      "áĮ£áĪļ": 2148,
      "ĠáĪįáĮłáĭŃáīħáĪħ": 2149,
      "áĮ½áĪŀ": 2150,
      "áĮŃáĪŃ": 2151,
      "ĠáĭĺáįĪáĬķ": 2152,
      "áĭ«áĬķáĭ³áĬķ": 2153,
      "áĮ»áĪķ": 2154,
      "áĬ¥áĭįáĬĲáī±áĬķ": 2155,
      "Ġáī£áī¡áĪŃ": 2156,
      "ĠáĬ¬": 2157,
      "áīłáĪĽ": 2158,
      "áĪĺáĮ£áĪĿ": 2159,
      "áĮįáĪ®": 2160,
      "áĪĭáīħ": 2161,
      "áĬĲáī¥": 2162,
      "áĬ¨áĪĭ": 2163,
      "ĠáĬłáĪĭáĪµáī³áĭįáĪµáĪĿ": 2164,
      "áĮłáĬķáīĢ": 2165,
      "ĠáĬ¥áĬķáĭ³áĪįáĪĨáĬĲ": 2166,
      "Ġáī°áĪĺáĪįáĬ¨áīµ": 2167,
      "áĪ³áĪ³áī°": 2168,
      "Ġáī°áĮ«": 2169,
      "áīģáīµ": 2170,
      "áĮĵáĭ°áĬŀ": 2171,
      "áĬŃáįįáĪį": 2172,
      "Ġáĭ¨áĪĪáĬķáĪĿ": 2173,
      "áĪµáī¥áĪ°áī£áĭį": 2174,
      "áĭ«áĭĬ": 2175,
      "áĬĿáī³": 2176,
      "ĠáīµáĪĦáĭ³": 2177,
      "ĠáĭĪáĮ£áīµ": 2178,
      "ĠáĬłáĪĭáī¸áĭį": 2179,
      "ĠáįįáĮ¥áĬĲáīµ": 2180,
      "ĠáĪ²áĭ«": 2181,
      "áĪįáī³": 2182,
      "ĠáĬĲáĮĪáĪ¨": 2183,
      "áī½áĪĪáĭįáĬķ": 2184,
      "áĬ¥áĬĵáīµ": 2185,
      "áī°áĪµ": 2186,
      "ĠáĮ»": 2187,
      "ĠáĭŃáĭĪáĪµ": 2188,
      "áī£áĪĪáĪħ": 2189,
      "áĬ¥áĬķáĭ³": 2190,
      "áĭ²áĪ±": 2191,
      "ĠáįĪáĮ½áĪŀ": 2192,
      "Ġáī¶áĪĿáĬķ": 2193,
      "ĠáĪ«áĪ´": 2194,
      "ĠáĭŃáĪ»áĪįáĪĥáĪį": 2195,
      "áĪµáĪįáĬŃ": 2196,
      "ĠáĬ¥áĪħ": 2197,
      "áĪģáĪħ": 2198,
      "áĭµáĪį": 2199,
      "áĮįáī£áīµ": 2200,
      "áĪ¨áĭ±": 2201,
      "ĠáīłáĪŃáĪ³": 2202,
      "ĠáĪĺáī°áĬĽáīµ": 2203,
      "áĪ«áĪĪáī½": 2204,
      "áĬ¨áĪ«": 2205,
      "ĠáĪĽáĬĲáĭį": 2206,
      "Ġáĭ¨áī°áĪĪáĭ¨": 2207,
      "ĠáĬĲáīłáĪ¨áĬĿ": 2208,
      "áĪ«áĪµáĪħ": 2209,
      "áĬ¥áĮħ": 2210,
      "áĪĭáĬķáīµ": 2211,
      "ĠáīłáĬ¥áĪŃáĮįáĮ¥": 2212,
      "Ġáīłáī¦áĪµáī°áĬķ": 2213,
      "áĭĪáĭ²áĭ«áĭį": 2214,
      "Ġáĭ«áĭĺ": 2215,
      "ĠáĬ¥áĭ¨áĪŀáĬ¨áĪŃ": 2216,
      "Ġáī¦áĪŃáĪ³": 2217,
      "ĠáĪĿáĬķáĭµáĬĲáĭį": 2218,
      "ĠáĭķáĭµáĪľ": 2219,
      "áĪ«áĪ´áĬķ": 2220,
      "áī£áī¡áĪ©": 2221,
      "ĠáīłáĪ¨áĭ¶": 2222,
      "ĠáĭŃáĪĦáĭ³áĪį": 2223,
      "áĪĺáĮł": 2224,
      "áīĢáĭŃ": 2225,
      "ĠáĪ°áĪ«": 2226,
      "áĮĢáĪĿáĪŃ": 2227,
      "ĠáĬĵáīµ": 2228,
      "ĠáĬ¥áĬķáĭ³áĪĪáīłáīµ": 2229,
      "áĪĿáįĴáĭį": 2230,
      "áīĢáĬĳáĬķ": 2231,
      "áĪ©áĪĿ": 2232,
      "áĭĺáĮĪ": 2233,
      "áĪ®áĮ¥": 2234,
      "áī¤áĬķ": 2235,
      "ĠáĬłáīµáįĪáĪįáĮįáĪĿ": 2236,
      "ĠáĬłáĭ°áĮĪáĬĽ": 2237,
      "áīµáĪįáīħ": 2238,
      "áĪĺáĮ¥": 2239,
      "áĪĭáįĬ": 2240,
      "Ġáĭ¨áĪĪáĪħáĪĿ": 2241,
      "áĪ«áįĬ": 2242,
      "ĠáĪĪáī¶áĪĿ": 2243,
      "ĠáĪ°áĮ¥": 2244,
      "ĠáĬłáĪµáīĤáĬĿ": 2245,
      "ĠáĬłáĪĭáīµ": 2246,
      "áĪµáī³áĭĪ": 2247,
      "áĭ°áī¥áĭ³áī¤": 2248,
      "áĪ¼": 2249,
      "áĪĺáĪĺ": 2250,
      "áĪĺáĮĢáĪĺáĪªáĭ«": 2251,
      "áĪ¨áįĪ": 2252,
      "áįĪáī°áĬĵ": 2253,
      "ĠáīµáĪŃáĮīáĪĿ": 2254,
      "áĭĪáĪĭáĮĨáī¼": 2255,
      "áĮ»áĪķáįįáīµ": 2256,
      "áĪŃáĬĲáīµ": 2257,
      "áīłáĪī": 2258,
      "Ġáīłáĭ¨áīĢáĬĳ": 2259,
      "áįĪáĮ¥": 2260,
      "áįĪáĭĭáĪį": 2261,
      "áĬ¨áī³": 2262,
      "áĮĭáī½áĪģ": 2263,
      "áĬ«áĬķ": 2264,
      "ĠáĪĪáĪĺáĪĦáĭµ": 2265,
      "áĮĢáĪį": 2266,
      "Ġáī¢áĪ«": 2267,
      "áĪº": 2268,
      "áĪĶ": 2269,
      "áĪĭáĭį": 2270,
      "áī°áĪĽ": 2271,
      "ĠáĬĲáīłáĪ¨áĭį": 2272,
      "ĠáĪĪáĪĽáĪĪáīµ": 2273,
      "áī¦áīµ": 2274,
      "ĠáĬĲáĮĪáĪ®áī½áĬķ": 2275,
      "áĭĪáĪĭáĮĨáī½": 2276,
      "áĪĪáĬĽáĭį": 2277,
      "ĠáĬłáĮĪáĪŃ": 2278,
      "áĮłáĪį": 2279,
      "áįįáĪŃ": 2280,
      "ĠáīĢáĭµ": 2281,
      "áĪŀáĬŃáĪŃ": 2282,
      "ĠáįĵáĪŃáī²": 2283,
      "ĠáĪĺáīĭáīĭáĪĿ": 2284,
      "ĠáĪĪáĮĪáĬĵ": 2285,
      "ĠáĬłáĪĪáĪĺ": 2286,
      "ĠáĬłáĪµáī¥": 2287,
      "áĪµáĭİáĬķ": 2288,
      "Ġáīµáī½áĪĭáĪĭáī½áĪģ": 2289,
      "ĠáĬĲáīłáĪ¨áī½": 2290,
      "ĠáĪĺáĪ¨áĮĥ": 2291,
      "ĠáĪĺáĭĭáĬĺáīµ": 2292,
      "áīģáĪį": 2293,
      "áĪįáĮĦ": 2294,
      "áĪĺáĪ°áĮįáĬĵáĪĪáĬķ": 2295,
      "ĠáĪĺáĬ¨áĪ¨": 2296,
      "ĠáĬłáĭŃáī¼": 2297,
      "Ġáī¥áĪįáĪħ": 2298,
      "ĠáĬ¥áĬķáĭ°áĪĮ": 2299,
      "ĠáĬłáĪįáĬĲáīłáĪ¨áĬĿáĪĿ": 2300,
      "Ġáĭ«áĪĪáī¥áĬķ": 2301,
      "ĠáĭĪáĪ°áĭ°": 2302,
      "Ġáĭ°áĪ¨áĪ°": 2303,
      "áīłáĬłáĬķáī°": 2304,
      "áī°áĪ³": 2305,
      "áī¥áĪĭáīµ": 2306,
      "ĠáĪĺáĬĲ": 2307,
      "áĬĲáĭ³": 2308,
      "ĠáĬ¥áĬķáĮįáĪĬáĭ": 2309,
      "Ġáī°áĮĪ": 2310,
      "áĬ¥áĬķáĭ°áĭļáĭ«": 2311,
      "ĠáĪŀáīĥáīµ": 2312,
      "áįĴáĭ«áĬĸ": 2313,
      "áĮĵáĪį": 2314,
      "áĬ¸áĬĿ": 2315,
      "áĮ¢": 2316,
      "áĪįáīµ": 2317,
      "áĪįáī¥": 2318,
      "áĪģáĪĭáī½áĪģáĪĿ": 2319,
      "áĬ¥áĭ¨áī°": 2320,
      "áĭ¨áĪĿáĬķ": 2321,
      "áĭİáī¹áĬķ": 2322,
      "ĠáĬłáĭŃáĭ°áĪĪ": 2323,
      "áīĨáĭ¨áīµ": 2324,
      "áī¤áī±": 2325,
      "ĠáĬ¥áĬĵáĪĺáĪ°áĮįáĬĵáĪĪáĬķ": 2326,
      "ĠáĮłáĭŃ": 2327,
      "ĠáĭĪáĭŃáĪµ": 2328,
      "ĠáĭµáĪĿáĮ½": 2329,
      "áĪµáĪĭ": 2330,
      "áĭµáĪ®": 2331,
      "ĠáĮ¸": 2332,
      "ĠáīłáĪĭ": 2333,
      "ĠáĭŃáĪĺáĮ£áĪį": 2334,
      "áĮ£áĪī": 2335,
      "áĬ¨áĬłáĬķáī°": 2336,
      "ĠáĪĽáĪ°áī¥": 2337,
      "Ġáī°áĭ°": 2338,
      "áĪ»áĬķ": 2339,
      "áĮīáĭ³": 2340,
      "áĬ¥áĪŃáĪµ": 2341,
      "áĪĺáĪįáĪµ": 2342,
      "áįĢáĪĲáĭŃ": 2343,
      "áĪ«áĪµáĪħáĬķ": 2344,
      "áĪĿáĬŃ": 2345,
      "áĮįáĪ®áī½": 2346,
      "ĠáĭŃáĪ°áĪ«": 2347,
      "áĮłáīĢ": 2348,
      "áĬ¨áĬ¥áĬķáĮįáĭ²áĪħ": 2349,
      "áįĭáĮŃ": 2350,
      "áĮ¨áĭĭ": 2351,
      "áĪķáĭŃáĭĪáīµ": 2352,
      "áĪĺáī¼áĪĿ": 2353,
      "áĬķáĮ¥áĪĭ": 2354,
      "áī½áĮįáĪŃ": 2355,
      "ĠáĭŃáī³": 2356,
      "áī³áĭ°áĪŃáĮį": 2357,
      "áĬŃáĪ®": 2358,
      "áī¡áīµ": 2359,
      "ĠáĬŃáįįáīµ": 2360,
      "ĠáĪĻáĭļáīĥ": 2361,
      "áīłáĬłáĭį": 2362,
      "ĠáĭĪáĭŃáĬķ": 2363,
      "ĠáĮ£áī¢áĭ«áĭį": 2364,
      "áĬĵáĮĪáĪ¨áĭįáĬķ": 2365,
      "áī§áĪį": 2366,
      "áĪĺáĬĲ": 2367,
      "áī¥áĬķ": 2368,
      "ĠáĭŃáĪŀáĬŃáĪ©": 2369,
      "áĪ°áĪĿ": 2370,
      "áī»áĪĪ": 2371,
      "áĪĥáĬĴ": 2372,
      "áĬłáĪµáīĢáĭµ": 2373,
      "ĠáĮĪáĭĽáĪģ": 2374,
      "áĬ¥áĬķáĮįáĪĬáĭĺáĬĽ": 2375,
      "áīµáĪŃ": 2376,
      "áĪĺáĬĿ": 2377,
      "áĮ£áĪª": 2378,
      "ĠáĪĺáĪµáĬ®": 2379,
      "ĠáįįáīħáĪŃ": 2380,
      "ĠáīģáĪįáįį": 2381,
      "áĮłáĬķáīĢáīħ": 2382,
      "ĠáĬ¬áĬŃ": 2383,
      "ĠáĭŃáĪįáīħ": 2384,
      "áĭĪáĭ°áĭļáĭ«": 2385,
      "áĮŃáīĨ": 2386,
      "áī¢áĪ®": 2387,
      "áĪĺáĪįáĬ¨áīµ": 2388,
      "ĠáĪĽáĬķáĬĽáĭį": 2389,
      "ĠáĪĺáĪ°áĪĪáĬĿ": 2390,
      "áĪĪáĬ¥áĬĶ": 2391,
      "áĪŃáĮ¥": 2392,
      "áĪµáĪľ": 2393,
      "áīłáĭ°áĪŃ": 2394,
      "ĠáĪĺáī°áĭį": 2395,
      "ĠáĬ¥áĬķáĪµ": 2396,
      "áĪ«áĪ±": 2397,
      "Ġáĭ°áĪ¨áĪµ": 2398,
      "áįĭáĪį": 2399,
      "ĠáĪĺáĬķáĭ³áīµ": 2400,
      "áĬŀáī¹": 2401,
      "ĠáĬłáī³áĭįáīħáĪĿ": 2402,
      "áĭįáĪ»áĭį": 2403,
      "ĠáĪĿáĪŃáĮ«": 2404,
      "Ġáĭ°áĬŃáĪŀáĬĽáĪį": 2405,
      "áī°áĪµáįĭ": 2406,
      "áĪħáĭŃáĭĪáīµ": 2407,
      "áĪĺáĪ«": 2408,
      "áĬĲáīħ": 2409,
      "áįĪáīħáĭµ": 2410,
      "áĮłáĪĭ": 2411,
      "áī£áĭį": 2412,
      "ĠáĬłáĭŃáĪ°áĪĽ": 2413,
      "ĠáĬłáĭŃáĪĨáĬķáĪĿ": 2414,
      "áĭ°áĪŃáĪµ": 2415,
      "áĪĨáĬķáĬŃ": 2416,
      "Ġáī£áĭ¶": 2417,
      "ĠáĪŀáī°": 2418,
      "áĭ«áĬķáĪµ": 2419,
      "áĬķáįĥ": 2420,
      "áĪĿáĮĥ": 2421,
      "áĮįáĬķ": 2422,
      "ĠáĪĺáĪĿ": 2423,
      "áĬ¨áĬ¥áĬĲáĭļáĪħ": 2424,
      "áīĢáĪ°": 2425,
      "áĪ¬áī³": 2426,
      "áĪ¬áĭ«áĪĪáĪģ": 2427,
      "áĪµáĪĪáĪ±": 2428,
      "ĠáĬ¥áĬķáĭ°áĪļáī½áĪį": 2429,
      "áĪĿáĪħáĪŃ": 2430,
      "áĪĪáĬłáĬķáĭµ": 2431,
      "ĠáĬłáĬĵ": 2432,
      "ĠáĬłáĪĽ": 2433,
      "ĠáĬ¥áĪ«áīµ": 2434,
      "áĭŃáĭĺ": 2435,
      "áĬĲáĪ°": 2436,
      "ĠáĭŃáĪĺáĪĪ": 2437,
      "áĪ«áī½áĪģ": 2438,
      "áĮłáīłáīĢ": 2439,
      "áĪĦáĭ°áĭį": 2440,
      "áĬĲáīłáĪ¨": 2441,
      "áĪ°áĪĽáĪħ": 2442,
      "ĠáĪĨáĪµáįĴáī³áĪį": 2443,
      "ĠáĪĺáĮłáĮ£áīµ": 2444,
      "ĠáĬłáĪµáī°áĭĭ": 2445,
      "áīĢáĪĺáĮł": 2446,
      "áĮĪáĬĿáĪħ": 2447,
      "ĠáĬłáĭ«áĪµáįĪáĪįáĮĪ": 2448,
      "áĭĪáĬķáĭµáĪľ": 2449,
      "ĠáĪ¥áĭķ": 2450,
      "ĠáĪ°áĪĿáī»áĪĪáĪģ": 2451,
      "áĬ¥áĭ«áĬķáĭ³áĬķ": 2452,
      "áīĢáĪį": 2453,
      "áĮĭáĪ«": 2454,
      "ĠáĬłáĭŃáī°áĪĥáĪį": 2455,
      "ĠáĬłáĪĭáĪ°áī¥": 2456,
      "áĪŀáĪĭ": 2457,
      "áĮīáĬķ": 2458,
      "ĠáĪĪáĪĺáĮįáĭĽáīµ": 2459,
      "áĪ°áĪ«áĪĿ": 2460,
      "áī¾": 2461,
      "ĠáĪ¹": 2462,
      "ĠáĪ¦áĪµáīµ": 2463,
      "ĠáĬ¥áī½áĪį": 2464,
      "áĬĵáĮįáĪŃáĪħ": 2465,
      "áįĪáĮł": 2466,
      "áĪ«áĪĪáĪħ": 2467,
      "áĮłáī¢áĭ«": 2468,
      "ĠáĬłáĭŃáī»áĪĪáĪģ": 2469,
      "Ġáī¥áĪĨáĬķ": 2470,
      "ĠáĬ¥áĬķáĭ°áĪĿáĬķ": 2471,
      "ĠáĭĪáĭ°áĭļáĪħ": 2472,
      "áĪĬáī±áĬķ": 2473,
      "áĭĪáĪ°áĬķ": 2474,
      "áĬĲáĮįáĪ©áĬĿ": 2475,
      "Ġáī¥áĪµáĬŃáĪĮáīµ": 2476,
      "ĠáĭŃáĪĺáĪįáĬ¨áī±": 2477,
      "ĠáĭŃáĭĪáĪµáĭ³áĪį": 2478,
      "áĭįáĮŃ": 2479,
      "áĪŃáĪ±": 2480,
      "áĮĪáĪ©": 2481,
      "áīĥáĭĪ": 2482,
      "ĠáīĢáĪ¨": 2483,
      "áĪĮáĪİáī½": 2484,
      "Ġáī¥áĭĻáĭįáĬķ": 2485,
      "ĠáĪĦáĮĦ": 2486,
      "ĠáĮ¥áĭ«áīĦáĭİáī½áĬķ": 2487,
      "áĭ³áĪľáĬĵ": 2488,
      "ĠáĪĺáĬ¨áĪ¨áī½áĭį": 2489,
      "áĪĿáĪ¨": 2490,
      "áīµáĬŃáĬŃáĪį": 2491,
      "áĪįáīģ": 2492,
      "ĠáĬłáĭ°áĪ¨": 2493,
      "áĭµáĪ¨": 2494,
      "áĬ¨áī£áĭµ": 2495,
      "áįĪáĪįáĮīáīµ": 2496,
      "áĬ¥áĬķáĭ²": 2497,
      "áĭ°áĪŃáĮīáīµ": 2498,
      "áīłáīµáĪĿ": 2499,
      "Ġáĭ¨áĪĿáī½áĪį": 2500,
      "áĪģáĪĪáī±": 2501,
      "ĠáĭĽáįį": 2502,
      "Ġáī°áĪĽáĪªáĭİáī½": 2503,
      "áĭ°áĭĪáĪį": 2504,
      "áīµáĪĿ": 2505,
      "áīłáĬ¥áĭįáĬĲáī±": 2506,
      "áĮĪáĬĲ": 2507,
      "ĠáīłáĬ¥áĬĶ": 2508,
      "áĬĵáīĤ": 2509,
      "áī£áĪ¨": 2510,
      "áīĢáĭ°áĪĿ": 2511,
      "áĪ³áĪĪáĪħ": 2512,
      "Ġáī°áĮĭ": 2513,
      "ĠáĭĪáī°áīµ": 2514,
      "ĠáĭįáĮ¤": 2515,
      "áĬ«áĬĿ": 2516,
      "áĪĺáĪĪáĬ¨áīµ": 2517,
      "Ġáĭ«áĪĪáī¥áĪħ": 2518,
      "áĭ¨áī´": 2519,
      "ĠáĪĽáī¥": 2520,
      "áĬĶáĬķ": 2521,
      "ĠáĪĪáĪĺáĬĵáĮĪáĪŃ": 2522,
      "áĮĪáī£áĬĿ": 2523,
      "ĠáĬłáĪįáĬĲáīłáĪ¨áī¥": 2524,
      "ĠáĪĺáĮįáī£áīµ": 2525,
      "ĠáĪĿáĪŃáĮ¥": 2526,
      "ĠáĪµáī¥áĪ°áī£": 2527,
      "ĠáīµáĪĦáĭ³áĪĪáĪħ": 2528,
      "Ġ2": 2529,
      "áĭįáīģ": 2530,
      "áĬłáĭ«": 2531,
      "áĬŃáĪ¬": 2532,
      "ĠáĪĽáĪ¨áĮĭáĮĪáĮ¥": 2533,
      "áĪ©áĪħ": 2534,
      "áīĨáĬķáĮĨ": 2535,
      "áįĬáĭ«": 2536,
      "ĠáĮłáįį": 2537,
      "ĠáĮłáįĭ": 2538,
      "ĠáĭµáĪŃ": 2539,
      "áĪģáĪĪáī°áĬĽ": 2540,
      "ĠáĬ¨áįįáī°áĬĽ": 2541,
      "áĬ¥áĪħáī´": 2542,
      "ĠáĭŃáĬĵáĮĪáĪ«áĪį": 2543,
      "ĠáĭŃáĭįáĪ°áĭ±": 2544,
      "áĪĳ": 2545,
      "áĪĿáĪµ": 2546,
      "áĭĪáĮ£áīµ": 2547,
      "ĠáĮįáī¥": 2548,
      "áĪľáĪ«": 2549,
      "áĬªáĪĿ": 2550,
      "áĪĺáĪįáĬ«áĪĿ": 2551,
      "áīłáĪĭáĪ½": 2552,
      "áĬ¨áĪŃáĬ©": 2553,
      "Ġáī³áĪµáī£áĪĪáĪħ": 2554,
      "áįįáĪ«áĪĿ": 2555,
      "áĪ«áįĬáĬŃ": 2556,
      "áĬĥ": 2557,
      "áĪĿáĬĲáīµ": 2558,
      "áĭµáĪĿ": 2559,
      "áĭµáĬ©áīµ": 2560,
      "áĬ¥áĪ¨áįįáīµ": 2561,
      "áĪ«áĪĪáĬķ": 2562,
      "áĪĻáĭļáīĥ": 2563,
      "áī¥áī»áĪħáĬķ": 2564,
      "ĠáĬ¥áĬķáĭ°áī°áįĪáĮłáĪ¨": 2565,
      "Ġáī°áĪĺáĪĪáĬ¨áī°": 2566,
      "áĪŃáĭĿáĪŃ": 2567,
      "ĠáĬłáĪµáī³áĭįáĪ³áĪĪáĪģ": 2568,
      "áĪĪáīħ": 2569,
      "ĠáĬłáĪľáĪªáĬ«": 2570,
      "ĠáĬ¥áĮłáī¥": 2571,
      "áĮĪáĪĪ": 2572,
      "áī¥áĭµ": 2573,
      "ĠáīłáĮ¥áĪ©": 2574,
      "ĠáīłáīĢáĪŃ": 2575,
      "ĠáĬ¥áĬķáĪĤáĭµ": 2576,
      "áĪ³áī±": 2577,
      "áĪ³áī¡áĬķ": 2578,
      "ĠáĪµáĪįáĬŃ": 2579,
      "ĠáĮ¥áīħáĪĿ": 2580,
      "ĠáĬłáĪĭáĮĪáĬĺ": 2581,
      "ĠáīĢáĪŃ": 2582,
      "áī¦áī½áĬķ": 2583,
      "áĭ©áĬķ": 2584,
      "áįĵáĪŃáĬ©": 2585,
      "ĠáĬłáĮ£áĪģ": 2586,
      "áĪĭáī½áĬĭáĪį": 2587,
      "áĭįáĮ£": 2588,
      "áīłáĬĭáĪĭ": 2589,
      "áĬ¥áĬŃáīµ": 2590,
      "áįĪáĪµ": 2591,
      "áī³áĪŃ": 2592,
      "áĭĪáīĢ": 2593,
      "ĠáĬ¨áĪĽ": 2594,
      "ĠáĬ¨áĭ¨áīµ": 2595,
      "ĠáĪ°áĬŀ": 2596,
      "ĠáįĪáī°áĬĵ": 2597,
      "áĪ¸áĪ«": 2598,
      "áĬĲáīłáī¥": 2599,
      "ĠáĪµáĪĪáĬĲáīłáĪŃ": 2600,
      "Ġáī¢áĪ®": 2601,
      "áĬ¨áī£áĬ¨áī¥": 2602,
      "ĠáĬłáĪĭáĪ°áī¥áĬ©áĪĿ": 2603,
      "ĠáįķáĪ®": 2604,
      "áĪĪáīĥ": 2605,
      "ĠáĬłáĪı": 2606,
      "ĠáīłáĮī": 2607,
      "ĠáīłáīħáĪŃáī¡": 2608,
      "ĠáĪĺáĮ¨áĪ¨áĪ»": 2609,
      "áĭ¨áĭļáĪħ": 2610,
      "ĠáĬ¥áĬķáĮĤ": 2611,
      "Ġáī°áĭĪáĭ³": 2612,
      "ĠáĪĿáĪįáĬŃ": 2613,
      "áĪĺáĪµáĪį": 2614,
      "áįĭáĪŃ": 2615,
      "ĠáĭŃáĪĺáĪµáĪĭáĪī": 2616,
      "Ġáī¥áī»áĭįáĬķ": 2617,
      "ĠáĬ¥áĬķáĭµáĬķ": 2618,
      "áĬ¥áī£áĬŃáĭİ": 2619,
      "áĭ¨áĪĿáĪŃ": 2620,
      "áī£áĪĪáī¤áī´": 2621,
      "ĠáĬłáĪĿáĪµáīµ": 2622,
      "áĮ¬": 2623,
      "ĠáĪ´": 2624,
      "áĪĿáĭµ": 2625,
      "ĠáĬ¥áĪĺáĪĪ": 2626,
      "áī¥áīµ": 2627,
      "áĭ³áĪĪáĪģ": 2628,
      "ĠáĪĿáĬĵáĪįáī£áīµ": 2629,
      "áĪŀáī½áĬķ": 2630,
      "ĠáīĢáĮ¥": 2631,
      "áĭ²áīµ": 2632,
      "áĮİáīł": 2633,
      "ĠáĬ¥áĬķáĭ°áĪļáĭ«áĪµ": 2634,
      "ĠáĬ¥áĬķáĭ°áĪļáī½áĪī": 2635,
      "ĠáĬ¥áĭ«áĪ°áī¥áĬ©": 2636,
      "ĠáĮįáĬķáĬĻ": 2637,
      "ĠáĪŀáĬ¨áĪ¨": 2638,
      "ĠáĬłáĭµáĪŃáĮĵáĪį": 2639,
      "ĠáĬłáĪµáī°áĭ«áĭ¨áīµ": 2640,
      "áĬĲáĮįáĪ¨áĬĿ": 2641,
      "ĠáĬłáĪĿáĬĵáĪĪáĪģ": 2642,
      "áĮįáĪ¨": 2643,
      "Ġáĭ¨áī³": 2644,
      "áī£áĭŃ": 2645,
      "áĬ¨áĬł": 2646,
      "ĠáĪĪáĬł": 2647,
      "áĭĿáĮįáĮģ": 2648,
      "áįĭáĪª": 2649,
      "ĠáĮłáĭ¨": 2650,
      "ĠáĪĪáĪĽáĪµ": 2651,
      "Ġáī°áĪµáĪĽ": 2652,
      "áĬĲáĮĪáĪ®áī½": 2653,
      "ĠáĪĢáī¥áī³áĪĿ": 2654,
      "ĠáĪĺáĪŃáĭ³áīµ": 2655,
      "ĠáĪłáĪŃ": 2656,
      "áĬ¥áĬķáĮįáĪĬáĭĿáĬĽ": 2657,
      "ĠáĪ»áĭŃ": 2658,
      "áĪ®áįķáĪĭáĬķ": 2659,
      "ĠáīĢáĭµáĪŀ": 2660,
      "ĠáĬłáĭŃáĭ°áĪĪáĬķáĪĿ": 2661,
      "ĠáĬ¥áĪ¨áįįáīµ": 2662,
      "ĠáĮ®": 2663,
      "ĠáĪĺáĪ«": 2664,
      "ĠáĮĬáĭľáĭį": 2665,
      "áī´áĪį": 2666,
      "áįĬáĪį": 2667,
      "Ġáī³áĭĭáīĤ": 2668,
      "áįģáĪħ": 2669,
      "áīłáįįáĮ¥áĬĲáīµ": 2670,
      "áĬŃáĬŃáĪĪáĬĽáĭį": 2671,
      "áĭįáĮ£áīµ": 2672,
      "ĠáīłáĪ°áĭĵáī±": 2673,
      "áĭĪáĮĪáĭµ": 2674,
      "áĬŃáī°": 2675,
      "ĠáĬłáĪĪáī£áī¸áĭį": 2676,
      "ĠáĬ¥áĬķáĭ°áĭĽ": 2677,
      "áĭĺáĬķáī¥": 2678,
      "áĬ¥áĪŃáĮįáĮł": 2679,
      "ĠáĮłáĭ¨áīħ": 2680,
      "Ġáĭ¨áī°áĭĪáĪ°áĬĲ": 2681,
      "áĬ¥áĬķáĭ°áĭĽ": 2682,
      "ĠáĭĵáĪ£": 2683,
      "ĠáįįáĮ¹áĪĿ": 2684,
      "ĠáĮĢáĪŃáī£": 2685,
      "ĠáĪħáĪĺáĪĿ": 2686,
      "áĮĵáĭ°áĬŀáī½": 2687,
      "ĠáīĢáĮłáĪĪ": 2688,
      "Ġáĭ«áĪµáįĪáĪįáĮĪáĭĭáĪį": 2689,
      "áĪµáī³áĭĪáĪ»": 2690,
      "ĠáĬ¥áĮĪáĭĽ": 2691,
      "áĭ°áĬ¨áĪĺ": 2692,
      "áĪĺáĮ¥áįİ": 2693,
      "áĪĭáĪ½": 2694,
      "ĠáĮ¦": 2695,
      "ĠáĪĺáĮ½": 2696,
      "ĠáĪĺáĭ°áī¥": 2697,
      "áī¶áī¹": 2698,
      "áĮ¥áįĭ": 2699,
      "áĪ³áīĢáĪµ": 2700,
      "Ġáĭ«áĪĪáĪħ": 2701,
      "Ġáī°áĬĲ": 2702,
      "ĠáĪĪáĬłáĬķáĭµ": 2703,
      "ĠáĪįáĮĨ": 2704,
      "áĮ¨áīµ": 2705,
      "áĪªáĭ«áĭį": 2706,
      "Ġáĭ¨áĪĽáĬķ": 2707,
      "áĮ¸áĭ³": 2708,
      "ĠáĬ¥áĭµáĪĪáĬĽ": 2709,
      "ĠáĭŃáĬĸáĪ«áĪį": 2710,
      "áī°áĪĽáĪĺáĬķ": 2711,
      "áīłáĭ¨": 2712,
      "áĮĪáĭ°": 2713,
      "ĠáīłáĪ³": 2714,
      "áĪ°áĪ©": 2715,
      "áīĢáĪĭ": 2716,
      "Ġáĭ«áĭĿ": 2717,
      "Ġáī°áĮ¨": 2718,
      "ĠáĬłáĪįáĮĭ": 2719,
      "ĠáĬłáĪįáīłáĪĭ": 2720,
      "áĬ©áĪµ": 2721,
      "áĭĭáĮĭ": 2722,
      "ĠáĪµáĪĭáĪį": 2723,
      "áī£áīµáĪħ": 2724,
      "áĪĽáĬķáĬķáĪĿ": 2725,
      "áĭ°áĪŃáĮįáĪĿ": 2726,
      "ĠáĬķáĮį": 2727,
      "ĠáĬłáĪ³áĭ¨áĬĿ": 2728,
      "áĭĿáĬĵáĬĵ": 2729,
      "Ġáĭ«áĪįáī°": 2730,
      "áĭī": 2731,
      "áĪħáĪª": 2732,
      "áĭŃáĪĦ": 2733,
      "áĮĪáī¡": 2734,
      "ĠáĬłáĭŃáĮĪáī£": 2735,
      "ĠáĭĪáĪĭ": 2736,
      "áĬĭáīµ": 2737,
      "áī¦áĪŃáĪ³": 2738,
      "Ġáĭ¨áĪĽáĭįáīĢáĭį": 2739,
      "áĪ¶áī½áĬķ": 2740,
      "ĠáĪłáĪ«": 2741,
      "ĠáĬłáĪįáįĪáĪĪáĬ©áĪĿ": 2742,
      "ĠáĬ¥áĮłáī¥áīĥáĪĪáĪģ": 2743,
      "áĬ¥áĪŃáĮįáĮłáĬĿáĬĲáīµ": 2744,
      "áĬķáĪ°áĪŃ": 2745,
      "áĪµáīĥ": 2746,
      "áīłáĪ°": 2747,
      "áĬĵáĭ°áĭµ": 2748,
      "ĠáĪĺáĮĪ": 2749,
      "áĬĲáĮĪáĪ¨": 2750,
      "áĬ¨áĪĪ": 2751,
      "Ġáī°áĪ¨áĭµ": 2752,
      "ĠáĬłáĪįáĬĲáĮĪáĪŃ": 2753,
      "ĠáĬ¨áī¶áĪĿ": 2754,
      "áĭ¨áīµáĬĽáĭįáĬķ": 2755,
      "ĠáįĪáĮĪáĮį": 2756,
      "áĪ¸áĮ¥": 2757,
      "ĠáīĨáĪĺ": 2758,
      "áĪ·áĬķ": 2759,
      "ĠáĭŃáĪ»áĪĭáĪį": 2760,
      "áĭŃáĭĪáī´": 2761,
      "Ġáī¥áĪŃáĮŃáīĨ": 2762,
      "ĠáīµáĭĪáĭ³áĪĪáĪħ": 2763,
      "ĠáĭľáĬĵ": 2764,
      "ĠáĬĭ": 2765,
      "áĬķáī²": 2766,
      "Ġáī»": 2767,
      "áī°áĪĽáĪª": 2768,
      "Ġáīłáĭĵ": 2769,
      "ĠáĪĺáĪŀáĬ¨áĪŃ": 2770,
      "ĠáĪĺáĮ»áĪķáįįáīµ": 2771,
      "Ġáī°áĪ¸": 2772,
      "ĠáĬĲáīłáĪŃáĬķ": 2773,
      "ĠáĬłáĪµáīĢáĪĿ": 2774,
      "ĠáĬłáĪµáīĢáĭµ": 2775,
      "ĠáĬ¥áĬķáĭ³áĭ°áĪŃáĮį": 2776,
      "áĪĦáĭµáĬŃ": 2777,
      "áĮ«áĪĽ": 2778,
      "áĪĺáĬķáĮĪáĭµ": 2779,
      "Ġáĭ«áĪµáīĢáĪĿ": 2780,
      "ĠáĪĦáĭ±": 2781,
      "áī³áī½áĬķáĪĿ": 2782,
      "áĪĺáĮ½áĪĲáįīáĬķ": 2783,
      "ĠáĭĻ": 2784,
      "áĮįáĪĺ": 2785,
      "áĮįáī¡": 2786,
      "ĠáĭŃáĮłáī¥": 2787,
      "Ġáĭ°áĬķ": 2788,
      "áĬĸáĪ¨áĬĿ": 2789,
      "ĠáĪĺáĪĨáĬķáĪħáĬķ": 2790,
      "áĮ®áĪħ": 2791,
      "Ġáī¤áī°áĪ°áī¥": 2792,
      "áĪįáĭİáī³áĪį": 2793,
      "áīłáī¶áĪĿ": 2794,
      "áĭ¨áĬķ": 2795,
      "ĠáĭŃáīłáĪį": 2796,
      "ĠáĭŃáĪł": 2797,
      "áĮĭáĭŃ": 2798,
      "áĭµáĬķáĮĪáīµ": 2799,
      "ĠáĬłáĮĪáĬĺáĪģ": 2800,
      "ĠáįĪáĪĪáĮĪ": 2801,
      "Ġáī°áĬĽáĪģ": 2802,
      "áĪĿáĪµáīµ": 2803,
      "áīµáĪĭáĬķáīµ": 2804,
      "áĭ¨áĪħ": 2805,
      "áĬĲáīĥ": 2806,
      "áĮłáĭĭáĪį": 2807,
      "áĭ³áī¸áĭį": 2808,
      "áĪµáĮ¥áĪŃ": 2809,
      "áī´áĪĮáīªáĭ¥": 2810,
      "ĠáĪŀáĬĿ": 2811,
      "ĠáĪŀáĬ¨áĪŃáĬ©": 2812,
      "áĬ³áĪŃ": 2813,
      "ĠáīłáįįáĮ¹áĪĿ": 2814,
      "áī£áī¡áĪŃ": 2815,
      "ĠáĪĽáĪ³áĪĪáįį": 2816,
      "Ġáĭ«áĭµáĪŃáĮī": 2817,
      "ĠáĬ©áī£áĭ«": 2818,
      "ĠáĭŃáĪ°áĪ«áĪį": 2819,
      "Ġáī°áĭĪáĭ³áĮħ": 2820,
      "ĠáĬĭáĪĭ": 2821,
      "ĠáĬłáĪ°áĪį": 2822,
      "ĠáĬ¥áĮħ": 2823,
      "ĠáĬ¥áī¤áīµ": 2824,
      "áĮįáĪµ": 2825,
      "Ġáĭ¨áī¶áĪĿ": 2826,
      "ĠáīłáĪµáī°": 2827,
      "áĬ¥áĬķáīħ": 2828,
      "ĠáĭŃáĪĺáĪµáĪĭáī½áĬĭáĪį": 2829,
      "ĠáīĨáĪŃ": 2830,
      "áĪ¨áĮĭáĮį": 2831,
      "Ġáĭ«áĪĪáī¥áĬĿ": 2832,
      "ĠáĬłáĮĪáĬĺáĪģáīµ": 2833,
      "ĠáĪĺáĮ£áĪħ": 2834,
      "áĬłáĭ°áĮĭ": 2835,
      "áĪĥáĬĴáīµ": 2836,
      "ĠáīĢáĭµáĪŀáĭį": 2837,
      "áĪµáĪħáī°áīµ": 2838,
      "áīłáĬ¥áĬĶ": 2839,
      "áīłáĭ°áĬķáī¥": 2840,
      "áĪĺáĬĵ": 2841,
      "ĠáĪĺáĪĺ": 2842,
      "ĠáĭŃáīĢ": 2843,
      "áī³áĭŃ": 2844,
      "Ġáī¥áī¸": 2845,
      "ĠáĪįáĪ¨áĭ³áĪħ": 2846,
      "Ġáī¥áī»áĪħáĬķ": 2847,
      "áĪµáĪĪáĭļáĭ«": 2848,
      "ĠáĬ«áĪŃ": 2849,
      "áĮģáĬķ": 2850,
      "ĠáĬ¥áĬķáĭ°áĪĿáīµáįĪáĪįáĮį": 2851,
      "áĬłáĭįáī¶áī¡": 2852,
      "ĠáĬ¥áĭ¨áĪŀáĬ¨áĪŃáĬ©": 2853,
      "Ġáįĭ": 2854,
      "áĪµáīłáĭį": 2855,
      "ĠáĬĲáįĭ": 2856,
      "áĬĲáīĢ": 2857,
      "áįĪáĪ¨áĬķáĪ³áĭŃ": 2858,
      "áĮ¥áĪŀ": 2859,
      "Ġáī°áĭį": 2860,
      "Ġáī°áĪ°": 2861,
      "Ġáī°áĪ°áĪĽ": 2862,
      "áĪ±áīµ": 2863,
      "áĭįáīĥáĪĪáĬķ": 2864,
      "áĮİáī¥": 2865,
      "Ġáĭ«áĪµáĭ°": 2866,
      "ĠáĬłáĪįáĬĲáīłáĪŃ": 2867,
      "áĬ¥áĬĽáĬķ": 2868,
      "áī¤áī°áĪ°": 2869,
      "ĠáĮįáĬķáĬĻáĬĲáīµ": 2870,
      "ĠáĬłáīĨ": 2871,
      "ĠáĬ¥áīĨ": 2872,
      "áīłáĪĿ": 2873,
      "áĪĺáĭ°": 2874,
      "Ġáĭ¨áĪ°": 2875,
      "áĭ«áĭĻ": 2876,
      "áĭ«áīĤ": 2877,
      "ĠáĪĺáĮ¨": 2878,
      "áĪ«áī¥": 2879,
      "áĮłáī£": 2880,
      "áīĢáĭįáĬķ": 2881,
      "áīĢáĭĭáĪį": 2882,
      "áĬ©áīµáĬķ": 2883,
      "áĪ¬áĭį": 2884,
      "ĠáĬ¥áĭ¨áĪĨáĬĲ": 2885,
      "ĠáĮĪáīł": 2886,
      "ĠáĬ¥áĬĵáĭįáīĥáĪĪáĬķ": 2887,
      "áĭĪáĭ°áĭļáĪħ": 2888,
      "ĠáĪĪáĪĽáĬķáĪĿ": 2889,
      "áĬªáĭ®": 2890,
      "áĭ¶áī½áĬķ": 2891,
      "áĭķáĪĿ": 2892,
      "ĠáĬłáĮįáĬĿáī»áĪĪáĪģ": 2893,
      "áĭµáĪĺáī·": 2894,
      "Ġáĭ«áĭµáĪŃáĮīáīµ": 2895,
      "ĠáĪĪáĭįáĮ¥": 2896,
      "áĪµáīĥáĪ´": 2897,
      "áīµáĪħ": 2898,
      "áĪįáĪħáĪĿ": 2899,
      "ĠáīłáĮį": 2900,
      "ĠáĭŃáĮ«áĭĪ": 2901,
      "áĬ¨áĪĿ": 2902,
      "áĬ¨áĬłáĬķáĭµ": 2903,
      "ĠáĬłáĪįáĪ°áĪĽ": 2904,
      "ĠáĭįáĮª": 2905,
      "ĠáĬĲáīłáĪ¨áīłáīµ": 2906,
      "áĪģáĪĪáī³": 2907,
      "ĠáĪķáĬķáįĥ": 2908,
      "Ġáī£áĪĪáįĪáĭį": 2909,
      "áĭĪáĬķáĭĻ": 2910,
      "áĪĺáĮ½áĪĲáįį": 2911,
      "áī«": 2912,
      "áĬķáĬŃ": 2913,
      "áĪĪáĭŃ": 2914,
      "ĠáĬłáĭįáīħ": 2915,
      "ĠáĬłáĭ¨áĪŃ": 2916,
      "ĠáĪĺáĬĿáī³": 2917,
      "áĪĽáĪ¨": 2918,
      "áī³áĭįáĬķ": 2919,
      "áī³áĪª": 2920,
      "áĭĪáĭ±": 2921,
      "áĬŃáĬķ": 2922,
      "áīĢáīłáĪį": 2923,
      "Ġáĭ«áĪīáīµ": 2924,
      "ĠáĪįáĬŃ": 2925,
      "áįĭáĭį": 2926,
      "ĠáĬ¥áĭ¨áĮłáīłáīħ": 2927,
      "áī¼áĭĭáĪĪáĪģ": 2928,
      "Ġáĭ¨áĪĿáī½áĪĪáĭį": 2929,
      "ĠáĪĺáĬķáĮĪ": 2930,
      "áĬĵáĮĪáĪŃáĪĿ": 2931,
      "áĮĪáĬĺáĭį": 2932,
      "áĪ¨áĮĭáĮĭ": 2933,
      "áĬ¨áĪ°áīµ": 2934,
      "ĠáīħáĪŃáī¥": 2935,
      "ĠáĪ°áĪĽáĪģ": 2936,
      "ĠáĬłáĭ°áĪ¨áĮįáĪģ": 2937,
      "ĠáĪĺáĬŃáįĪáĪį": 2938,
      "ĠáĬłáĭ«áĪµáįĪáĪįáĮĪáĬĿáĪĿ": 2939,
      "áĭŁ": 2940,
      "áīłáī³áĪį": 2941,
      "áĪĺáĪĿáĪħ": 2942,
      "áī½áĪģáĬķ": 2943,
      "áĬ¥áĭµ": 2944,
      "ĠáĭŃáī£": 2945,
      "áĪ«áĪ»": 2946,
      "áĬ¨áĬ¥áĬĽ": 2947,
      "áįįáīħáĪŃ": 2948,
      "Ġáī°áĬĲáĪ³": 2949,
      "áĪŀáī°": 2950,
      "áĪİáī½áĬķ": 2951,
      "áĬ®áĪį": 2952,
      "áĪ¸áī³áĪĿ": 2953,
      "ĠáĮīáĭ³áīµ": 2954,
      "Ġáĭ¨áĪĨáĬĲáĭįáĬķ": 2955,
      "áĬ¨áĪ°áī°": 2956,
      "Ġáĭ«áĭ°áĪŃáĮĭáĪį": 2957,
      "ĠáĬ¥áĮĪáī£": 2958,
      "ĠáĬ¥áĪ±áĬķ": 2959,
      "ĠáĬĲáĮŃ": 2960,
      "áī½áĮįáĪ©áĬķ": 2961,
      "áĪ¨áĮł": 2962,
      "ĠáĮ¤": 2963,
      "ĠáĮĵ": 2964,
      "ĠáĬ¥áĬķáĭ´": 2965,
      "áįĪáĪ¨": 2966,
      "áī³áī¸áĭį": 2967,
      "áīĢáīł": 2968,
      "ĠáĬłáĭŃáįĪáĪįáĮįáĪĿ": 2969,
      "ĠáįĪáĪŃ": 2970,
      "áĪ¨áĭ³áĭį": 2971,
      "Ġáīħáĭ³áĪľáĬĵ": 2972,
      "Ġáĭ¨áĪĿáīµáįĪáĪįáĮĪáĭį": 2973,
      "Ġáī°áĬĵáĮĪáĪ¨": 2974,
      "ĠáĮ£áįĭáĮŃ": 2975,
      "áī¥áĪµáĬŃáĪĮáīµ": 2976,
      "ĠáĬ¥áĬķáĭµáī³áĭ°áĪŃáĮį": 2977,
      "áĬ¨áī£áĬ¨": 2978,
      "áĪ¾áī½": 2979,
      "ĠáīµáĬ©áĪ¨áīµ": 2980,
      "áī¨": 2981,
      "ĠáĬ¤": 2982,
      "ĠáĬłáįį": 2983,
      "áīłáīł": 2984,
      "áīłáī£": 2985,
      "áĪĺáĪ©": 2986,
      "Ġáĭ¨áįĪáĪĪ": 2987,
      "áī³áĪī": 2988,
      "áĮĭáĮ£áĪļ": 2989,
      "ĠáĬ¨áĬ¥áĬĽ": 2990,
      "áĭĺáĪĿ": 2991,
      "ĠáĮ¥áĪŃ": 2992,
      "ĠáĪĪáĪĽáĬķ": 2993,
      "áĮŃáĬķáīħ": 2994,
      "áĮİáĭµ": 2995,
      "áĮİáīłáĭĿ": 2996,
      "ĠáĬŃáī¥": 2997,
      "ĠáīłáĬłáĭį": 2998,
      "áĪ¥áĪŃ": 2999,
      "áĮĬáĭľáĭį": 3000,
      "ĠáĭĪáĬķáĭ¶áī½": 3001,
      "Ġáī¡áĭµáĬķ": 3002,
      "ĠáĪ³áĭŃáĪĨáĬķ": 3003,
      "áīĢáĭµáĪŀáĭį": 3004,
      "ĠáĪ©": 3005,
      "áĭįáĪ°áĭµ": 3006,
      "áĪµáī¶": 3007,
      "áī½áĮįáĪ©": 3008,
      "áĬ¥áĪ«": 3009,
      "ĠáĬŃáĪ¨": 3010,
      "Ġáĭ¨áīµáĬĽáĭį": 3011,
      "áĪ¨áĭįáĪĿ": 3012,
      "ĠáīħáĪ¬áī³": 3013,
      "ĠáĪ¨áĭµ": 3014,
      "áĪĦáĭ³áĪĪáĬķ": 3015,
      "ĠáĮ£áī¢áĭ«": 3016,
      "áĪĤáĭ±": 3017,
      "ĠáįĬáĪį": 3018,
      "ĠáīłáīĢáĪĭáĪī": 3019,
      "Ġáīłáĭ¨": 3020,
      "áįĪáī°": 3021,
      "áĭĪáĭ±áīµ": 3022,
      "áĮłáĭĭáīµ": 3023,
      "áĬ¨áĬķáĭµ": 3024,
      "ĠáĪ°áĮłáĬĿ": 3025,
      "áĪ½áĪŃ": 3026,
      "ĠáĬłáĪĭáĭ¨áĪģ": 3027,
      "ĠáįĪáĪ«": 3028,
      "áįīáīµ": 3029,
      "áĪģáĪĪáī³áī½áĬķáĪĿ": 3030,
      "áīłáĪĺáĬªáĬĵ": 3031,
      "ĠáĭĭáĬĵ": 3032,
      "áĪŃáĪµáī²": 3033,
      "áĮ¹áĪħ": 3034,
      "ĠáĮłáĭ¨áīĢáĬĿ": 3035,
      "ĠáīµáĪĺáĪµáĪĭáĪĪáī½": 3036,
      "ĠáįĸáĪĿ": 3037,
      "ĠáĬłáĭŃáĪ°áĪĽáĬĿáĪĿ": 3038,
      "ĠáĭĻáĪªáĭ«": 3039,
      "áĮįáĪĺáĬĽ": 3040,
      "áĭŃáĭĿ": 3041,
      "ĠáĬ¥áĬķáĪĦáĭ³áĪĪáĬķ": 3042,
      "ĠáĭŃáĪ¸": 3043,
      "áīĢáĭĭáĪĪáĪģ": 3044,
      "ĠáĪĽáĮ¨áĪµ": 3045,
      "Ġáī°áĮ£": 3046,
      "ĠáĬłáĭŃáī³": 3047,
      "ĠáĪĪáĪ¨áĮħáĪĿ": 3048,
      "ĠáĬłáĪįáīĭáĪį": 3049,
      "Ġáīµáĭķ": 3050,
      "áĪĦáĭ±": 3051,
      "ĠáĬłáĭŃáĭ°áĪĪáī½áĪĿ": 3052,
      "áīģáĪŃáĪµ": 3053,
      "ĠáĬ¥áĬĵáĭ°áĪŃáĮĭ": 3054,
      "Ġáī£áĪį": 3055,
      "áĮ¡áĬķ": 3056,
      "áīłáĪĭáĭį": 3057,
      "ĠáĮ¥áĭ«áīĦáĭİáī½": 3058,
      "áīłáįįáįģáĪĿ": 3059,
      "ĠáĪĺáĭĿáĮĪáīł": 3060,
      "áĪĺáĬķáĮĪáĭ±": 3061,
      "áĮĵáĭ°áĬŀáī¼": 3062,
      "ĠáĪĽáĬķáĬĽáĭįáĬķáĪĿ": 3063,
      "áĪįáī¥áĪµ": 3064,
      "ĠáĬłáĮŃáĪŃ": 3065,
      "áĪµáĬķ": 3066,
      "ĠáīłáĪ°": 3067,
      "ĠáīłáĪĺáĪµ": 3068,
      "áĬĲáī´": 3069,
      "áīĢáĭĿ": 3070,
      "ĠáĪĽáĪĪ": 3071,
      "Ġáĭ«áĭĻ": 3072,
      "Ġáĭ«áĭ°áĪ¨áĮį": 3073,
      "ĠáĭĪáįįáĪ«áĪĿ": 3074,
      "áĭĭáĪĪáĪħ": 3075,
      "áĬĸáĪ©": 3076,
      "áĮ½áįį": 3077,
      "áįĸáĪŃ": 3078,
      "ĠáĪ°áĭİáī½áĬķ": 3079,
      "ĠáĮĢáĪĺáĪŃ": 3080,
      "ĠáĪ°áĭĵáī³áīµ": 3081,
      "ĠáĬ®áįįáĭ«": 3082,
      "áĬłáī¥áĭĽ": 3083,
      "áĬłáĪµáī°áĪĽáĪª": 3084,
      "áĬłáĭ°áĮĭáĭį": 3085,
      "áĪįáĮĨáī¹": 3086,
      "ĠáĮ»áįį": 3087,
      "áĪĿáįĴáĭįáī°áĪŃ": 3088,
      "ĠáĬ¥áĬĵáĭ°áĪŃáĮĭáĪĪáĬķ": 3089,
      "áĪĪáī²": 3090,
      "áĮĪáĪį": 3091,
      "áĪĽáĭį": 3092,
      "áĪĽáĮ¨áĪµ": 3093,
      "áĪ°áīĥ": 3094,
      "Ġáī°áĬĵáĮĪáĪŃ": 3095,
      "Ġáī°áĭĺáĮį": 3096,
      "ĠáĬłáĭŃáĭĪáĭµáĪĿ": 3097,
      "ĠáĪĪáįĬáīµ": 3098,
      "áĪħáĬķáĬĲáīµ": 3099,
      "áĪİáīµ": 3100,
      "áĬªáĭ«": 3101,
      "áĮİáĪ¨": 3102,
      "áĭµáĪŃáĮį": 3103,
      "ĠáĬĲáīłáĪ¨áī¥áĪħ": 3104,
      "Ġáĭ¨áĪĺáĮ¨áĪ¨áĪ»": 3105,
      "ĠáĮ£áĭķáĪĿ": 3106,
      "ĠáĬ¥áī£áĬŃáĪħ": 3107,
      "ĠáĬŃáĪ¨áĪĿáīµ": 3108,
      "Ġáĭ²": 3109,
      "ĠáĬłáīħáĪŃ": 3110,
      "áĪĺáĭĭáĪį": 3111,
      "Ġáĭ¨áīł": 3112,
      "ĠáīłáĪ½": 3113,
      "áĬĵáĪī": 3114,
      "ĠáĪĺáĭ°": 3115,
      "áī³áĪĪáĪħ": 3116,
      "áĮ¥áĬ©": 3117,
      "áĪ°áĭĭáĪį": 3118,
      "áīĢáĭĺ": 3119,
      "ĠáīµáĬĵáĮĪ": 3120,
      "ĠáĪĿáĮį": 3121,
      "ĠáīĢáĪļáĪµ": 3122,
      "áĭ²áĭ«": 3123,
      "ĠáĬ«áĪľáĪ«": 3124,
      "ĠáĪµáĪ«áĭ¬áĬķ": 3125,
      "áĪµáĪ«áĭįáĬķ": 3126,
      "ĠáĪĺáī¥áĪ«": 3127,
      "áĪĺáĬªáĬĵáĭį": 3128,
      "áįĪáĪįáĮīáīµáĬķ": 3129,
      "Ġáĭ¨áĪĺáĮ£áĪģáīµ": 3130,
      "áĮĪáĬķáĭĺáī¡áĬķ": 3131,
      "áĬ¥áĬĵáīµáĪħ": 3132,
      "áĪĪáĪĽáĬķáĪĿ": 3133,
      "áĪĪáĪ¨áĮħáĪĿ": 3134,
      "ĠáĬ¥áĪ°áĪ«": 3135,
      "ĠáĬ¥áĭŃáī³": 3136,
      "áĪĺáĮ¡": 3137,
      "áĬ¥áĭĽ": 3138,
      "áī°áĬŀáī½": 3139,
      "ĠáĭŃáĪµ": 3140,
      "áĭĿáī¥": 3141,
      "áĪİáī³": 3142,
      "ĠáĬ¥áĭ«áĪĪ": 3143,
      "ĠáĪĨáī´áĪį": 3144,
      "ĠáĬ¥áĬķáĭ³áĪĪáī¥áĪħ": 3145,
      "ĠáĬłáĪµáįĪáĪª": 3146,
      "ĠáĬ¥áĬķáĭ°áĪĿáīµáī½áĪį": 3147,
      "áĬłáī¥áĪ¨áĬķ": 3148,
      "áĭľáĮ£": 3149,
      "ĠáĬ¥áĬķáīħáĪµáīĥáĪ´": 3150,
      "áī½áĬĭáĪį": 3151,
      "ĠáĪľáĪª": 3152,
      "ĠáĪĪáĪĺáĪµáĪ«áīµ": 3153,
      "ĠáĪĤáĭµ": 3154,
      "Ġáįĵ": 3155,
      "áĬķáĪ°": 3156,
      "áīµáĬŃáĬŃáĪĪáĬĽ": 3157,
      "ĠáĬłáĪ¸áĬķ": 3158,
      "ĠáīłáĬ¥áĮįáĪŃ": 3159,
      "ĠáĭŃáĭ°áĪŃ": 3160,
      "áī¶áī¹áĬķ": 3161,
      "áĬłáĭİ": 3162,
      "áĮ¥áĪ¨": 3163,
      "áĮ£áī¢áĭ«áĭį": 3164,
      "ĠáĬłáĭŃáĪŃáĪ±": 3165,
      "ĠáĬ¨áĬłáĬķáĭµ": 3166,
      "áīģáĮ¥": 3167,
      "áīģáĪ¨áĮ¥": 3168,
      "áĪµáī°áĭĭáĪį": 3169,
      "áĭĵáĪĺ": 3170,
      "áĬĲáīłáĪ¨áĭį": 3171,
      "ĠáĪ³áĮ¥áĬķ": 3172,
      "Ġáĭ«áĪµáįĪáĪįáĮĭ": 3173,
      "ĠáĪĦáĭµáĬķ": 3174,
      "áĬ¥áĪµáĪŃ": 3175,
      "ĠáĪħáĪįáĪĿ": 3176,
      "Ġáī´áĬĴáĪµ": 3177,
      "ĠáĪ¬": 3178,
      "áĪŃáĬŃ": 3179,
      "ĠáĬ¥áĮłáĭŃ": 3180,
      "áī°áĭĭ": 3181,
      "ĠáīłáĬłáĬķáī°": 3182,
      "ĠáĭŃáĭ°áĭį": 3183,
      "áī¶áĪİ": 3184,
      "áĮ£áĪĪáī½": 3185,
      "ĠáĬłáĭŃáįĪ": 3186,
      "ĠáĬłáĪįáįİ": 3187,
      "ĠáĬ¨áī¤áīµ": 3188,
      "ĠáĭįáĮ£": 3189,
      "áĪĥáĬķ": 3190,
      "ĠáĬłáĪĭáĪµ": 3191,
      "Ġáĭ¨áĪļáįĪáĪįáĮīáīµ": 3192,
      "áĮīáĭŀ": 3193,
      "áĮĥáĪĪáĪģ": 3194,
      "áĬ©áīµáĪĿ": 3195,
      "Ġáĭ«áĪµáī£áĪį": 3196,
      "áĪĺáĪŃáĭ³áīµ": 3197,
      "áĪµáī³áĭĪáĪµ": 3198,
      "Ġáĭ¨áĪĨáĬĲáĭį": 3199,
      "Ġáĭ°áīĤáīĥáĭİáī½": 3200,
      "áįĮáĭ«áĪĪáĪģ": 3201,
      "ĠáĪĺáĪĨáĬĶáĬķ": 3202,
      "áĪ°áĮ¥áĪħ": 3203,
      "Ġáĭ¶áĬŃáī°áĪŃ": 3204,
      "ĠáĬłáĭĿáĬĽáĪĪáĪģ": 3205,
      "ĠáīłáĭĿáī¶áī¥áĬĽáĪį": 3206,
      "áĮłáĬķáīĢáīģ": 3207,
      "áĬ¥áĭ«áĬķáĭ³áĬķáĭ±": 3208,
      "ĠáĬ¥áĪĺáĪĪáĪ³áĪĪáĪģ": 3209,
      "áĮ©": 3210,
      "áĬķáĬ©": 3211,
      "áĭ«áĭŃ": 3212,
      "áĭ¨áįĪáĪĪ": 3213,
      "ĠáĭŃáĪĿáĮ¡": 3214,
      "áīĢáĬĵ": 3215,
      "ĠáĪµáĪħáī°": 3216,
      "ĠáĪ°áĬ¨áĬķáĭµ": 3217,
      "áĬ«áĪ½": 3218,
      "Ġáĭ¨áĪļáī½áĪį": 3219,
      "ĠáĬ¥áĭ¨áĮ¨": 3220,
      "áĭĪáĭ°áįĬáīµ": 3221,
      "áĮİáī´": 3222,
      "áī¦áĪį": 3223,
      "ĠáĬ¥áĭ«áĭ°áĪ¨": 3224,
      "Ġáī½áĮįáĪ®áī½": 3225,
      "áī²áīª": 3226,
      "ĠáīģáĪŃáĪµ": 3227,
      "áĬłáĪµáįĪ": 3228,
      "ĠáĪĺáī¥áīµ": 3229,
      "ĠáĬ¥áĪĺáĬŃ": 3230,
      "áĭ¨áĪĺáĮĢáĪĺáĪªáĭ«": 3231,
      "áĭĪáĭ°áĭįáĪĿ": 3232,
      "ĠáĪĽáĮ¥áįĭáīµ": 3233,
      "áĭ°áĪŃáĮĪáĭĭáĪĪáĪģ": 3234,
      "ĠáīłáĮīáĮīáīµ": 3235,
      "?\"": 3236,
      "áĭ¨áĪ©": 3237,
      "áĭ¨áĮĪáĬĵ": 3238,
      "áĬĲáĬĿ": 3239,
      "áĪĽáĭĪáīħ": 3240,
      "áī¶áĬĽáĪį": 3241,
      "áĮĭáĮł": 3242,
      "Ġáī°áīĢáĪĺáĮ¥": 3243,
      "áĭĭáĪ½": 3244,
      "áĬĶáī³áĭį": 3245,
      "ĠáīĢáĬĳáĬķ": 3246,
      "ĠáĬ¥áĬķáĭ³áĬķáī°": 3247,
      "áĭ¶áī¹": 3248,
      "ĠáĪĦáĭµáĬ©": 3249,
      "áįķáĪ¬": 3250,
      "áĬ¥áĪ·áĪĿ": 3251,
      "ĠáĭĪáĬķáīłáĪŃ": 3252,
      "ĠáĭµáĪĿáįħ": 3253,
      "ĠáĪĺáĭµáĪĥáĬĴáīµ": 3254,
      "áĮİáī¥áĬĺáīµ": 3255,
      "áĭŁáĪį": 3256,
      "ĠáįĢáĮīáĪŃ": 3257,
      "ĠáĬ¥áįĪáĪįáĮį": 3258,
      "ĠáĬ¥áĮįáĪŃ": 3259,
      "áĪĺáĪħ": 3260,
      "áĭ¨áĪ´áīµ": 3261,
      "áĬĲáĪ±": 3262,
      "áĪ«áĬķ": 3263,
      "áĬłáĪ³": 3264,
      "áĪ°áĬŀ": 3265,
      "áīĢáĪĪ": 3266,
      "Ġáĭ«áĮĪáĬĺ": 3267,
      "Ġáī°áĪĪ": 3268,
      "ĠáĪĭáĪĪáĪĺ": 3269,
      "áĭĺáĭĿ": 3270,
      "Ġáĭ¨áĪļáĪį": 3271,
      "áĭ¶áĬŃáī°": 3272,
      "áįĸáĪĿ": 3273,
      "ĠáīģáĮ¥": 3274,
      "ĠáĬłáĭįáĪµáīµáĪ«áĪĬáĭ«": 3275,
      "Ġáĭ«áĪĪáī¥áĭİáīµ": 3276,
      "áĪĢáī¥áī³áĪĿ": 3277,
      "áīłáĭĽáī¥áĪħ": 3278,
      "áĪ¨áįįáī°": 3279,
      "áĬ®áĪĮáĮħ": 3280,
      "ĠáĪĽáī¥áĪ°áĪį": 3281,
      "ĠáĭŃáī£áĪĭáĪį": 3282,
      "áĬ¥áĪ³áīµ": 3283,
      "ĠáīłáĬ©áĪį": 3284,
      "áĬĵáĪ½": 3285,
      "ĠáĬłáĪįáĪĨáĬĲ": 3286,
      "ĠáĬ¨áĬ¥áĪ±": 3287,
      "áī¸áĮĪáĪŃ": 3288,
      "ĠáĬłáĪµáīłáĭĭáĪį": 3289,
      "Ġáī³áĪĽ": 3290,
      "ĠáĪĪáĪĽáĭĪáīħ": 3291,
      "áĮĪáĬĵáĬĺáīµ": 3292,
      "áĭĵáĭŃ": 3293,
      "áī¦áī¹áĬķ": 3294,
      "ĠáĬ¥áĬķáĭ²áĪĨáĬķ": 3295,
      "Ġáī½áĪĭ": 3296,
      "áĬ¥áĪ·áĬķ": 3297,
      "ĠáĬłáī¥áĪ¨áĭį": 3298,
      "ĠáĪķáĭŃáĭĪáīµ": 3299,
      "áĪ¨áĭ±áĬĿ": 3300,
      "áį¢\"": 3301,
      "áĪĪáĭ³": 3302,
      "ĠáĬĲáĮįáĪ¬": 3303,
      "áīłáĭ°": 3304,
      "áĭŃáĭĽ": 3305,
      "áĬ¥áĪ«áĪµáĪħáĬķ": 3306,
      "ĠáĪĺáĮ»áįį": 3307,
      "áī³áĭ°": 3308,
      "áĬ¨áĭļáĭ«": 3309,
      "áīħáĭ±": 3310,
      "Ġáī¥áĪĪáĬķ": 3311,
      "ĠáīµáĬŃáĬŃáĪĪáĬĽ": 3312,
      "ĠáĭĪáĭ²áĭ«áĭį": 3313,
      "áĬ«áĪŃ": 3314,
      "áĬ«áĬŃ": 3315,
      "áĬ¥áĬĶáĬĵ": 3316,
      "ĠáĬ¥áĭ¨áįĪáĪĪáĮį": 3317,
      "ĠáĬłáīµáįį": 3318,
      "ĠáĬ¥áĪŃáĪĿáĮĥ": 3319,
      "áĪĽáĬķáīłáī¥": 3320,
      "ĠáĮİáĭ³": 3321,
      "áĮĦáĬķ": 3322,
      "áįĵáĪŃáī²áĭį": 3323,
      "ĠáĪ¸áĪļ": 3324,
      "Ġáī´áĪĮáīªáĭ¥": 3325,
      "ĠáĬłáĮĭáĮ¥áĪŀ": 3326,
      "ĠáĪ¥áĭķáĪį": 3327,
      "ĠáĬłáĪ°áĪįáīº": 3328,
      "ĠáīłáĪµáī°áīĢáĪŃ": 3329,
      "áįĲ": 3330,
      "ĠáĬ¥áĬĽ": 3331,
      "áĪĺáī½": 3332,
      "áĪĽáĪĪáĪģ": 3333,
      "áĪ«áī½áĬķ": 3334,
      "áĬłáĪĪáīĥ": 3335,
      "áĭĪáĮ¡": 3336,
      "Ġáī°áĮįáī£": 3337,
      "ĠáīµáĪ°áĪ«": 3338,
      "áĪªáĭį": 3339,
      "ĠáĮ¥áĬķ": 3340,
      "ĠáĪģáĪĭáī½áĬķáĪĿ": 3341,
      "Ġáĭ¨áĪļáĪĨáĬķ": 3342,
      "ĠáĪĪáĪĽáĪ³": 3343,
      "áī¥áĭĻáĪĿ": 3344,
      "áįĪáĪĪáĮĪ": 3345,
      "ĠáĮĵáĭ°áĬŀ": 3346,
      "ĠáĬłáĭµáĪŃáĮİ": 3347,
      "ĠáĬ¥áĬķáĭµáīµáĪĦáĭµ": 3348,
      "ĠáĪħáĭŃáĭĪáīµ": 3349,
      "áīłáĪ³áĮ¨": 3350,
      "áĬ¨áī³áī°": 3351,
      "áįĪáĮłáĪ¨áĭį": 3352,
      "ĠáĭŃáīłáĪįáĮ£áĪį": 3353,
      "áĪĿáĪ©": 3354,
      "áĪĿáĬĲáĭį": 3355,
      "ĠáĬłáīĢáĪ¨": 3356,
      "áĪµáī·áĪį": 3357,
      "Ġáĭ¨áīĢ": 3358,
      "áĭ«áĬĶ": 3359,
      "áĬĵáįį": 3360,
      "ĠáĪĺáĪĭ": 3361,
      "áĭ¨áĬĿáĪĿ": 3362,
      "ĠáĬ¥áĬķáĮĪáĬĵáĬĿ": 3363,
      "ĠáĪĽáĪ¨": 3364,
      "áĪ³áĪĪáī½": 3365,
      "Ġáī¥áīĥáīµ": 3366,
      "ĠáĬ¨áĬłáĪģáĬķ": 3367,
      "ĠáīµáĪĭáĪĪáĪħ": 3368,
      "áįĭáĪµ": 3369,
      "áĪ»áĭŃ": 3370,
      "ĠáĬ¥áĭ¨áĪĦáĭ°": 3371,
      "Ġáī³áĪµáī³áĭį": 3372,
      "Ġáī¤áī±áĬķ": 3373,
      "ĠáĮłáĮ£": 3374,
      "Ġáĭ¨áī°áĪŀáĪĭ": 3375,
      "áĭ°áĪ¨áĪ°": 3376,
      "ĠáĬ¥áĬķáĭ°áĪĽáĪį": 3377,
      "ĠáĬ¥áĬķáĭ°áĪĿáī³": 3378,
      "ĠáĪĺáĪįáĬ¥áĬŃáīµ": 3379,
      "áĮ¤áĬĵ": 3380,
      "Ġáī°áĮłáĭ«áīĤ": 3381,
      "ĠáīµáĭĪáĭ³áĪĪáī½": 3382,
      "ĠáĪĺáĪ³áĪªáĭ«": 3383,
      "áĭĪáĪĭáĮĨáī½áĪħ": 3384,
      "ĠáĮ¦áĪŃáĬĲáīµ": 3385,
      "::": 3386,
      "áīŃ": 3387,
      "áĪĪáĭĽ": 3388,
      "áĪĪáĮĪáĬĵ": 3389,
      "ĠáĬłáĬĲ": 3390,
      "ĠáĬ¥áĭĪáĪµ": 3391,
      "ĠáĬ¥áĪ°áĮ¥": 3392,
      "áĮįáĭļ": 3393,
      "áĮįáĬĺ": 3394,
      "Ġáĭ¨áĪ«": 3395,
      "Ġáĭ¨áĬ¥áĮįáĪŃ": 3396,
      "ĠáĪĺáĭ«áĭĿ": 3397,
      "áĮłáĪ©": 3398,
      "áĪ°áĮłáĬĿ": 3399,
      "áīĢáĭ£": 3400,
      "áĭĭáĪĪáĬķ": 3401,
      "áī»áī½áĬķ": 3402,
      "ĠáĪĭáĮĪáĬĿáĪħ": 3403,
      "áĬ¥áĬķáĮįáĭ³": 3404,
      "ĠáĮ¥áįĭáīµ": 3405,
      "áįĪáĪįáĮįáĪħ": 3406,
      "ĠáĬĵáī½áĪģ": 3407,
      "áĮĪáī£áĪħ": 3408,
      "Ġáī£áĪħáĪª": 3409,
      "áįĪáĪįáĮĪáĬĿ": 3410,
      "áĪ´áĬķ": 3411,
      "áīĢáĮ¥áĪį": 3412,
      "áīłáĪįáĮħ": 3413,
      "ĠáĮĪáī£áĪģ": 3414,
      "ĠáĬ¥áĪŃáĪµáĭİáĬķ": 3415,
      "áĭĪáĪĪáĭµ": 3416,
      "Ġáĭ«áĭ°áĪ¨áĮĪáĭį": 3417,
      "ĠáĪ¨áĪ³áĪģáīµ": 3418,
      "áĪ¸áĪ«áī°áīµ": 3419,
      "áīĢáĭĿáīĢáĭ£": 3420,
      "áĬķáĪħ": 3421,
      "Ġáī¸": 3422,
      "ĠáĬłáī£áīµ": 3423,
      "áīłáįĪáĪ¨áĬķáĪ³áĭŃáĬĽ": 3424,
      "áĭ°áĮĭ": 3425,
      "áĪ¨áī³": 3426,
      "áĭ«áīµ": 3427,
      "ĠáĬ¥áĬķáīģ": 3428,
      "áĪĽáĪµ": 3429,
      "ĠáĭŃáĮłáĭŃ": 3430,
      "áĬłáĭ²áĪ±": 3431,
      "áĭ³áĪŃ": 3432,
      "áī£áī¥": 3433,
      "Ġáī°áīĨ": 3434,
      "Ġáī¥áī³": 3435,
      "ĠáĬ¨áĭļáĭ«": 3436,
      "ĠáĬłáĪµáĪŃ": 3437,
      "áĪ®áĮĮ": 3438,
      "áĪİáī¹": 3439,
      "áĪĺáĪĪáĬ¨áī°": 3440,
      "ĠáĬłáĬķáĭ±áĬķ": 3441,
      "Ġáĭ¨áĪĽáĭ°áĪŃáĮĪáĭį": 3442,
      "ĠáĬłáĪīáĬķ": 3443,
      "ĠáĬłáĪįáī°áįĪáīĢ": 3444,
      "ĠáĬłáĭįáī¶áī¡áĪµ": 3445,
      "áĮ¦áī½": 3446,
      "áĪĿáĪŃáĮ«": 3447,
      "áĭŀáĪŃ": 3448,
      "áĮ¥áĪŃáĪµ": 3449,
      "ĠáĪĥáĪ³áī¥": 3450,
      "áĭĺáĮĭáĮĢáīµ": 3451,
      "áī¿áĬķ": 3452,
      "ĠáĪĿáĪįáĬŃáīµ": 3453,
      "áĬłáĭįáī¶áī¡áĪ±": 3454,
      "áĬķáī³": 3455,
      "áĪĪáĬłáĬķáī°": 3456,
      "ĠáĬłáīµáĬķ": 3457,
      "áĬĵáĭ³": 3458,
      "áĬĲáĮįáĪŃ": 3459,
      "Ġáĭ«áĪµáī°": 3460,
      "áīĥáĪĪáĬķ": 3461,
      "ĠáĬ¨áĬłáĬķáī°": 3462,
      "ĠáĮ¥áĬķáīĥáīĦ": 3463,
      "ĠáĮ¥áīģáĪŃ": 3464,
      "áīĨáĭ©": 3465,
      "áī¡áĭµ": 3466,
      "áĬ¥áĬķáĭ°áĪĿáīµ": 3467,
      "ĠáĭµáĪĺáīµ": 3468,
      "áĮĥáĮĪáĪ¨": 3469,
      "ĠáĪĢáĮĪáĪŃ": 3470,
      "Ġáī¢áĭ«áĬķáĪµ": 3471,
      "ĠáĬłáĭŃáĪĺáĪµáĪīáĪĿ": 3472,
      "áĬ¨áī°áĪį": 3473,
      "ĠáĭķáĭµáĪį": 3474,
      "áĭ¨áĪģáĪħ": 3475,
      "ĠáĪĺáī¼áĪĿ": 3476,
      "áįĪáĪ«áĪĿ": 3477,
      "áĪ®áįķáĪĭáĬĳ": 3478,
      "Ġáī°áĮ«áĭĭ": 3479,
      "áĪĪáī³": 3480,
      "áĪĪáĪ½": 3481,
      "ĠáĬ¥áĮ¥": 3482,
      "ĠáĬ¥áĭĪáĭµ": 3483,
      "Ġáĭ¨áĪ´áīµ": 3484,
      "ĠáĮ¡": 3485,
      "ĠáĮĬ": 3486,
      "Ġáīłáī³áī½": 3487,
      "áĪ«áī¢áĭ«": 3488,
      "áĪ°áĪ¨": 3489,
      "áĪ°áĮ¡": 3490,
      "áĪ³áĪµ": 3491,
      "Ġáī°áĭĭ": 3492,
      "Ġáī°áĮĪáĪ¨": 3493,
      "Ġáī°áīĢáĪĺáĮł": 3494,
      "ĠáĬłáĪįáīĨ": 3495,
      "ĠáĬ¥áĬķáĭ°áĭļáĭ«": 3496,
      "áĪĿáĬķáī³áīµ": 3497,
      "ĠáĬ¨áĪļ": 3498,
      "ĠáĪµáĭµáĪµáīµ": 3499,
      "áĪ®áī¹": 3500,
      "áī´áĬĴáĪµ": 3501,
      "ĠáĪĪáĪĽáĮ¥": 3502,
      "áĮŃáĬķ": 3503,
      "Ġáī£áĭŃ": 3504,
      "ĠáĪĽáĬķáĬķáĪĿ": 3505,
      "ĠáĪµáĪ«áĭįáĬķ": 3506,
      "ĠáĮĢáĪĿ": 3507,
      "áĪŀáĬŃáĪ«áĪĪáĪģ": 3508,
      "ĠáĪ«áĪ±áĬķ": 3509,
      "ĠáĬłáĪµáĭ°áĬĵáīĤ": 3510,
      "áĭĪáĪĭáĮĨ": 3511,
      "ĠáĮłáĭ¨áīĢáī½áĭį": 3512,
      "ĠáĪĺáĬŃáįĪáīµ": 3513,
      "ĠáĬ¥áĭįáĬĲáī±áĬķ": 3514,
      "ĠáĬ¥áĪ°áĪ«áĪĪáĪģ": 3515,
      "ĠáįĸáĪĬáĪµ": 3516,
      "ĠáĬłáĭ°áĪŃáĮĪáĭĭáĪĪáĪģ": 3517,
      "áĪµáĪį": 3518,
      "ĠáĬ¥áĪ°áĪĽ": 3519,
      "ĠáĬ¥áĪ·": 3520,
      "ĠáĬ¥áĪŀáĬŃáĪ«áĪĪáĪģ": 3521,
      "áĭµáĪ¨áĪµ": 3522,
      "áĭ«áĬķáī°": 3523,
      "ĠáĪĺáĮĢáĪĺáĪŃ": 3524,
      "ĠáĪĺáĮ¨áĪ¨áĪµ": 3525,
      "áįĪáī±": 3526,
      "áīħáĪį": 3527,
      "Ġáĭ«áĬĲáĪ°": 3528,
      "Ġáĭ«áĭįáīģ": 3529,
      "ĠáĬ¥áĬķáĭ°áĪĨáĬĳ": 3530,
      "ĠáĪĿáĪĭáĪ½": 3531,
      "áĭĿáī¦áĪį": 3532,
      "ĠáĬ¥áĭ¨áĪŀ": 3533,
      "ĠáĭĪáĭ°áīĢ": 3534,
      "áīģáĬĿ": 3535,
      "áįĬáī±": 3536,
      "ĠáĭŃáĪĺáĪµáĪįáĪĥáĪį": 3537,
      "áī¢áĪ«": 3538,
      "ĠáīĨáĪ»áĪ»": 3539,
      "áĬ³áī¸áĭį": 3540,
      "ĠáĬķáĮĪ": 3541,
      "ĠáīłáĪĺáĮ¨áĪ¨áĪ»": 3542,
      "ĠáĬ¥áĪµáĬª": 3543,
      "ĠáĬ¥áĪµáĪĽáĪĽ": 3544,
      "áĭ°áĪŃáĮĪáĭįáĪĿ": 3545,
      "ĠáĪĺáīĢáĭ¨áĪŃ": 3546,
      "áĭ°áĭĭáĪį": 3547,
      "áĭŃáĬĵ": 3548,
      "áĪĺáĪĿáĮ£áīµ": 3549,
      "ĠáīłáĪļáīĢáĮ¥áĪĪáĭį": 3550,
      "ĠáīłáĪħáĭŃáĭĪáīµ": 3551,
      "ĠáĪĺáĬ¨áĪĭ": 3552,
      "áįĪáĪ°": 3553,
      "ĠáĭŃáĪģáĬķ": 3554,
      "áĪ°áĪĥáĪį": 3555,
      "áīĥáĪĪáĪħ": 3556,
      "áĪªáĭİáī½": 3557,
      "Ġáĭ°áĭĪ": 3558,
      "áĮ«áĬ«": 3559,
      "áįĸáĪµáī³": 3560,
      "ĠáĭĿáĪŃáĭĿáĪŃ": 3561,
      "áĬ³áīµ": 3562,
      "ĠáĬłáĭįáīĢáĭĭáĪĪáĪģ": 3563,
      "ĠáĮīáĭ³áĭ©": 3564,
      "áĭĪáĮ£áĪį": 3565,
      "ĠáĭŃáĪ°áĪĽáĭİáī³áĪį": 3566,
      "ĠáĬĸáīµ": 3567,
      "áĪ¹áĬķ": 3568,
      "ĠáīłáĪŃáĪ³áī½áĬķ": 3569,
      "áĭĪáĭ²áĭ«áĭįáĬĳ": 3570,
      "ĠáĮĪáīłáĭ«": 3571,
      "áīµáĪħáĬķ": 3572,
      "áĪĪáĮ¥": 3573,
      "áĪµáī²": 3574,
      "áīłáī½": 3575,
      "áĭ°áĬŃáĪŀ": 3576,
      "ĠáĭŃáĪĤáĭ±": 3577,
      "áĪ«áĭŃ": 3578,
      "áĭ³áĪĪáī½": 3579,
      "ĠáĪĽáī¥áĪ«": 3580,
      "áĪ³áĪī": 3581,
      "ĠáĬłáĭŃáī»": 3582,
      "áĪĥáĭĬ": 3583,
      "ĠáĮĪáĬķ": 3584,
      "áĪĮáĪĬáī±áĬķ": 3585,
      "ĠáĭŃáĪĺáĪµáĪįáĭİáī³áĪį": 3586,
      "áĭ¶áĬŃáī°áĪŃ": 3587,
      "ĠáĬłáĪįáĬĲáīłáĪ¨áĭįáĪĿ": 3588,
      "ĠáĬķáĮ¹áĪħ": 3589,
      "áĪ´áī¶áī½": 3590,
      "áĭ¨áī°áĪ»áĪĪ": 3591,
      "ĠáīłáĪĺáĬªáĬĵ": 3592,
      "ĠáīłáĪĽáĭ¨áī´": 3593,
      "ĠáĭķáĪ¨áįįáīµ": 3594,
      "ĠáĭĪáĪ°áĬĲ": 3595,
      "ĠáĬłáĪŃáĮħ": 3596,
      "áĮĵáĭ°áĬĽáĭ¬": 3597,
      "áĪĪáĭ«áĭ©": 3598,
      "áĬłáī³áĪµáī¥": 3599,
      "ĠáĬĥáĪĭáįĬ": 3600,
      "áĬķáĪ°áĪŃáī±": 3601,
      "ĠáĬ¥áĪµáĪĽáĪĽáĪĪáĪģ": 3602,
      "ĠáĬĳ": 3603,
      "ĠáĬłáĪĺáĪĪ": 3604,
      "áĪĭáĭĭ": 3605,
      "Ġáĭ¨áĪĮ": 3606,
      "áĭ«áĪĪáĪħ": 3607,
      "ĠáīłáįĪáĪ¨áĬķáĪ³áĭŃáĬĽ": 3608,
      "áĬĲáī±áĬķ": 3609,
      "áĬłáĭĿ": 3610,
      "áĭĪáĮł": 3611,
      "ĠáĬłáĪįáĭĪáĭ°áĭįáĪĿ": 3612,
      "áĭ²áĪ±áĬķ": 3613,
      "áĬ¥áĪŃáĪ±": 3614,
      "ĠáĮłáīłáīĥ": 3615,
      "áĬ¥áĬķáĭ°áĪĿ": 3616,
      "áĪ¨áĬķáĮĵ": 3617,
      "áĪĺáĮ£áĪħ": 3618,
      "áĬ¥áĪŃáĪµáĭİáĬķ": 3619,
      "ĠáĬ«áĪĪ": 3620,
      "áĭ¨áĪĿáī³": 3621,
      "ĠáĬłáĭįáīĦ": 3622,
      "áĮ¦áĪŃ": 3623,
      "ĠáĪ«áĪµ": 3624,
      "áĪĺáĬªáĬĵáĭįáĬķ": 3625,
      "áī¤áī°áĪ°áī¥": 3626,
      "áĪ¸áĬķáįį": 3627,
      "áĮłáīłáīģ": 3628,
      "ĠáīłáĮ¥áĬķáīĥáīĦ": 3629,
      "ĠáĭĪáĪ¨áīĢáīµ": 3630,
      "áĬłáĪµáīĢáĭµáĪľ": 3631,
      "áĪ¨áĬķáĮĵáĭ´": 3632,
      "áįĶ": 3633,
      "ĠáĪ¾": 3634,
      "áĭįáĪ¸áīµ": 3635,
      "ĠáĬłáĬĲáĪ³": 3636,
      "áĬ¥áĭ¨áīĢ": 3637,
      "áī¥áĬĽáĪį": 3638,
      "ĠáĪĺáįĥ": 3639,
      "ĠáĪĺáĮĢáĪĺáĪªáĭ«": 3640,
      "ĠáĭŃáĪĭáĪį": 3641,
      "áĮ¥áĬĳ": 3642,
      "áĬ¨áįĪ": 3643,
      "áĬ¨áĬ¥áĪ±": 3644,
      "Ġáĭ«áĭįáīħ": 3645,
      "Ġáī°áĪĿ": 3646,
      "Ġáī°áī¥": 3647,
      "áĮĪáĪŃáĪĺ": 3648,
      "ĠáĭĪáĭ³": 3649,
      "ĠáĪµáĪį": 3650,
      "ĠáĪįáī¦": 3651,
      "áĪ®áĭį": 3652,
      "ĠáĮłáĪ«": 3653,
      "ĠáĬłáĪīáĭİáīµ": 3654,
      "ĠáįįáĪ¬": 3655,
      "ĠáīģáĪį": 3656,
      "Ġáĭ¨áĪĪáĪ½": 3657,
      "áĮ®áī½": 3658,
      "ĠáĬ¥áĭ¨áĪ°áĪ«áĪħ": 3659,
      "áĬ¥áĬĲáĭļáĭ«áĬķ": 3660,
      "Ġáī°áĬĿáī·áĪį": 3661,
      "ĠáĭŃáĪłáĪ«áĪį": 3662,
      "ĠáĬ¦": 3663,
      "áĪµáīĢáĪĿ": 3664,
      "áīłáĮį": 3665,
      "áīłáĪ«": 3666,
      "áĪĺáī¥áĪ«": 3667,
      "áĮĪáĬĽáĪį": 3668,
      "áĭµáĬŃ": 3669,
      "áī¥áīħ": 3670,
      "ĠáīłáīģáĪĿ": 3671,
      "áĬĵáĬķ": 3672,
      "áĬĲáĪŃ": 3673,
      "áĪ«áī½áĬĭáĪĪáĪģ": 3674,
      "áĭ³áĪĺáĮ¥": 3675,
      "áĮĭáĪ½": 3676,
      "ĠáĪµáī³": 3677,
      "ĠáĪ°áĪ¨": 3678,
      "áī»áī¸áĭį": 3679,
      "áĬ«áĪĽ": 3680,
      "áĭĺáĭĺ": 3681,
      "ĠáīĢáĪįáĭµ": 3682,
      "Ġáĭ¨áī°áĪĪáĪĺáĭ°": 3683,
      "áĮ«áĪĪáĪģ": 3684,
      "ĠáĬĵáįį": 3685,
      "áįİáī¶": 3686,
      "ĠáĭĵáĪ¨áįįáī°": 3687,
      "ĠáĪĺáĮłáĮ¥": 3688,
      "ĠáĭĿáīħ": 3689,
      "ĠáĬŃáįįáĭ«": 3690,
      "ĠáĭŃáĪħáĬķáĬĳ": 3691,
      "ĠáĬłáĭįáĮ¥": 3692,
      "áī¥áĪµáĬŃáĪĮ": 3693,
      "ĠáĮ«áįį": 3694,
      "ĠáĪ±áīħ": 3695,
      "ĠáĮĥáįĵáĬķ": 3696,
      "áĪĺáĪµáĬ®áī±áĬķ": 3697,
      "áĪ»áĬķáĮ£": 3698,
      "áĪģáĪĪáī³áī½áĪģáĪĿ": 3699,
      "áĪŃáĪµáī²áĭ«áĬķ": 3700,
      "19": 3701,
      "áĪĬáĭ": 3702,
      "áĪĿáī¥": 3703,
      "áĭįáĭµ": 3704,
      "ĠáĬłáīħáĪĿ": 3705,
      "áĭ°áĭ°áī¥": 3706,
      "áĪĺáĭĭáĬĺáīµ": 3707,
      "áĪģáĪį": 3708,
      "ĠáĮĨ": 3709,
      "ĠáĪĺáĬ«": 3710,
      "ĠáĪĺáīĢáĪĺáĮ«": 3711,
      "áĭ¨áī³": 3712,
      "áĭĪáĭŃáĬķ": 3713,
      "Ġáĭ«áĭ°áĪŃáĮĪ": 3714,
      "Ġáī°áĮĪáĬĿ": 3715,
      "áīĥáĭµ": 3716,
      "ĠáīµáīłáĪį": 3717,
      "ĠáĪĿáīµ": 3718,
      "ĠáĪµáĬķ": 3719,
      "ĠáĪĭáĬĵáĮįáĪŃáĪħ": 3720,
      "áĪªáįį": 3721,
      "áĬ«áīµ": 3722,
      "ĠáĬ¥áĭ¨áĭĪáĪ°": 3723,
      "áĬĸáī½áĬķ": 3724,
      "ĠáĮłáĪŃ": 3725,
      "ĠáĭµáĪĺ": 3726,
      "ĠáĪĺáĬķáīĢáĮ¥": 3727,
      "Ġáĭ¨áĪĽáĪŃáĭ«áĪĿáĬķ": 3728,
      "ĠáĪĽáĬķáĪ³áīµ": 3729,
      "Ġáĭ¨áĪļáĭ«áĪĿáĪŃ": 3730,
      "áĭ¨áĪļáĭ«áĪµ": 3731,
      "Ġáī°áĮłáĪĿ": 3732,
      "ĠáĭŃáīĨáĭ©": 3733,
      "áĮĪáĬĵáĬĺáĬķ": 3734,
      "áĬĵáĮįáĪ¨áĬĿ": 3735,
      "áĪĿáĬŃáĬķáĭ«": 3736,
      "ĠáĭŃáĮłáī¥áīģ": 3737,
      "áĬ¥áĬķáīħáĪįáįį": 3738,
      "Ġáī°áĭįáĬ©áīµ": 3739,
      "ĠáĬłáĪįáĬĲáīłáĪŃáĬ©áĪĿ": 3740,
      "ĠáĬ¥áĭĪáĪµáĭ³áĪĪáĪģ": 3741,
      "ĠáĬ¥áī¥áĭµ": 3742,
      "áī¥áĪ¨": 3743,
      "áī¥áĪ¨áīµ": 3744,
      "Ġáĭ¨áĬĲáīłáĪ¨áĭį": 3745,
      "áĭ¨áĪģáīµ": 3746,
      "áįĪáĮłáĪŃ": 3747,
      "ĠáĭŃáīħáĪŃ": 3748,
      "Ġáī°áĪ°áĮ¥": 3749,
      "áĪĨáĬĶ": 3750,
      "ĠáĬłáĪĪáĭİáīµ": 3751,
      "áĭĺáĭį": 3752,
      "ĠáĮĪáĬķáĭĺ": 3753,
      "áĪĻáĪµ": 3754,
      "áī¦áī³áĭį": 3755,
      "ĠáĬ¥áĬķáĭ²áĪĦáĭµ": 3756,
      "ĠáĪ³áĪĿáĬķáī³áīµ": 3757,
      "ĠáĬĲáīłáĪ¨áī¥áĬķ": 3758,
      "áĮ¸áĮ¸": 3759,
      "áĮįáĭ³áĭį": 3760,
      "ĠáĭĪáĬķáĭĿ": 3761,
      "Ġáĭ¨áĪĪáīłáīµáĪĿ": 3762,
      "áĬķáĮįáĭµ": 3763,
      "áĪĽáĬķáĬĽáĭįáĬķáĪĿ": 3764,
      "áĪĭáī¸áĭįáĪĿ": 3765,
      "ĠáĭŃáĬĸáĪ«áĪī": 3766,
      "ĠáĬ¢áĬķ": 3767,
      "ĠáĪįáĭ©áĬĲáīµ": 3768,
      "ĠáĬ¥áĬķáĭ°áĪĿáĬķáī½áĪį": 3769,
      "áĪĳáįį": 3770,
      "ĠáĮ®áĬ¸": 3771,
      "áĪĪáĬł": 3772,
      "ĠáĬłáĪ³áĭŃ": 3773,
      "áĪµáī±": 3774,
      "ĠáĬ¥áĬ©áĪį": 3775,
      "áĭ°áĮĪ": 3776,
      "áĪĺáĭ±": 3777,
      "Ġáĭ¨áīħáĪŃáī¥": 3778,
      "ĠáīłáĪĿ": 3779,
      "ĠáĪĺáīłáĭ°áĪŃ": 3780,
      "áĪĽáĪĪáĪħ": 3781,
      "ĠáĭŃáĮĢáĪĿ": 3782,
      "áĮłáīłáīĥ": 3783,
      "ĠáĬłáĪįáįıáĪį": 3784,
      "áĬ«áī³": 3785,
      "áī¸áĭĭáĪĪáĪģ": 3786,
      "ĠáīĢáĪĪ": 3787,
      "ĠáĬ¥áĭ¨áīłáĪĭ": 3788,
      "áĮ½áĪŃ": 3789,
      "ĠáĮįáī£": 3790,
      "áĮĢáĪŃáī£": 3791,
      "ĠáĬłáīµáĬŃáĪį": 3792,
      "áĬ®áĪĪáĬĽ": 3793,
      "áĪªáĭ«áĭįáĬķ": 3794,
      "áīĭáĪŃ": 3795,
      "ĠáĭĺáįĪ": 3796,
      "Ġáĭ¨áĪļáĭ«áĭįáīħ": 3797,
      "ĠáĮ¨áĬ«áĬĿ": 3798,
      "áĭ®áī½": 3799,
      "ĠáĬłáĪĿáĮ¡": 3800,
      "áĬŃáįįáĪĮ": 3801,
      "ĠáĪĽáĮ¥áĬĵáīµ": 3802,
      "Ġáī°áĪ«áĪ«": 3803,
      "ĠáĬ©áī£áĬķáĭ«": 3804,
      "áĬłáīµáĬŃáĪįáī±": 3805,
      "ĠáĪĺáĮ½áĪĥ": 3806,
      "ĠáĬłáĪįáĬĲáĮĪáĪŃáĬ¨": 3807,
      "ĠáīłáĭĵáĪį": 3808,
      "ĠáĬ¥áĮĪáī£áĪĪáĪģ": 3809,
      "ĠáĮ¤áĬĵ": 3810,
      "ĠáĬłáĭŃáī³áĭ¨áĬĿáĪĿ": 3811,
      "ĠáĭŃáĭ°áĭįáĪī": 3812,
      "áĮĪáī°áĬĽ": 3813,
      "áī°áĬ©": 3814,
      "áĬĵáĭįáĬķ": 3815,
      "áįĪáĮĪáĮį": 3816,
      "áĭ³áĬĿ": 3817,
      "áĭ³áĮįáĪĺáĬĽ": 3818,
      "ĠáĪĽáĪ½áĬķ": 3819,
      "Ġáĭ«áĪĿ": 3820,
      "áīĥáĮł": 3821,
      "áīĥáĪī": 3822,
      "áĮĪáĪŃáĪĿ": 3823,
      "áī¸áĬ³": 3824,
      "ĠáĪĪáĪĺáĪĽáĪŃ": 3825,
      "Ġáĭ¨áī°áĭ°": 3826,
      "ĠáĮįáĪĿáīµ": 3827,
      "ĠáįĪáĮ£áĬķ": 3828,
      "áĮĪáī£áīµ": 3829,
      "ĠáĬ¥áĬķáĭµáĪĦáĭµ": 3830,
      "áĪĺáĪĪáĬ¨áī±": 3831,
      "áīĭáĪ¨áĮ¥": 3832,
      "Ġáī½áĪİáī³": 3833,
      "ĠáĬŃáįįáĪī": 3834,
      "ĠáĪĻáĭļ": 3835,
      "áįįáīµáĪĦ": 3836,
      "ĠáĪħáĭŃáĭĪ": 3837,
      "ĠáĬ¥áĬĶáĬķ": 3838,
      "ĠáĬłáĬķáī°áĬķ": 3839,
      "áĬ¨áįįáī°áĬĽ": 3840,
      "áĭĪáĬķáĭ¶áī½": 3841,
      "ĠáĪ°áĪĽáĭ«áĭĬ": 3842,
      "Ġáĭ°áĪŃáĪ·áĪį": 3843,
      "ĠáĪĿáĪµáĪį": 3844,
      "ĠáĪĽáĪµáī°áĬ«áĬ¨áĪį": 3845,
      "ĠáĪ®áĮł": 3846,
      "áĭ°áīłáĬĽ": 3847,
      "Ġáī²áīª": 3848,
      "ĠáīĢáĭµáĪŀáĭįáĬĳ": 3849,
      "ĠáĬ¥áĮłáĭŃáīĥáĪĪáĪģ": 3850,
      "ĠáĬłáĪįáĪĨáĬĲáĪĿ": 3851,
      "áī¸áĬ³áĭŃ": 3852,
      "áĪĿáĮ£": 3853,
      "áĪµáĪŃ": 3854,
      "áīłáī¦áĪµáī°áĬķ": 3855,
      "Ġáĭ¨áĪīáĪĿ": 3856,
      "ĠáīłáĪĨáĬĲ": 3857,
      "Ġáīłáĭļáĭ«": 3858,
      "ĠáĬłáĪįáĪĦáĭµáĪĿ": 3859,
      "ĠáĪµáĬ³áĪŃ": 3860,
      "áįĭáĬĿ": 3861,
      "áĪ»áĭį": 3862,
      "ĠáĬ¥áĬķáĭ³áĪī": 3863,
      "áĬ®áī½": 3864,
      "áĭĵáīµ": 3865,
      "ĠáĬ¥áĪŃáĪµ": 3866,
      "ĠáĪĺáĬķáĪ¸áĪ«áī°áīµ": 3867,
      "ĠáĮīáĬķ": 3868,
      "ĠáĬłáĪ³áĪĪáįį": 3869,
      "Ġáĭ¨áĪĺáĮ¨áĪ¨áĪ»áĭį": 3870,
      "áĪĤáĪ³áī¥": 3871,
      "áĮĪáĬĽáĪī": 3872,
      "áĬ¥áĭįáĬĲáī°áĬĽ": 3873,
      "Ġáĭ¨áĪĽáĭŃáī³": 3874,
      "áīłáĭĽáīłáīµ": 3875,
      "áĬŃáĪĿáĬĵ": 3876,
      "áĪ³áī°áįį": 3877,
      "Ġáī°áĭĪáĭį": 3878,
      "áįįáĬķáĮ«": 3879,
      "ĠáĬłáĬķáī¥áī¤": 3880,
      "ĠáĮįáī¥áĭ£": 3881,
      "ĠáĬłáĪĭáĮĪáĬĺáĪģáĪĿ": 3882,
      "ĠáĬłáĪįáī°áįĪáīĢáĭ°áĪį": 3883,
      "áĭ°áĪµáī³": 3884,
      "áįĪáĬĵáĪį": 3885,
      "ĠáĭŃáĪĺ": 3886,
      "ĠáĭŃáĪĨáĬķ": 3887,
      "ĠáĭŃáĭĪáĭµ": 3888,
      "ĠáĭŃáĪĭáĪī": 3889,
      "áĪĪáĪģáĪīáĪĿ": 3890,
      "áĬłáĪŃ": 3891,
      "áĮłáĬĲ": 3892,
      "áĮłáīħ": 3893,
      "áĮ£áĪĪáĪħ": 3894,
      "áīĢáĪ³áīĢáĪµ": 3895,
      "Ġáī¥áĬķ": 3896,
      "áĬ©áĪĪ": 3897,
      "ĠáĬ¨áĪĮ": 3898,
      "ĠáĬ¨áīµáĪĿáĪħáĪŃáīµ": 3899,
      "ĠáīµáĪįáīģ": 3900,
      "áĬ¥áĬķáīģ": 3901,
      "áĪ®áįĵ": 3902,
      "áĮ¨áĪŃ": 3903,
      "áīģáĪĻ": 3904,
      "ĠáĬ¥áĬĵáĭµáĪŃáĮį": 3905,
      "áĪĦáĭµáīłáīµ": 3906,
      "ĠáĪĪáĪĺáĭµáĪ¨áĪµ": 3907,
      "ĠáĬłáīµáĪģáĬķ": 3908,
      "áĬ®áĪŃ": 3909,
      "áī¦áĬĽáĪį": 3910,
      "ĠáĪĺáĬķáĮĪáĪŃ": 3911,
      "Ġáĭ«áĪµáī³áĭį": 3912,
      "ĠáĬ¥áĭ«áĭ°áĪ¨áĮį": 3913,
      "ĠáĬłáĪįáī»áĪĪáī½áĪĿ": 3914,
      "áĭ¨áĪļáĭ«": 3915,
      "áĭ¨áĪĿáĬĸáĪ¨áĭį": 3916,
      "áĭ´áī³": 3917,
      "áĪµáī¥áĪĿ": 3918,
      "áįĵáĪŃáī³áĪĽ": 3919,
      "áīºáĬķ": 3920,
      "áī³áī½áĬķáĬķ": 3921,
      "ĠáĪ³áĭŃáīĨáĭŃ": 3922,
      "Ġáĭ«áĪµáįĪáĪįáĮĪáĬĽáĪį": 3923,
      "áĪĺáĬķáĮĪáĭ±áĬķ": 3924,
      "ĠáĬ¥áĭįáĬĲáī°áĬĽ": 3925,
      "áĬ®áĪĮáīµ": 3926,
      "ĠáīłáĪŃáĪ³áī¸áĭį": 3927,
      "ĠáĪĺáĭ°áī¥áĪŃ": 3928,
      "ĠáĬĲáįĭáĪ±": 3929,
      "Ġáī°áĪ°áĪĽáĭį": 3930,
      "Ġáī°áĮ«áĭĭáī½": 3931,
      "áīµáĬ©": 3932,
      "áĪµáīł": 3933,
      "áīłáĬ¥áĬĲáĭļáĪħ": 3934,
      "áĭ°áĪ©": 3935,
      "áĪĺáĬĳ": 3936,
      "áĪĭáĭ°áĪŃáĮį": 3937,
      "ĠáīłáĬ¥áĪŃáĮįáĮłáĬĿáĬĲáīµ": 3938,
      "ĠáĭŃáĪ°": 3939,
      "ĠáĭŃáīĢáĮ¥": 3940,
      "áī³áĪĪáĬķ": 3941,
      "áīĢáĮ£": 3942,
      "ĠáĬłáĪĪáīĥ": 3943,
      "áĭĭáĪĪáī½": 3944,
      "áĪĥáīµ": 3945,
      "ĠáĮ¥áĮĪáĬĵ": 3946,
      "Ġáī£áĪĪáĭį": 3947,
      "áĭ©áĬĿ": 3948,
      "ĠáĬķáĮįáĭµ": 3949,
      "ĠáĪĺáĪįáīĢáīħ": 3950,
      "ĠáĪĺáĪįáīłáĪµ": 3951,
      "áĬłáĪµáĪŃ": 3952,
      "áĭ¨áĪĨáĬĲáĭįáĬķ": 3953,
      "áĬ¨áįįáĪĭáĪį": 3954,
      "ĠáĬłáĮįáĬĿáī·áĪį": 3955,
      "áī§áĬķ": 3956,
      "ĠáĬłáĭ°áĪ¨áĮįáĬŃ": 3957,
      "ĠáĭĺáĮįáĭŃáī·áĪį": 3958,
      "ĠáĬłáĪįáįĪáĪĪáĮĪáĪĿ": 3959,
      "Ġáī°áīĥáĪŃ": 3960,
      "áĪ«áĭĬáīµ": 3961,
      "ĠáĬłáĪĽáĪ«áĮŃ": 3962,
      "áīģáĮ¥áĮ¥áĪŃ": 3963,
      "áĪĪáįĬáĭ«": 3964,
      "áīłáĮŃáĪ«áĪ½": 3965,
      "áĭ°áĬĿ": 3966,
      "áĭ°áĪĥáĪį": 3967,
      "áĬĵáĭ°áĪŃáĮį": 3968,
      "ĠáĪĺáĮĭ": 3969,
      "ĠáĭŃáįĪ": 3970,
      "áĭĪáĪ©": 3971,
      "áĪ°áĪĭáĪĿ": 3972,
      "áĭ³áĪĪáĪħ": 3973,
      "áĮĭáĪļ": 3974,
      "ĠáĬłáĪįáī³": 3975,
      "ĠáĬłáĪįáĪĺáĮ£áĪĿ": 3976,
      "ĠáĪ°áĪĭáĪĿ": 3977,
      "áī»áī½áĪģ": 3978,
      "áĭĽáįī": 3979,
      "ĠáĬłáĪµáīĢáĭµáĪŀ": 3980,
      "Ġáĭ°áĭį": 3981,
      "ĠáĬ¥áĭ¨áĭĺ": 3982,
      "áĪĮáĬŃáīµ": 3983,
      "áĮ«áī³": 3984,
      "áĬ®áĪ«": 3985,
      "áĭĵáĪ£": 3986,
      "Ġáī£áĪħáĪŃ": 3987,
      "áįİáī½áĬķ": 3988,
      "áīĦáĭ«áĪĪáĪģ": 3989,
      "áĪ°áī¥áĬ©áīµ": 3990,
      "áĪĪáĪĺáĪĦáĭµ": 3991,
      "áīłáĪĭáĪĪáĪģ": 3992,
      "ĠáīłáĪĽáĪĪáĭ³": 3993,
      "áĬłáĪįáī°": 3994,
      "áĮ¨áĬĲáīĢ": 3995,
      "ĠáĭĪáĮ£áĪģ": 3996,
      "ĠáĪŃáĬ«áĪ½": 3997,
      "ĠáīĢáĮłáĪ®": 3998,
      "ĠáĭŃáĬķáĬ¨áī£áĬ¨": 3999,
      "ĠáīłáĭĿáī¶áī¥áĪĥáĪį": 4000,
      "ĠáĭįáĮ¤áīµ": 4001,
      "ĠáĬłáĪįáĬĲáīłáĪ¨áī¥áĬĿáĪĿ": 4002,
      "ĠáĭĪáĭ²áĭ«áĭįáĬĳ": 4003,
      "áįĲáĪŃ": 4004,
      "áĪįáīł": 4005,
      "áĪµáĪįáĬ©": 4006,
      "ĠáīłáĪ©": 4007,
      "ĠáĭŃáĬ¸áĭį": 4008,
      "áĬ¨áĪ©": 4009,
      "áĪ³áĪĿáĬķ": 4010,
      "Ġáī¥áĪıáĪį": 4011,
      "áī»áī¸áĭįáĬķ": 4012,
      "Ġáĭ°áĬĲáĮĪ": 4013,
      "áĬĸáĪ©áīµ": 4014,
      "áĬªáĪµ": 4015,
      "áĪĻáĭ«": 4016,
      "ĠáĬłáĪīáĪħ": 4017,
      "Ġáĭ¨áĪĪáī¥áĬĿáĪĿ": 4018,
      "ĠáīłáĪįáī°áĪĥáĪį": 4019,
      "ĠáĪįáī³áĪ³": 4020,
      "Ġáĭ°áĪŃáĪ¶": 4021,
      "ĠáĪĲáĬªáĪĿ": 4022,
      "ĠáĬłáĭµáĪŃáĮĪáĪĥáĪį": 4023,
      "ĠáĬ¥áĬķáĭ°áĪĽáīµáįĪáĪįáĮį": 4024,
      "ĠáĬłáī³áĭµáĪŃáĮĪáĬĿ": 4025,
      "áĮłáĬķáīĢáīĤáĭ«": 4026,
      "Ġáī°áĮ«áĭį": 4027,
      "Ġáī°áĮĪáī¢": 4028,
      "ĠáĬ¥áĬķáĪµáĪ³áīµ": 4029,
      "áĮīáĬķáįĭáĬķ": 4030,
      "Ġáī³áĪĽáĬĿ": 4031,
      "ĠáĪ¸áĪļáĭĿ": 4032,
      "áĬĵáĭ³áĭĬ": 4033,
      "áĭįáīĢáĬĿ": 4034,
      "áĪµáĪĽ": 4035,
      "ĠáĬĲáĮ¥áī¥": 4036,
      "áīłáĮĥáįĵáĬķ": 4037,
      "áĭµáĮį": 4038,
      "Ġáĭ¨áĮİ": 4039,
      "ĠáĪĺáīĢáĪĺáĮ¥": 4040,
      "áįĪáīĢáĬĿ": 4041,
      "ĠáĭŃáĬĸáĪŃ": 4042,
      "ĠáĭŃáĪįáĪĥáĪį": 4043,
      "áĮ£áĮłáĪŃ": 4044,
      "áī£áĪª": 4045,
      "áī£áĬ¨áĬķ": 4046,
      "áĬ¨áĪĽáĬķ": 4047,
      "Ġáī°áįĪ": 4048,
      "áīĥáĪĭáĭŃ": 4049,
      "ĠáĪįáĪĽ": 4050,
      "áĪ»áĪį": 4051,
      "áĮ¨áĪĪáĪĽ": 4052,
      "áīĨáĪĻ": 4053,
      "áĬĸáĪļ": 4054,
      "ĠáĪĪáĪĺáĪ¨áĭ³áīµ": 4055,
      "áĪĻáīĢáīµ": 4056,
      "áĪ¸áĬĲ": 4057,
      "ĠáĬ¥áĬķáĭ°áĪļáįĪáĪįáĮį": 4058,
      "ĠáĭĵáĪĪáĪĿ": 4059,
      "Ġáĭ«áĪĪáĬĿ": 4060,
      "ĠáĬķáįģáĪħ": 4061,
      "áĭĪáĭµáīħ": 4062,
      "ĠáĮĢáĪĺáĪ©": 4063,
      "áĬĴáĭį": 4064,
      "Ġáīłáī°áĪ»áĪĪ": 4065,
      "ĠáĬłáī¥áĪ¨áĬķ": 4066,
      "ĠáĪĺáīĢáĬĲáĪµ": 4067,
      "áĮĪáīłáĭ«": 4068,
      "áĮīáĭ³áĭ©": 4069,
      "ĠáĬŃáī¥áĭ°áīµ": 4070,
      "ĠáĬ¥áĪĺáĬŃáĪ«áĪĪáĪģ": 4071,
      "Ġáī³áĪµáī³áĭįáĪ³áĪĪáĪħ": 4072,
      "ĠáĮĬáī³áĪŃ": 4073,
      "áĪĪáĪĽáĬķáĬĽáĭįáĪĿ": 4074,
      "ĠáĬłáī³áĭį": 4075,
      "ĠáĬ¥áĭįáĬķ": 4076,
      "áīłáĭĻ": 4077,
      "áĭ°áĭŃ": 4078,
      "áĮĪáĪµ": 4079,
      "áĪĭáĪĽ": 4080,
      "ĠáĪĺáĪĿáĪħ": 4081,
      "ĠáĪĺáĭ°áĭĪáĪį": 4082,
      "ĠáĭŃáĪģáĬĳ": 4083,
      "áĭĪáĮį": 4084,
      "ĠáĪĽáĮłáī¢áĭ«": 4085,
      "Ġáĭ«áĮ¥": 4086,
      "Ġáī¥áĪĭ": 4087,
      "áĬ©áīłáīµ": 4088,
      "ĠáīµáĮ«áĭĪ": 4089,
      "áĬ«áĬ¨": 4090,
      "áĪ½áĬ¨áĪŃ": 4091,
      "Ġáĭ°áĪµáī³": 4092,
      "áĬ¥áĬķáĭ³áĪį": 4093,
      "ĠáĬ¥áĭ¨áĮłáīłáīĢ": 4094,
      "ĠáĮĪáĭ°": 4095,
      "ĠáĪĪáĪĺáī¥áĪĭáīµ": 4096,
      "áĬ®áįįáĭ«": 4097,
      "Ġáī£áīµ": 4098,
      "ĠáĭĺáĮĪáī£": 4099,
      "ĠáĬłáĭµáĪŃáĮĪáĭį": 4100,
      "Ġáī°áĬĵáĭ°áĭ°": 4101,
      "áĪłáĪ«áĭį": 4102,
      "Ġáĭ¨áĪĽáĭŃáī»áĪį": 4103,
      "ĠáĪķáįĥ": 4104,
      "ĠáįĪáĪįáĮİ": 4105,
      "ĠáĪ¥áĪŃ": 4106,
      "ĠáĪ½áī³": 4107,
      "ĠáĪĺáĪµáĬ®áī±áĬķ": 4108,
      "ĠáĬłáĪµáī°áĭĭáĭŃ": 4109,
      "ĠáĬ¥áīĨáĭ«áĪĪáĪģ": 4110,
      "ĠáĬ¥áĪ°áĮ¥áĪĥáĪĪáĪģ": 4111,
      "áĮįáĭļáĬłáī¥": 4112,
      "áĬķáĮ£": 4113,
      "ĠáĬłáĪ«áīµ": 4114,
      "ĠáĬłáĭĪáĮ£": 4115,
      "ĠáĬłáĪ°áīł": 4116,
      "áĮĪáĪ«áĪĪáĪģ": 4117,
      "áĪĭáīµáĬķ": 4118,
      "áĬĵáĭµ": 4119,
      "áĮ¥áĪĿ": 4120,
      "áī£áĪŃ": 4121,
      "ĠáĪĽáĬĲáĮĭáĮĪáĪŃ": 4122,
      "ĠáĬłáĭŃáĪ°áĪ«áĪĿ": 4123,
      "ĠáĬłáĪįáĮł": 4124,
      "ĠáĬłáĪĪáī¦áīµ": 4125,
      "ĠáīµáĪĺáĮ£": 4126,
      "ĠáĪįáĪ°áĮ¥áĪħ": 4127,
      "áĭĺáĪĺáĪŃ": 4128,
      "áįĬáĭ«áĭį": 4129,
      "Ġáī³áĪĭáīħ": 4130,
      "Ġáĭ¨áī°áĪ³áĪ³áī°": 4131,
      "áĪĺáĬķáĮĥ": 4132,
      "ĠáĪĺáĬķáĬ¨áī£áĬ¨áī¥": 4133,
      "áĭ©áīµ": 4134,
      "Ġáĭĺáĭ´": 4135,
      "ĠáĮĵáĭ°áĬĽáĪħ": 4136,
      "ĠáĪĮáĪĬáīµ": 4137,
      "áĬĲáĮįáĪ¨": 4138,
      "ĠáĬ¥áĬķáĭ³áĪĪáī¥áĬķ": 4139,
      "Ġáĭķáĭ³": 4140,
      "Ġáĭ¨áĪĪáī¥áĬķáĪĿ": 4141,
      "ĠáĬ¥áĬķáĭ³áīµáĬĵáĮĪáĪŃ": 4142,
      "ĠáĬłáĮĪáĬĽáĪĪáĪģ": 4143,
      "áĪµáĪĽáĪĽáĪĿ": 4144,
      "ĠáĪĺáįįáīĢáĭµ": 4145,
      "ĠáĪģáĪĪáī°áĬĽ": 4146,
      "ĠáĭµáĬķáĮĭáĭŃ": 4147,
      "ĠáĮ«áĪĽáĭİáī½": 4148,
      "Ġáĭ«áĭ°áĪŃáĮĭáĪī": 4149,
      "ĠáĬłáīħáĪ«áī¢áĭ«": 4150,
      "ĠáĬ¥áĬķáĮįáĪĬáĭĿáĬĽ": 4151,
      "áĪ»áĬķáĮī": 4152,
      "áĪĿáĪ¨áĮ¡": 4153,
      "Ġáī°áĪµáĪĽáĪļ": 4154,
      "áĪĬáĭ®": 4155,
      "áĪĪáĭļáĭ«": 4156,
      "áĪįáĬĿáĪĿ": 4157,
      "áĭ°áĪµ": 4158,
      "áĮįáĪĿ": 4159,
      "áĪĭáĪµ": 4160,
      "Ġáĭ¨áĭµáĪ®": 4161,
      "áĬĵáī¸áĭį": 4162,
      "áĭ¨áĭµáĪ®": 4163,
      "áĬłáī£áīµáĪħ": 4164,
      "Ġáī°áĪĪáĭį": 4165,
      "áĬ©áĬķ": 4166,
      "ĠáĪĿáĬŀ": 4167,
      "ĠáĭĪáĭ´áīµ": 4168,
      "ĠáĪĭáĪĪ": 4169,
      "áĬ«áĪħ": 4170,
      "áĭ°áĪŃáĭ°": 4171,
      "Ġáī¤áī¶áī½": 4172,
      "ĠáĪĪáĪĺáĭ«áĭĿ": 4173,
      "ĠáĪµáĪĪáĪĨáĬĲ": 4174,
      "Ġáĭ¨áīµáĪĿ": 4175,
      "áĬłáĬķáĭ²áīµ": 4176,
      "ĠáīģáĪ«áĮŃ": 4177,
      "áĪµáĪ«áĭį": 4178,
      "áĭĿáĬĵáī¡": 4179,
      "áĬĵáĮĪáĪ©": 4180,
      "áĪĽáĪĽáĬĿ": 4181,
      "ĠáĪĽáĪµáĭĪáĮĪáĭµ": 4182,
      "áĭ¨áĪĽáĭŃ": 4183,
      "áī°áĭĪáĭį": 4184,
      "áī£áĬķáĭ«áĭį": 4185,
      "áĭĪáĪ¨áīĢáīµ": 4186,
      "ĠáĪ«áĪ´áĬķ": 4187,
      "ĠáĬ¥áĬķáĪµáĪ³": 4188,
      "áĬłáĭ«áī´": 4189,
      "ĠáĪ´áī¶áī½": 4190,
      "ĠáĮłáĭ¨áīħáĬ©áīµ": 4191,
      "áī¨áĪŃ": 4192,
      "ĠáīłáĪ½áī³": 4193,
      "áĬłáĪµáįĪáĪĭáĮĬ": 4194,
      "Ġáī´áĪĮáīªáĭ¥áĬķ": 4195,
      "ĠáĬłáĭŃáī»áĪįáĪĿ": 4196,
      "ĠáĬłáĪįáĬĲáĮĪáĪŃáĬ¨áĬĿáĪĿ": 4197,
      "ĠáĪª": 4198,
      "ĠáĪº": 4199,
      "áĭįáĮ¤": 4200,
      "ĠáĬ¥áĪ°": 4201,
      "ĠáĬ¥áĭ°áĭįáĪį": 4202,
      "áīłáĭµ": 4203,
      "áĭµáĮĵ": 4204,
      "áĬ¥áīħ": 4205,
      "áĪ¨áĮĢ": 4206,
      "Ġáĭ¨áĬĲáĮĪáĪŃ": 4207,
      "ĠáīłáĪ«áĪ´": 4208,
      "ĠáĪĺáĪ®áĮ¥": 4209,
      "áĪ«áĮł": 4210,
      "áĬłáīł": 4211,
      "áĬŃáįĪáīµ": 4212,
      "áĬ¨áĬĽ": 4213,
      "áĬ¨áįįáīµ": 4214,
      "áīĢáĬķ": 4215,
      "áĪ³áī¦áī½": 4216,
      "Ġáī°áī£áĪ¨": 4217,
      "ĠáĪĪáĪ¦áĪµáīµ": 4218,
      "áĬ«áĪĦáĭ°": 4219,
      "áĭĿáī¡": 4220,
      "ĠáĬłáĪĭáĭ°áĪŃáĮįáĪĿ": 4221,
      "áĪ¬áĭ²áĭ®": 4222,
      "Ġáĭ¨áĪļáīĨ": 4223,
      "áĮīáĮ¥": 4224,
      "ĠáĬ¥áĭ¨áĪĺáĮ£": 4225,
      "ĠáĮĪáĮ½": 4226,
      "Ġáī¤áī´": 4227,
      "ĠáĪĬáĬĸáĪŃ": 4228,
      "ĠáĬ¥áĭ«áĪ°áī¡": 4229,
      "ĠáĪŀáĬŃ": 4230,
      "áĭ¨áĪļáįĪáĪįáĮīáīµáĬķ": 4231,
      "áĬłáĪµáĭ°": 4232,
      "áĬłáĪįáĮĭ": 4233,
      "ĠáīłáįįáįģáĪĿ": 4234,
      "ĠáĪĦáĭ°áī½": 4235,
      "áĪ°áĮłáĭį": 4236,
      "000": 4237,
      "ĠáĬłáĭ¨áĪģáīµ": 4238,
      "ĠáĬłáĭµáĪ«áĪ»": 4239,
      "áĪģáĪĪáī±áĬķáĪĿ": 4240,
      "ĠáĪĺáĮĪáĪĺáīµ": 4241,
      "áĮŃáĬķáīħáĪĭ": 4242,
      "ĠáĬĲáĮįáĪ¬áĪĥáĪĪáĪģ": 4243,
      "ĠáįĴáĭ«áĬĸ": 4244,
      "áįı": 4245,
      "áĪįáĬķáĪĿ": 4246,
      "áĭįáĪ¸áī³áĪĿ": 4247,
      "áĪµáĮ¦áī³": 4248,
      "ĠáĬĲáĬŃ": 4249,
      "Ġáĭ¨áĪĨáĬĳ": 4250,
      "Ġáĭ¨áĮĪáĭĽ": 4251,
      "áĬĵáī½áĬķ": 4252,
      "ĠáĪĺáī¶": 4253,
      "ĠáĪĺáįĪáĪĪáĮį": 4254,
      "ĠáĪĺáĪ¨áĭ³áīµ": 4255,
      "ĠáĪĺáĮĪáĬĵáĬĺáīµ": 4256,
      "áĪĽáĪī": 4257,
      "ĠáĭŃáĮ¨": 4258,
      "ĠáĭŃáĪ¨áĭ³": 4259,
      "ĠáĭŃáĭ«áĭĻ": 4260,
      "áī³áī¸áĭįáĬķ": 4261,
      "áī¶áī³áĪį": 4262,
      "áĬłáĭµ": 4263,
      "áĬŃáīłáĪŃ": 4264,
      "áĬ¨áĭ«": 4265,
      "áĬ¨áĮ¥áīĤáīµ": 4266,
      "áīħáĪĿáīµ": 4267,
      "áīĢáĪĭáĪį": 4268,
      "ĠáĪĽáĪį": 4269,
      "ĠáĪĽáīĨ": 4270,
      "ĠáĪĽáĮ£áīµ": 4271,
      "áįįáĪĭáĮİáīµ": 4272,
      "ĠáĬłáĪįáĬ©áĪħ": 4273,
      "ĠáĬłáĪįáįĪáīħáĭµ": 4274,
      "áĬ©áĪ½": 4275,
      "áĬ©áī£áĬķáĭ«áĭį": 4276,
      "ĠáĬ¨áĬķ": 4277,
      "ĠáĬ¨áĬĭáĪĭ": 4278,
      "ĠáĭĪáįį": 4279,
      "ĠáĮ¥áįĭ": 4280,
      "áįĭáĪĪáĪģ": 4281,
      "ĠáīĢáĪµ": 4282,
      "ĠáĬ¥áĭ¨áĪĦáĭµ": 4283,
      "áĪĮáĪĬáīµ": 4284,
      "ĠáĪĪáĪĺáĮ¨áĪ¨áĪ»": 4285,
      "áĭĵáĭŃáĬķ": 4286,
      "Ġáī£áĪĪáĪĺ": 4287,
      "áĭ°áĪ¨áĪµ": 4288,
      "ĠáĬłáĪįáĬĲáīłáĪ©áĪĿ": 4289,
      "áĪĽáĪŃáĬ©": 4290,
      "ĠáĪ¥áĪ«áĭįáĬķ": 4291,
      "áĪ¥áĪ«áĭį": 4292,
      "ĠáĬłáĮįáĬĿáī°áĭĭáĪį": 4293,
      "Ġáĭ«áĪįáĪĨáĬĲ": 4294,
      "ĠáĮ«áĮ«áī³": 4295,
      "ĠáĪļáĪµáĮ¥áĪŃ": 4296,
      "áīłáĪ¨áĭ¶áĭį": 4297,
      "áĪŃáĭĿáĪ©": 4298,
      "ĠáĮ¨áĪŃáĪ»áĪĪáĪģ": 4299,
      "áĬŃáĪ¨áĪħ": 4300,
      "áĪĺáĮłáĮ¥": 4301,
      "áĪĶáĪŃ": 4302,
      "ĠáĪĺáĬĲáĪ³áīµ": 4303,
      "ĠáĬ¥áĬķáĮįáĪĬáĭĺáĬĽ": 4304,
      "Ġáĭ«áĪµáĭ°áĪµáī°": 4305,
      "áĮĥáĮĪáĪ¨áĭ¶áī½": 4306,
      "ĠáĪĽáī¥áĪ«áĪªáĭ«": 4307,
      "áĪĪáĬ¥áĪ«áīµ": 4308,
      "áĪįáĭİ": 4309,
      "áĪįáĪ¨áĭ³áĪħ": 4310,
      "ĠáĬ¥áīĥ": 4311,
      "ĠáĬ¥áĬ®": 4312,
      "áīłáĭĺ": 4313,
      "áĭ°áīłáīħ": 4314,
      "áī°áĪĺáĪį": 4315,
      "ĠáīłáĬ¥áĭįáĬĲáī±": 4316,
      "ĠáĪĺáĪ¬áīµ": 4317,
      "ĠáĪĺáī°áĪĽáĪĺáĬķ": 4318,
      "áĭ¨áĪ«": 4319,
      "áĪĽáĬķáĬķ": 4320,
      "ĠáĭŃáīłáĪĭ": 4321,
      "ĠáĭŃáĬ¨áĪ°": 4322,
      "áĬłáĭ²áĪ±áĬķ": 4323,
      "áĭĪáĭ«áĭ¨áīµ": 4324,
      "áīĢáĭ°": 4325,
      "áĮĭáĮį": 4326,
      "áĪ³áīħ": 4327,
      "ĠáĬ¥áĬķáĭ°áĬĲáīłáĪŃ": 4328,
      "ĠáĬ¨áĪĿ": 4329,
      "áĭĽáĬĿ": 4330,
      "ĠáĬłáĪµáīĨ": 4331,
      "ĠáĬłáĪµáĮĪáī£": 4332,
      "áĪŀáĭĿ": 4333,
      "ĠáĬ¥áĬķáĭ³áĪĪáĭį": 4334,
      "Ġáĭ¨áī°áī»": 4335,
      "Ġáĭ¨áī°áĪ»": 4336,
      "áĭ¨áīµáĪĿ": 4337,
      "áī¼áĭį": 4338,
      "ĠáįĪáĮħ": 4339,
      "ĠáĬĵáįĪáīĢáĬĿ": 4340,
      "áĪĪáī¥áĬĿ": 4341,
      "ĠáĬ¥áĬķáĭ°áĪļáĪ°áĪ«": 4342,
      "ĠáĭµáĬķáīħ": 4343,
      "ĠáĬ«áĪŃáĭµ": 4344,
      "ĠáĪµáĪĪáī°": 4345,
      "ĠáĪŀáīµ": 4346,
      "Ġáī¢áĭ«": 4347,
      "ĠáĪĺáĪįáĬ«áĪĿ": 4348,
      "ĠáĭŃáĪĨáĬĵáĪī": 4349,
      "áīĢáĪŃáĪĿ": 4350,
      "áĮ«áĭĪáī±": 4351,
      "áĪ°áĭĵáīµ": 4352,
      "ĠáĮłáĬķáĬŃáĪ®": 4353,
      "Ġáī°áĪĺáĪĪáĪ°": 4354,
      "ĠáĪ»áĬķáĮ£": 4355,
      "áĮĵáĭ°áĬĽáĪħ": 4356,
      "ĠáĬłáīłáī£": 4357,
      "ĠáĭĺáĮįáĭŃáī¶": 4358,
      "áĬ¨áī°áĪĽáĭį": 4359,
      "ĠáĪ®áĮ¥áĬ©": 4360,
      "ĠáĪ¨áĪ³áĪģ": 4361,
      "Ġáī°áīĢáĪĿáĮ§áĪį": 4362,
      "áĪĺáĪĿáĪħáĪ©": 4363,
      "ĠáĮĢáĪĺáĪŃáĬ©": 4364,
      "áĭ¨áįĪáĪĪáĬ¨áĭįáĬķ": 4365,
      "ĠáĬ¥áĭ¨áįĪáĪĪáĮįáĬ©": 4366,
      "áĮįáĭļáĬłáī¥áĪĶáĪŃ": 4367,
      "áĬķáīº": 4368,
      "ĠáĬłáĭĪáīħ": 4369,
      "áĪµáī»áĪĪáĪģ": 4370,
      "áĪµáįĸáĪŃáīµ": 4371,
      "áĭ°áī£": 4372,
      "áĭŃáĭŃáīµ": 4373,
      "áī¥áī¸": 4374,
      "Ġáĭ¨áīĨ": 4375,
      "áĭ¨áī½": 4376,
      "áĭĪáīģ": 4377,
      "áĮ£áĭį": 4378,
      "áĪ°áĪĪ": 4379,
      "áĬŃáĪª": 4380,
      "ĠáĪĪáĪģáĪīáĪĿ": 4381,
      "ĠáĬ¨áįĪáĪĪáĮī": 4382,
      "ĠáĪµáī´": 4383,
      "ĠáĮ¥áĪ¨áīµ": 4384,
      "áĪŀáĬĿ": 4385,
      "áīĨáīµ": 4386,
      "ĠáĮĪáĪĿ": 4387,
      "Ġáī³áĬŃáĪ²": 4388,
      "áĪµáī°áĭĭ": 4389,
      "ĠáĪĪáĪĺáĮĢáĪĺáĪªáĭ«": 4390,
      "áĮİáī½": 4391,
      "áĬ®áĬķáĪ°áĪŃáī±": 4392,
      "áĪ°áī¥áĬŃ": 4393,
      "áįĪáĪĪáĮĭáī½áĪģ": 4394,
      "Ġáī¢áĪĨáĬķ": 4395,
      "ĠáīłáĪĺáī¶": 4396,
      "ĠáīłáĪĺáĪĨáĬĶ": 4397,
      "áĪ³áī¥áĪħáĬķ": 4398,
      "áĭµáĬķáīħ": 4399,
      "Ġáĭķáīĥ": 4400,
      "ĠáĬ¥áĮłáĪ«áĮł": 4401,
      "ĠáĪĺáīĢáīłáĪį": 4402,
      "áīłáī°áī»áĪĪ": 4403,
      "ĠáĪłáĪĭáĪ³": 4404,
      "ĠáĪ°áĪŃáī°áĪĥáĪį": 4405,
      "ĠáĭĪáĬķáĭµáĪľ": 4406,
      "ĠáĪĺáĭµáĪ¨áĪµ": 4407,
      "áĪįáĮħáī·": 4408,
      "ĠáĬłáĭµáĪŃáĮĮáĭĭáĪĪáĪģ": 4409,
      "ĠáĭŃáĬķáĮĪ": 4410,
      "áĪĿáįĴáĭįáī°": 4411,
      "ĠáīłáĪĭáĪģ": 4412,
      "ĠáĬłáĪıáīµ": 4413,
      "ĠáĬłáĪıáī¸áĭį": 4414,
      "áĬ¥áĭµáĪĪáĬĽ": 4415,
      "ĠáĮĵáĮī": 4416,
      "ĠáįĬáĪįáĪŀáī½": 4417,
      "áĭĵáĪĺáī±": 4418,
      "ĠáĬ¥áĬ®áĪ«áĪĪáĪģ": 4419,
      "ĠáĬ¥áĮłáĪ«áĮłáĪ«áĪĪáĪģ": 4420,
      "áĪĪáĬ¥áĪŃáĪµáĭİ": 4421,
      "ĠáĬłáĮĪáī£": 4422,
      "ĠáĬłáĭĺáĮĭáĮħ": 4423,
      "ĠáĬłáĪ«áĭĬáīµ": 4424,
      "ĠáĬ¥áĭ°áĭį": 4425,
      "áīłáĬ¥áĪ±": 4426,
      "áīłáĬŃáįįáĪī": 4427,
      "áĭ°áĪµáīµ": 4428,
      "áĪģáĬĶáī³áĭį": 4429,
      "áī°áĬĿ": 4430,
      "ĠáĪĺáĭĭ": 4431,
      "ĠáĪĺáĮ¡": 4432,
      "áĭ¨áĬĭ": 4433,
      "ĠáĬ¥áĬķáĪĨáĬĵ": 4434,
      "áĪ«áĬª": 4435,
      "áī¶áĬªáĭ®": 4436,
      "áĬłáĮİáī´": 4437,
      "áĭĪáĭ´áīµ": 4438,
      "áī£áĭŃáĪį": 4439,
      "áĪ³áĪ³áīµ": 4440,
      "áįįáī³": 4441,
      "áĪĨáĪµáįĴáī³áĪį": 4442,
      "áīĥáĪĪáī½": 4443,
      "áĭĭáĪħ": 4444,
      "ĠáĪ°áĪį": 4445,
      "ĠáĭįáĪ¸áīµ": 4446,
      "ĠáĬłáĪĭáĭ°áĪ¨áĮį": 4447,
      "Ġáĭ¨áĪļáĮĪáī£": 4448,
      "áĮīáĭ³áīµ": 4449,
      "áĬ®áĬĸáĪļ": 4450,
      "áĪĺáĮ£áĭį": 4451,
      "áĬłáĬķáī°áĪĿ": 4452,
      "áĪĪáĪĺáĮĢáĪĺáĪªáĭ«": 4453,
      "áĬ³áĬ³": 4454,
      "ĠáĬłáĪµáī°áĪĽáĪĽáĬĿ": 4455,
      "ĠáĬ¥áĬķáĭ°áĪĽáĪµáīłáĭį": 4456,
      "áįĥáĬĳ": 4457,
      "ĠáĪįáīµáĪ°áĮłáĬĿ": 4458,
      "áĭįáĪ»áĭįáĬķ": 4459,
      "Ġáī°áĪĺáĪįáĪ¶": 4460,
      "ĠáĬłáĪŃáįį": 4461,
      "Ġáĭ°áĮįáĪŀ": 4462,
      "ĠáĬ¥áĬĲáĭļáĪħ": 4463,
      "áī£áĬķáĬŃ": 4464,
      "ĠáĪĿáĪ³áĪĮ": 4465,
      "ĠáĬ¥áĪ«áĪ±áĬķ": 4466,
      "áĪ¯áĬķ": 4467,
      "áįĪáĮ¥áĪ®": 4468,
      "ĠáĬłáĪĭáĭ¨áĪģáĪĿ": 4469,
      "ĠáĬ¥áĭ¨áĮ¨áĪĺáĪ¨": 4470,
      "ĠáĬłáīµáįįáīĢáĭµ": 4471,
      "ĠáĬ¥áĭ°áĭįáĪįáĪįáĪĥáĪĪáĪģ": 4472,
      "áĭįáĪ³áĬĶ": 4473,
      "ĠáĬ¥áīłáĪĭáĪĪáĪģ": 4474,
      "áĪĺáĮĭ": 4475,
      "áĪĺáī¸": 4476,
      "áĪ¨áī°": 4477,
      "áī°áĭĪáĪ°áĬĲ": 4478,
      "áĬĵáĭĬ": 4479,
      "ĠáĭŃáīłáĪī": 4480,
      "áī³áĬŃáĪ²": 4481,
      "áĭĪáī³áĭ°": 4482,
      "áĬ¨áįĬ": 4483,
      "ĠáĪĽáĭ¶": 4484,
      "ĠáĪĽáĭķ": 4485,
      "ĠáĪĽáĪ¸áĬĲáįį": 4486,
      "Ġáĭ«áĪ¨áĮĭáĮį": 4487,
      "Ġáī°áĪĺáĪĪáĪµ": 4488,
      "Ġáī°áīłáĪĭáĪ½": 4489,
      "ĠáĪĿáī¹": 4490,
      "áī»áĪįáĬ©": 4491,
      "áĭĺáĪĿáĪŃ": 4492,
      "ĠáĮ¥áĪª": 4493,
      "áĪŀáīħ": 4494,
      "áīģáĬķ": 4495,
      "áĪµáī°áĬ«áĬ¨áĪį": 4496,
      "ĠáĬ¥áĬĵáĮĪáĪ«áĪĪáĪģ": 4497,
      "Ġáĭ¨áĪĿáĪĪáĭį": 4498,
      "áĭ°áĪ¨áĮĪáĭį": 4499,
      "ĠáĪĨáĬĹáĪį": 4500,
      "áĬłáĬķáĭ´": 4501,
      "áĪįáĮ¦": 4502,
      "ĠáĮ¨áĪĪáĪĽ": 4503,
      "áĮįáĪ¯": 4504,
      "áįĴáĭĽ": 4505,
      "Ġáĭ¨áĬłáĬ«áĪį": 4506,
      "ĠáĪĿáĬŃáĬķáĭ«áī³áĭĬ": 4507,
      "áĮ¨áĬĲáīģ": 4508,
      "áįĮáĬķ": 4509,
      "áįĮáĪŃ": 4510,
      "áīĨáĭŃáĪĿ": 4511,
      "Ġáī°áĮłáīħ": 4512,
      "ĠáĪĺáĪŃáĬ¨áī¥": 4513,
      "áĪĨáĬĵáī½áĪģ": 4514,
      "ĠáĪ°áĪĿáī°áĪĥáĪį": 4515,
      "áīłáĪ³áĮŃ": 4516,
      "ĠáĪĺáįįáī³áīµ": 4517,
      "Ġ10": 4518,
      "ĠáĮłáĪ¨áĮ´áĭĽáĭį": 4519,
      "áĬŃáĪ¨áĪĿáīµ": 4520,
      "ĠáĪĺáĪĿáĪ°áĪį": 4521,
      "áĭŃáĭĺáĭį": 4522,
      "ĠáĬłáĭŃáĮĪáī£áĪĿ": 4523,
      "Ġáĭ«áĪµáīĢáĪĿáĮ¡": 4524,
      "ĠáĬłáīĨáĪĺ": 4525,
      "ĠáĭŃáĮ«áĭĪáī³áĪį": 4526,
      "ĠáĬ¥áĪ°áĪĽáĪĪáĪģ": 4527,
      "ĠáĮīáĬķáįĭáĬķ": 4528,
      "ĠáĪĽáīĨáĪļáĭ«": 4529,
      "ĠáĬ¥áĬķáĪĨáĬĵáĪĪáĬķ": 4530,
      "áĪ¦": 4531,
      "ĠáĬłáī£áĪį": 4532,
      "áĪµáĬ¬": 4533,
      "ĠáĬ¥áĪ¨áĭ³": 4534,
      "áĮĪáĪĺ": 4535,
      "áĪĭáĭĬ": 4536,
      "áĪ¨áĬĽ": 4537,
      "Ġáĭ¨áĬ¨áįĭ": 4538,
      "ĠáĪĺáĭĪáĪ°áĬķ": 4539,
      "áįĪáĮ¸": 4540,
      "áĪĽáĮį": 4541,
      "ĠáĭŃáĪĿáĪ¨áĮ¡": 4542,
      "áĪ«áī£áīµ": 4543,
      "áĮ¥áĬĵáīµ": 4544,
      "áĮłáīĥáĪĭáĭŃ": 4545,
      "áĪ°áĪĻ": 4546,
      "áĭ³áĭ³": 4547,
      "áĬ¨áĪµ": 4548,
      "áĮĭáīłáĭĿ": 4549,
      "Ġáī°áĪ»": 4550,
      "ĠáĬłáĪįáįĪáĭĭáĪį": 4551,
      "ĠáĬ¨áīĢ": 4552,
      "ĠáĪµáĭį": 4553,
      "ĠáĬłáĪµáĮĪ": 4554,
      "áĪĺáĪµáĪĽáīµ": 4555,
      "ĠáĮ¥áĬķáĭµ": 4556,
      "áī¤áĭĿáī¦áĪį": 4557,
      "áĪµáī°áĪŃ": 4558,
      "ĠáĮłáĪĭ": 4559,
      "ĠáĪĪáĪĺáĪĺáĪĪáĪµ": 4560,
      "áĬ¥áĬķáĭ°áĪļ": 4561,
      "ĠáĬ¥áĪŃáĭ³áĬĿ": 4562,
      "ĠáĬŃáĪŃáĪµáī²áĭ«áĬķ": 4563,
      "áĪĺáĮ£áĪĪáĪģ": 4564,
      "ĠáĪĺáĪµáĪĺáĪŃ": 4565,
      "áįĪáĪĪáĬŃ": 4566,
      "Ġáįįáīĥáĭµ": 4567,
      "áĪĪáĪĺáĮ¨áĪ¨áĪ»": 4568,
      "áĬĲáĮĪáĪ®áī½áĬķ": 4569,
      "áĭ¨áī°áĭĪáĪ°áĬĲ": 4570,
      "Ġáĭ¨áĪĿáīµáī½áĪį": 4571,
      "ĠáĬ¥áĭ¨áī°áĬ«áĪĦáĭ°": 4572,
      "ĠáĪħáĮį": 4573,
      "ĠáĬ¥áĭµáĪľ": 4574,
      "áīłáīĥáĪį": 4575,
      "ĠáĬłáĮłáįĭ": 4576,
      "áĭĿáīĥáĭľ": 4577,
      "ĠáĪ¥áĬĲ": 4578,
      "ĠáĪ°áĪŃáī·áĪį": 4579,
      "Ġáī°áĪĺáĪĪáĬ¨áīµ": 4580,
      "ĠáĪĺáĮłáĬķáīĢáīħ": 4581,
      "ĠáĬłáĪĺáī³áīµ": 4582,
      "ĠáĮłáī¥áīħ": 4583,
      "áīģáĪįáįİ": 4584,
      "ĠáĬłáĬĵáĭįáīħáĪĿ": 4585,
      "ĠáĮłáįįáī·áĪį": 4586,
      "ĠáĮłáĭ¨áīĥáīµ": 4587,
      "áĭ°áĬ¨áĪĺáĪħ": 4588,
      "ĠáĬłáĪįáīłáĪĭáĪĿ": 4589,
      "ĠáĬķáĮįáĮįáĪŃ": 4590,
      "ĠáĬłáĪµáīĢáĭµáĪľ": 4591,
      "Ġáī°áĮ£áī¥": 4592,
      "áĭ¶áĬŃáī°áĪ©": 4593,
      "ĠáĬłáĪĿáĮ¡áĪįáĬĿ": 4594,
      "áĪĮáĬŃáīµáĪªáĬŃ": 4595,
      "áĬķáįģáĪħ": 4596,
      "ĠáĬłáīĢ": 4597,
      "ĠáĬłáĭ°áĪŃáĮį": 4598,
      "áĪŃáĪĿ": 4599,
      "áīłáĬĽ": 4600,
      "áīłáĪļ": 4601,
      "áīłáĮİ": 4602,
      "áĭŃáīħ": 4603,
      "áĪĺáĮłáīłáīħ": 4604,
      "áĬ¥áīħáĭµ": 4605,
      "ĠáīłáĪģáĪīáĪĿ": 4606,
      "ĠáīłáĭĵáĪĪáĪĿ": 4607,
      "áĬĵáĪĪáĪħ": 4608,
      "ĠáĪĺáĮĵáĭĿ": 4609,
      "áĭ¨áĭĪáĬķáĭµ": 4610,
      "ĠáĬ¥áĬķáĭŃ": 4611,
      "áįĪáĬĿ": 4612,
      "áįĪáĪ¨áĪµ": 4613,
      "ĠáĭŃáĪĺáĪŃ": 4614,
      "áī³áĪĭáīħ": 4615,
      "áĭĪáĪ«áĭį": 4616,
      "áĮłáĮ£áīµ": 4617,
      "áĪ°áĬĿ": 4618,
      "áĭ³áĪļ": 4619,
      "ĠáĪĽáĪµáī³áĭĪáĪ»": 4620,
      "áĮĭáī£": 4621,
      "áĪ³áĭŃáĪħ": 4622,
      "Ġáĭ«áĭ°áĪ¨áĮĪ": 4623,
      "ĠáĬłáĭŃáīĢáĪŃáĪĿ": 4624,
      "ĠáĪĪáĪĮáĪĭ": 4625,
      "áĪĨáī´": 4626,
      "ĠáĬłáĪįáĪ¨áĪ³": 4627,
      "Ĭáĭĺ": 4628,
      "áī»áī½áĬķáĬķ": 4629,
      "áĬķáĭµáĭĬ": 4630,
      "áī±áĬ«áĬķ": 4631,
      "áĪªáĪµ": 4632,
      "ĠáĪįáĪĿáĭµ": 4633,
      "áĭĺáĬĵ": 4634,
      "ĠáĪĬáĭ«áĪµ": 4635,
      "áĬ¥áĬķáĭ°áī°": 4636,
      "áĬĲáīłáĪ©": 4637,
      "áī¢áĭ«áĬķáĪµ": 4638,
      "ĠáĭµáĮįáĪµ": 4639,
      "áĪĬáĬķ": 4640,
      "ĠáĬ¥áĬķáĭ°áĪĨáĬĲáī½": 4641,
      "ĠáĭĺáĪĺáĬķ": 4642,
      "ĠáīħáĮ½": 4643,
      "áīĢáĮ¥áĪİ": 4644,
      "ĠáĬłáĪµáī°áĪĿ": 4645,
      "áĪĽáĪŃáĬŃ": 4646,
      "áĮĮáĪ¨áĭ³": 4647,
      "áĬĲáĮĭáĮĪ": 4648,
      "áĭ´áĬķ": 4649,
      "áĪĭáī½áĪģáĬķáĪĿ": 4650,
      "ĠáīłáĪĽáĮįáĬĺ": 4651,
      "áĬ¨áĪ°áĬłáīµ": 4652,
      "áĬ¨áĪĺáĮłáĬķ": 4653,
      "ĠáĬłáĮįáĬĿáī°áĪĥáĪį": 4654,
      "ĠáĬłáĮ¥áī¥": 4655,
      "áĭįáīĢáĭįáĪĿ": 4656,
      "ĠáĪ°áĪŃáī»áĪĪáĪģ": 4657,
      "ĠáĭĪáĬķáĭµáĪĿ": 4658,
      "Ġáĭ«áĭ°áĪ¨áĬ©áīµ": 4659,
      "ĠáĭŃáĪĦáĭ³áĪī": 4660,
      "Ġáĭ«áĪ³áĭĿ": 4661,
      "áĬ¥áĪĿáĪ®áĭ¬": 4662,
      "ĠáĬłáī³áĭµáĪŃáĮį": 4663,
      "ĠáįķáĪ®áĮĢ": 4664,
      "áīµáĬŃáĬŃáĪĪáĬĽáĭįáĬķ": 4665,
      "ĠáĭŃáĮĢáĪĿáĪ«áĪį": 4666,
      "áĪĬáĭ®áĬķ": 4667,
      "ĠáĪºáĪħ": 4668,
      "áĪįáĭ©": 4669,
      "áĭįáĪµ": 4670,
      "áīłáĪĽáĬķáĬĽáĭįáĪĿ": 4671,
      "áīłáĪ°áĭĵáī±": 4672,
      "áĪģáīµáĬķ": 4673,
      "áĮįáĬĵ": 4674,
      "áĮįáĪİáīµ": 4675,
      "áĬ¥áĭµáĪľ": 4676,
      "Ġáĭ¨áĪĭáī¸áĭįáĪĿ": 4677,
      "ĠáĮĮ": 4678,
      "ĠáīłáĪ«": 4679,
      "áĬĵáįĪ": 4680,
      "ĠáĭŃáĭŃáĭĽ": 4681,
      "áĪ«áīł": 4682,
      "áĭĪáĭĽ": 4683,
      "áĬ¨áĭ¨áīµ": 4684,
      "áįįáĪ¬": 4685,
      "Ġáĭ«áĮį": 4686,
      "Ġáī°áĪŃ": 4687,
      "Ġáī°áĪĺ": 4688,
      "ĠáĬłáĭŃáī¶": 4689,
      "ĠáĪĪáĬ¥áĬĽ": 4690,
      "áīĥáĮ¨": 4691,
      "ĠáĪµáįĸáĪŃáīµ": 4692,
      "ĠáĭįáĪ¾áī½": 4693,
      "áī»áĭŃáĬĵ": 4694,
      "áĬ«áĬ¨áīµ": 4695,
      "áĭĿáĬķ": 4696,
      "áĪĺáĪµáĪįáĪĿ": 4697,
      "áįĭáĪī": 4698,
      "ĠáĮłáīłáīĢ": 4699,
      "ĠáĪĪáĪĺáįį": 4700,
      "ĠáĬłáīµáĪŃáĪ³": 4701,
      "áĬ¥áĬķáĭ°áĪĽáīµ": 4702,
      "ĠáĪ³áĬķáī²": 4703,
      "Ġáĭ«áĪµáĬ¨áįįáĪĭáĪį": 4704,
      "ĠáĬ¥áĭ«áĭ°áĪ¨áĮĪ": 4705,
      "ĠáĭĿáĮĭ": 4706,
      "áĭķáĪŃ": 4707,
      "ĠáĮĵáĭ°áĬĽáĪŀáī½": 4708,
      "áĮĢáĪĺáĪ¨": 4709,
      "áįĢáĭ°áĭŃ": 4710,
      "ĠáīłáīµáĪĿáĪħáĪŃáīµ": 4711,
      "áĪ°áĭĵáī³áīµ": 4712,
      "áĮįáī£áĪŃ": 4713,
      "áĮİáĭ³áĪħ": 4714,
      "Ġáĭ¨áĪļáĭ«áĪµáįĪáĪįáĮĪáĬĿ": 4715,
      "áĪĺáĮ½áĪĲáįįáīµ": 4716,
      "ĠáĭŃáĮłáīĢ": 4717,
      "Ġáįİáīħ": 4718,
      "ĠáīłáīĢáĬķ": 4719,
      "ĠáĬłáī£áī´": 4720,
      "áĮĢáĪįáī£": 4721,
      "áī¾áī½": 4722,
      "ĠáīłáĪ³áĪĿáĬķáīµ": 4723,
      "ĠáĬ¥áĭ¨áĮłáīłáīħáĬ©": 4724,
      "ĠáĮłáĪŃáĪĻáĪµ": 4725,
      "ĠáĮ¤áĬĵáĪĽ": 4726,
      "ĠáĪ°áĪįáī½": 4727,
      "áĪĪáĬ¥áĪŃáĭ³áī³": 4728,
      "áĪįáī£": 4729,
      "Ġáī¼": 4730,
      "áīłáīģ": 4731,
      "áīłáĭµáĬķáĮĪáīµ": 4732,
      "áĭµáĪ©": 4733,
      "áĬ¥áĪ³áī±": 4734,
      "ĠáīłáīłáĪ¨áĭ¶": 4735,
      "áĭ¨áĮĥáįĵáĬķ": 4736,
      "áĬĲáĭįáĬķ": 4737,
      "áĬłáĭ¨áĪ©": 4738,
      "áĮ£áĪ¬": 4739,
      "áĪ°áĬĵáĪį": 4740,
      "áĪīáĬĿ": 4741,
      "áīĢáĭ«": 4742,
      "áīĢáīĢ": 4743,
      "ĠáĪĽáī£áĬ¨áĬķ": 4744,
      "áįįáĮłáĬķ": 4745,
      "Ġáĭ«áĭ³": 4746,
      "Ġáĭ«áĪĭáī¸áĭį": 4747,
      "ĠáĪĪáĬłáĬķáī°": 4748,
      "áĪļáĪµáīµ": 4749,
      "ĠáĪįáĪĦáĭµ": 4750,
      "áĭĺáĪĭ": 4751,
      "áī¸áĭįáĪĿ": 4752,
      "áĪµáī°áĬŀáī½": 4753,
      "áĮĢáīµ": 4754,
      "áĪĪáī¥áĪµáĪĿ": 4755,
      "ĠáĬłáĬķáįĪáĪįáĮįáĪĿ": 4756,
      "ĠáĭµáĪįáĭµ": 4757,
      "ĠáĪµáĪ«áĪħáĬķ": 4758,
      "ĠáĬķáĮĪáĪ¨": 4759,
      "áĮĵáĭĽ": 4760,
      "ĠáĮİáĬķ": 4761,
      "áĬĴáī¨áĪŃ": 4762,
      "áĪ²áī²": 4763,
      "ĠáĪĿáĬŃáĬķáĭ«áī±áĪĿ": 4764,
      "ĠáĭĪáĬķáĮĢáĪį": 4765,
      "ĠáįĪáīĥáĭµ": 4766,
      "ĠáĬ¥áĬķáĭ²áĭ«áĭ°áĪŃáĮį": 4767,
      "Ġáī¥áĪŃáĪĥáĬķ": 4768,
      "ĠáĮ½áĪĳáįį": 4769,
      "áĬ¢áĬķ": 4770,
      "áĪĺáĪµáĬ®áī±": 4771,
      "ĠáĪįáī¥áĪ¶áī½áĬķ": 4772,
      "ĠáĪģáĪĪáī±áĪĿ": 4773,
      "áĬłáīµáĬŃáĪįáīµ": 4774,
      "áĮłáīĢáĪĻ": 4775,
      "ĠáīµáĭķáĮįáĪµáīµ": 4776,
      "áĪĪáī²áĬ«": 4777,
      "áĮİáĪ¨áī¤": 4778,
      "ĠáĪĿáĮįáī¦áī½": 4779,
      "Ġáĭ«áĮ¥áįī": 4780,
      "áĪĽáĮįáĪĮ": 4781,
      "áĬĴáī¨áĪŃáĪ²áī²": 4782,
      "áĬľ": 4783,
      "Ġáĭ®": 4784,
      "áĪĪáī£": 4785,
      "áĪĪáĬ¥áĪ±": 4786,
      "ĠáĬ¥áīħ": 4787,
      "ĠáĬ¥áĬĲáĮį": 4788,
      "áīłáĪĭáĪį": 4789,
      "áĪĺáĪĻ": 4790,
      "áī°áīĥ": 4791,
      "ĠáīłáĬ¥áĪ±": 4792,
      "ĠáīłáĪ«áĪ±": 4793,
      "ĠáĭŃáĮ®": 4794,
      "áĪ«áĪ²": 4795,
      "áĪ«áĮ®áī½": 4796,
      "áĬłáĪĿ": 4797,
      "áĮłáĪĿ": 4798,
      "áĮłáĬĽ": 4799,
      "áĪ°áĬķ": 4800,
      "áĪ°áĪµ": 4801,
      "áĬĽáĪĪáī½": 4802,
      "áĪ³áĪĿ": 4803,
      "áįįáĬĹáĪį": 4804,
      "Ġáī°áĬĲáĮĭáĮĪáĪŃ": 4805,
      "Ġáī°áĭĺáĮĭáĮħ": 4806,
      "ĠáĬłáĪįáĪ°áĮł": 4807,
      "ĠáĬłáĪįáĪ°áĪ«áĪĿ": 4808,
      "ĠáĬ¥áĬķáĭ°áĬĲáīłáĪ¨": 4809,
      "Ġáīµáĭį": 4810,
      "ĠáīµáįĪáĪ«": 4811,
      "ĠáĪĿáī³áīµ": 4812,
      "ĠáĭĪáĮª": 4813,
      "ĠáĭįáĪ°áĭµ": 4814,
      "áī»áīµ": 4815,
      "áĪªáīµ": 4816,
      "áĬ«áĭį": 4817,
      "ĠáĪįáĬĵ": 4818,
      "áĪĺáĪµáĪĪáĭį": 4819,
      "áįĭáįĭ": 4820,
      "ĠáĪģáĪĮáĪĿ": 4821,
      "áĮīáĪ¨": 4822,
      "Ġáĭ¨áī°áĬĲáĪ³": 4823,
      "áĮ«áĭį": 4824,
      "Ġáĭ¨áĪĿáĭĪáĭ°áĭį": 4825,
      "áĮİáĪĿ": 4826,
      "ĠáĪ³áĪĪáĪģ": 4827,
      "áĪĺáĪįáĬŃ": 4828,
      "áĭķáĭµ": 4829,
      "áīłáĬłáĪģáĬĳ": 4830,
      "ĠáĬłáĭįáĪ®áįķáĪĭáĬķ": 4831,
      "áĬĲáĮĭáĮĪáĪ©": 4832,
      "áĮłáĭŃáīĢáĬĿ": 4833,
      "ĠáīµáįĪáĪįáĮĭáĪĪáī½": 4834,
      "ĠáĪĮáĪĬáī±áĬķ": 4835,
      "ĠáĬ¥áĬķáĭ³áĪĪáĬĿ": 4836,
      "ĠáĪįáīµáĬĲáĮįáĪ¨áĬĿ": 4837,
      "áĭľáĬĵáĭįáĬķ": 4838,
      "Ġáī£áĪĪáĪĻáĭ«": 4839,
      "ĠáĭĪáĮ£áī½": 4840,
      "áĭĪáĪĪáĭ°": 4841,
      "áĭ¨áĭįáĮŃ": 4842,
      "áĮįáĭµáĮįáĭ³áĭį": 4843,
      "ĠáĬłáīłáī¦áī½": 4844,
      "ĠáĬłáĮĪáĪį": 4845,
      "áĮłáī¥áīħáĪħ": 4846,
      "áīłáĪħáĭŃáĭĪáīµ": 4847,
      "áĪĭáī½áĬĭáĪĪáĪģ": 4848,
      "ĠáĬłáĭµáĪŃáĮįáĪįáĬĿ": 4849,
      "ĠáĬĲáĮĪáĪ¨áī½áĭį": 4850,
      "ĠáĮ¸áĮ¥": 4851,
      "áĮĵáĭ°áĬŀáī½áĪħ": 4852,
      "Ġáī°áĪ¨áĭµáī»áĪĪáĪģ": 4853,
      "ĠáĪĺáĪĺáĮĪáī¥": 4854,
      "ĠáĪĽáĪĪáī´": 4855,
      "áīĢáĭ«áĪļ": 4856,
      "áĪĿáĬŃáĪŃ": 4857,
      "ĠáĬłáĬ«áĪį": 4858,
      "ĠáĬłáĪªáįį": 4859,
      "áĪµáĮĭ": 4860,
      "áĪµáĭµáĪµáīµ": 4861,
      "ĠáĬ¥áĪĺáĮ£áĪĪáĪģ": 4862,
      "áīłáĮłáĪ¨áĮ´áĭĽáĭį": 4863,
      "áīłáĭĵáĪĪáĪĿ": 4864,
      "áĭŃáĪĿ": 4865,
      "áĬ¥áĮĦáĬķ": 4866,
      "ĠáīłáĮĪáĬĵ": 4867,
      "ĠáīłáĪ¦áĪµáīµ": 4868,
      "Ġáīłáī£áĪħáĪŃ": 4869,
      "ĠáĭŃáĬŃ": 4870,
      "áī³áĭ²áĭ«": 4871,
      "áĮ¥áįį": 4872,
      "áĭĪáĭŃ": 4873,
      "Ġáī°áĪ³áīµ": 4874,
      "Ġáī¥áĪį": 4875,
      "ĠáĪµáĪįáĬ©": 4876,
      "ĠáĭįáĭŃáĭŃáīµ": 4877,
      "áĭĺáĮįáĭŃ": 4878,
      "áĭ¬áĭį": 4879,
      "áĭĻáĬķ": 4880,
      "áįĭáĪĪáī½": 4881,
      "áĪĨáĬķáĬ©": 4882,
      "ĠáĮĭáĭľáĮ£": 4883,
      "ĠáĬ¥áĭ¨áĪ°áĪ©": 4884,
      "áĪĪáĭįáĮ¥": 4885,
      "Ġáī³áī½": 4886,
      "áĮ½áĭ³áīµ": 4887,
      "Ġáĭ¨áī°áĪĺáĪ°": 4888,
      "áī½áĪģáīµ": 4889,
      "Ġáī¤áīµáĪħ": 4890,
      "áĪ¸áĬ¨áĪĿ": 4891,
      "ĠáĬŃáĪ¬": 4892,
      "áĪĲáįĬ": 4893,
      "áĪĺáĬķáĮįáĪµáīµ": 4894,
      "Ġáĭ¨áĪĽáĪį": 4895,
      "áīĭáĪŃáĮ¥": 4896,
      "áĪĭáīµáĪĿ": 4897,
      "ĠáĬķáįĭáĪµ": 4898,
      "Ġáī¢áĬĸáĪ¨áĬĿ": 4899,
      "Ġáī¢áĪĭáĭĭ": 4900,
      "ĠáĪĦáĭµáĬŃ": 4901,
      "ĠáĬłáĪ³áįĭáĪª": 4902,
      "ĠáĬłáĪ³áĭįáīĢáĬĿ": 4903,
      "áĭ¨áĪļáĭĪáĭ±áīµ": 4904,
      "ĠáĬ¥áĬķáĭ°áĪĿáįĪáĪįáĮį": 4905,
      "ĠáĪĺáĬªáĬĵáĭį": 4906,
      "ĠáĪĮáĪİáī½": 4907,
      "ĠáĬ¨áĪĺáĪĦáĭµ": 4908,
      "ĠáĬ¨áĪĺáĮłáĬķ": 4909,
      "áĭ¨áĬłáĭ¨áĪŃ": 4910,
      "áĬķáĮįáĮįáĪŃ": 4911,
      "áĬłáĭįáĪ®áįķáĪĭáĬĳ": 4912,
      "ĠáĪ°áĮłáī½áĭį": 4913,
      "ĠáĪļáĪµáīµ": 4914,
      "áĭįáĪĥáĭį": 4915,
      "ĠáĭĪáĮ¥áī·áĪį": 4916,
      "ĠáĬłáĬķáī¥áīłáĭĭáĪį": 4917,
      "ĠáĮłáī¥áīĦ": 4918,
      "Ġáĭ°áĪ¨áĪµáĬŃ": 4919,
      "Ġáī°áĭĺáĮįáī·áĪį": 4920,
      "ĠáīµáĬĵáĮĪáĪ«áĪĪáĪħ": 4921,
      "áįķáĪ¬áĭļ": 4922,
      "ĠáĬ¥áĭ¨áĪŀáĬ¨áĪ¨": 4923,
      "ĠáĪĺáĬ¨áĪĭáĬ¨áĭ«": 4924,
      "áĮ¦áĪŃáĬĲáī±": 4925,
      "Ġáī°áī¥áĪİ": 4926,
      "ĠáĬłáĪ³áĪĪáįįáĬ©": 4927,
      "Ġáĭ¨áĮİáĭ°": 4928,
      "ĠáĭŃáīłáĪĭáĪī": 4929,
      "áĭĺáĪĭáĪĪáĪĿ": 4930,
      "Ġ5": 4931,
      "áĪĿáĪĪáĮ¥": 4932,
      "áĪĪáĬĵáĪį": 4933,
      "áĪĪáĪĥáĪį": 4934,
      "ĠáĬłáĮĪáĬĽ": 4935,
      "ĠáĬ¥áĬ¨áįį": 4936,
      "ĠáĬĲáĮįáĪ®": 4937,
      "áĭŃáĪĪáĬĽ": 4938,
      "áĬ¥áĪģáĭµ": 4939,
      "áĪ¨áĭĿ": 4940,
      "áĪ¨áĮ¡": 4941,
      "áī¥áĪį": 4942,
      "Ġáĭ¨áĮĥáįĵáĬķ": 4943,
      "áĬĵáĭŃ": 4944,
      "áĬĲáįĥ": 4945,
      "ĠáĭŃáī°": 4946,
      "ĠáĭŃáĮłáĬķáīĢáīģ": 4947,
      "áĮłáįį": 4948,
      "áĬ¨áįĪáĪĪáĮįáĬŃ": 4949,
      "ĠáĪĽáĪĪáįį": 4950,
      "áĪ³áī¤áĬķ": 4951,
      "Ġáī°áī¸": 4952,
      "Ġáī°áĭĺ": 4953,
      "ĠáĪĪáĪĿ": 4954,
      "ĠáĬłáĪįáĬŃ": 4955,
      "ĠáĬ¥áĬķáĭ°áĪ°áĪ«": 4956,
      "ĠáĬ¨áĬ¥áĬķáĮįáĭ²áĪħ": 4957,
      "ĠáĪ°áī£áīµ": 4958,
      "ĠáĬĲáĮĪáĪŃáĬ©áīµ": 4959,
      "áĬ¥áĬķáĮ¨áīµ": 4960,
      "ĠáĬ¥áĭ¨áĮłáīłáīģ": 4961,
      "ĠáĬ¥áĬķáĭ³áĪĭ": 4962,
      "ĠáĬ¥áĬķáĭ³áĭ«": 4963,
      "Ġáī³áĮĪáĬĽ": 4964,
      "ĠáĬ¥áĬĵáĪµ": 4965,
      "ĠáĪĪáĪĺáĮłáĭ¨áīħ": 4966,
      "ĠáĪĪáĪĺáīĨáĭ¨áīµ": 4967,
      "áĬ®áĪĿáįĴáĭįáī°áĪŃ": 4968,
      "ĠáĬ¥áĬķáĭ°áĪļáĪĺáĮ£": 4969,
      "ĠáĬ¥áĬķáĭ°áĪļáįĪáĪįáĮī": 4970,
      "áĪĺáĬķáĭ³áīµ": 4971,
      "ĠáįįáĬķ": 4972,
      "ĠáĬŃáįįáĪĮ": 4973,
      "áĮłáī¥áīħáĪĿ": 4974,
      "ĠáĬłáĪµáī°áĬ«áĬŃ": 4975,
      "Ġáī°áĬĵáĮĭáĪª": 4976,
      "áĬłáĪµáīĤáĬĿ": 4977,
      "ĠáĬłáĪĿáĪįáĮ¦": 4978,
      "ĠáĪĺáĮįáĪĪ": 4979,
      "áīłáīĢáĬķ": 4980,
      "ĠáĪ¥áĮĭ": 4981,
      "áĮłáĬĵáīĢáīħ": 4982,
      "ĠáĪĺáĪĪáĭ¨áīµ": 4983,
      "áĪĲáĭŃáīģ": 4984,
      "Ġáī³áĪĿáĪľ": 4985,
      "Ġáĭ¨áĪĺáĮĢáĪĺáĪªáĭ«áĭį": 4986,
      "ĠáĬ¥áĪħáīµ": 4987,
      "áīłáĬłáĭįáī¶áī¡áĪµ": 4988,
      "áīĥáĭĪáĪĿ": 4989,
      "ĠáĬłáĭ°áĪ¨áĮī": 4990,
      "áĪ°áīĥáīĤ": 4991,
      "ĠáĮĵáĭ°áĬŀáī¼": 4992,
      "ĠáĬ¥áĭĪáĭµáĪĥáĪĪáĪģ": 4993,
      "ĠáĮĪáĬķáĭ³": 4994,
      "ĠáĬ¨áĬķáī±": 4995,
      "áĭ°áī£áī£áĭŃ": 4996,
      "Ġáĭ«áĪ³áĭĿáĬĵáĪį": 4997,
      "áĬ»": 4998,
      "áĭįáĭ«áĬķ": 4999,
      "ĠáĬłáįĵáĪŃáī³áĪĽ": 5000,
      "áĪµáĪĭáĪ³": 5001,
      "ĠáĬ¥áĪĿáĬĲáīµ": 5002,
      "áĪħáĭŃáĭĪ": 5003,
      "ĠáĬĲáīĢ": 5004,
      "áīłáī£áĪħáĪŃ": 5005,
      "áĭ°áĭ±": 5006,
      "áī½áĭįáĬķ": 5007,
      "Ġáĭ¨áĭĪáĬķáĭµ": 5008,
      "ĠáīłáĭµáĬķáĮĪáīµ": 5009,
      "áĬĵáĭŃáīµ": 5010,
      "áĬĲáĪħ": 5011,
      "áĬĲáĮ»": 5012,
      "áįĪáī³": 5013,
      "áĬŃáįĪáĪį": 5014,
      "áĬŃáįī": 5015,
      "áīĢáĬĽ": 5016,
      "áīĢáīģ": 5017,
      "ĠáĬ¨áĪ¶áĪµáīµ": 5018,
      "ĠáĬ¨áįĪáĪĪáĮįáĬŃ": 5019,
      "ĠáĭĪáĪĪáĭµ": 5020,
      "áī»áĪī": 5021,
      "Ġáĭ°áĬ«áĪĽ": 5022,
      "Ġáĭ°áĪŀáĭĿ": 5023,
      "ĠáĮ¥áĪįáīħ": 5024,
      "ĠáĬłáĪĭáĭĪ": 5025,
      "áĪİáī¹áĬķ": 5026,
      "áĪİáĮĤ": 5027,
      "áĮĪáĬĵáĬķ": 5028,
      "áĮİáī°áīµ": 5029,
      "ĠáĪĬáĬĲáĮį": 5030,
      "ĠáĬłáīµáĪģáĬĳ": 5031,
      "ĠáĬłáīµáĪĺáĪµáĪįáĪĿ": 5032,
      "áĬ¥áĬķáĭ°áĪĽ": 5033,
      "áĪ¸áĪļ": 5034,
      "ĠáĭĺáĮĭáĭį": 5035,
      "ĠáĭĺáįĭáĬĿ": 5036,
      "Ġáīµáī½áĪĭáĪĪáī½": 5037,
      "Ġáī¶áĪİ": 5038,
      "áĪ¶áįĭáĭį": 5039,
      "ĠáĬłáĪįáī»áĪįáĬķáĪĿ": 5040,
      "ĠáĬ¥áĬķáĭµáīµáĪĺáĮ£": 5041,
      "ĠáĬ¥áĬķáĭ°áĪĽáĭ°áĪŃáĮĪáĭį": 5042,
      "ĠáĮĵáĭ°áĬĽáĭ¬áĬķ": 5043,
      "ĠáĪĺáĮ½áĪĲáįįáīµ": 5044,
      "áĭĪáĮ£áĭį": 5045,
      "ĠáīłáĪĽáĪŃáĭ«áĪĿ": 5046,
      "áĪ²áĭ«": 5047,
      "áĪ¥áĭķ": 5048,
      "ĠáĪ«áīħ": 5049,
      "ĠáĬ®áĪĿáįĴáĭįáī°áĪŃ": 5050,
      "ĠáĬłáĮįáĬĿáī¼áĭĭáĪĪáĪģ": 5051,
      "ĠáĮĪáī£áĪħ": 5052,
      "áĬ¥áĬķáĭµáī³": 5053,
      "Ġáī£áĪĪáī¤áīµ": 5054,
      "áĬłáĭįáĪİ": 5055,
      "Ġáĭ¨áĪĿáĬķáī½áĪį": 5056,
      "ĠáĪĺáīĢáĮłáĪį": 5057,
      "Ġáĭ°áī¥áī°áĪŃ": 5058,
      "áįĪáĪįáĮīáĪĿ": 5059,
      "Ġáĭįáĭµáīħ": 5060,
      "ĠáĪŃáĭķ": 5061,
      "ĠáĪĺáĭĿáĮĭáīµ": 5062,
      "áĬķáīĢáĪ³áīĢáĪµ": 5063,
      "áĬ¨áĬķáī±": 5064,
      "ĠáĬªáĪİ": 5065,
      "áĬ¥áĬķáĭ³áĬķáī°": 5066,
      "áįĪáī°áĬĵáĭįáĬķ": 5067,
      "ĠáįĵáĪŃáī²áĭį": 5068,
      "áĮ¨áĭĭáī³áĭį": 5069,
      "ĠáĭŃáī³áĮł": 5070,
      "Ġáĭ°áĪ¨áĪµáĬķ": 5071,
      "ĠáĭŃáĪĺáĪĪáĬ¨": 5072,
      "Ġáĭ«áĪįáī°áĪĪáĪĺáĭ°": 5073,
      "áī¤áī°áĪ°áī¤": 5074,
      "ĠáīłáĬłáĭįáĪµáīµáĪ«áĪĬáĭ«": 5075,
      "ĠáĬłáĭŃáįĪáīĢáĭµ": 5076,
      "áĮĪáĪŃáĪĺáĬĽáĪį": 5077,
      "áįĲáĪŃáĪĽáĪŃ": 5078,
      "áĪĪáīģ": 5079,
      "áĪįáīłáīµ": 5080,
      "ĠáĬłáĪ¨áĬķáĮĵáĭ´": 5081,
      "áīłáĬ¥áĮįáĪŃ": 5082,
      "áīłáĪµáī¥áĪ°áī£áĭį": 5083,
      "áīłáįĵáĪŃáĬ©": 5084,
      "áīłáĬ¥áĪŃáĮįáĮłáĬĿáĬĲáīµ": 5085,
      "áĭ°áĪħáĬķáĬĲáīµ": 5086,
      "áĪĭáĮ£": 5087,
      "áĪĭáī½áĬķ": 5088,
      "Ġáĭ¨áĮł": 5089,
      "áĭ«áĭĺ": 5090,
      "áĭ«áįĬ": 5091,
      "áĬĵáī½": 5092,
      "ĠáĪĺáīĨáĪĿ": 5093,
      "áĬĲáĭĭáĪį": 5094,
      "áĪĽáĭ¨áīµ": 5095,
      "áĪĽáĪĪáī½": 5096,
      "áĪĽáĪµáī³áĭĪáĪ»": 5097,
      "ĠáĭŃáĭĭ": 5098,
      "ĠáĭŃáī½áĪį": 5099,
      "ĠáĭŃáĭĪáĮ£áĪį": 5100,
      "áĪ«áĪĺáĭµ": 5101,
      "áĬłáĮł": 5102,
      "áĬłáĭ³": 5103,
      "áĬ¨áĬ¥áĪ·": 5104,
      "Ġáī°áĭŃ": 5105,
      "Ġáī°áĮĪáĭµ": 5106,
      "ĠáĬłáĭŃáī°": 5107,
      "ĠáĪĪáĪģáĪĪáīµ": 5108,
      "Ġáī¥áĪ©áĪħ": 5109,
      "ĠáĬłáĪįáĭĪáĭ°": 5110,
      "ĠáĬłáĪįáĬĲáĮĪáĪ¨": 5111,
      "ĠáĬłáĪĪáī½": 5112,
      "ĠáĬłáĪĪáī£áīµ": 5113,
      "ĠáĪµáĮĭ": 5114,
      "ĠáĪµáĬ¬": 5115,
      "ĠáĪµáĬ¬áīµ": 5116,
      "ĠáĪ°áīłáĪ¨": 5117,
      "ĠáĪĭáĬ¨": 5118,
      "áĪ½áī±": 5119,
      "ĠáĬłáĪµáī³": 5120,
      "Ġáĭ°áĪħáĬķáĬĲáīµ": 5121,
      "Ġáĭ°áĪµáī°áĬŀáī½": 5122,
      "áĬ¥áĬķáĭ³áīµ": 5123,
      "áĬĲáīµáĪħ": 5124,
      "ĠáĮ¥áīłáī¥": 5125,
      "áĭ°áĪŃáĪµáī¥": 5126,
      "áĪŀáĬĵ": 5127,
      "áĪŀáī±": 5128,
      "ĠáĬ¥áĬķáĭ³áĮĪáĬĺ": 5129,
      "áī¡áĭµáĬķ": 5130,
      "áĪµáī°áĪĿ": 5131,
      "áĬ¥áĪŃáĪ³": 5132,
      "ĠáĪĪáĪĺáĮİáī¥áĬĺáīµ": 5133,
      "áĮĪáĬĵáĬĻ": 5134,
      "ĠáĪĬáĪĨáĬĳ": 5135,
      "áī¦áī³": 5136,
      "Ġáī£áĭįáīħ": 5137,
      "ĠáĬłáĬķáĭ³áī¸áĭį": 5138,
      "áī°áĬĽáĭį": 5139,
      "ĠáĬ¥áĭ«áĪ³": 5140,
      "áĪĺáĪįáĪ±áĬķ": 5141,
      "ĠáĪĨáĬĲáĭį": 5142,
      "ĠáĭĺáĮĭ": 5143,
      "áī³áĭįáīĢáĭį": 5144,
      "áĬłáĬķáĭ³áĬķ": 5145,
      "áīĢáĮ¥áī³": 5146,
      "áĪģáīµáĪĿ": 5147,
      "ĠáĮİáĪ¨": 5148,
      "Ġáī°áĬĵáĭµ": 5149,
      "áĬĴáĬŃ": 5150,
      "áĮ»áįĪ": 5151,
      "áĪķáĭŃáĭĪáī´": 5152,
      "Ġáīłáī°áī»áĪĪ": 5153,
      "ĠáĭĪáĪ°áĬķáĬ©": 5154,
      "áĭ¨áĪĿáīµáĬĵáĮĪáĪ¨áĭįáĬķ": 5155,
      "áīłáī°áĪĪáĭŃ": 5156,
      "ĠáĪŃáīĢáīµ": 5157,
      "ĠáĪĺáĭĿáĬĲáī¥": 5158,
      "áĭ°áĭµáĬŃ": 5159,
      "Ġáī£áī¡áĪ©": 5160,
      "ĠáĪľáīµáĪŃ": 5161,
      "Ġáī³áĪĿáĬĵáĪĪáĪħ": 5162,
      "ĠáĬłáĪįáĬĲáīłáĪ¨áī¥áĪħáĪĿ": 5163,
      "Ġáī°áĪµáĪĽáĪĿ": 5164,
      "Ġáī¥áī¸áĬĽáĭį": 5165,
      "ĠáĭŃáĭ°áĪŃáĪ³áĪį": 5166,
      "ĠáĪĽáĪ¨áįĬáĭ«áĭį": 5167,
      "Ġáī°áĮłáĭ«áīĤáĭį": 5168,
      "Ġáĭ°áĭĪáĪįáĬ©": 5169,
      "ĠáĬłáĪĺáĪĪáĬ«áĬ¨áīµ": 5170,
      "ĠáĭŃáīĢáĮ¥áĪī": 5171,
      "ĠáĪįáĪĽáĭµ": 5172,
      "ĠáīµáĮ«áĭĪáī³áĪĪáĪħ": 5173,
      "áįĲáĪŃáĪĽáĪŃáĬ¬áīµ": 5174,
      "áĪĿáĬĳ": 5175,
      "Ġáĭ©": 5176,
      "ĠáĬłáīģ": 5177,
      "áĪµáī¼": 5178,
      "áĭ°áĬĽáĪį": 5179,
      "áī½áĪīáīµ": 5180,
      "áĬ¥áīĥ": 5181,
      "áĬ¥áī¥áĭµ": 5182,
      "Ġáĭ¨áĬ¥áĮħ": 5183,
      "Ġáĭ¨áĭįáĮŃ": 5184,
      "Ġáīłáĭµ": 5185,
      "ĠáīłáĮįáĪį": 5186,
      "áįĪáĪ©": 5187,
      "ĠáĭŃáĮ£": 5188,
      "ĠáĭŃáĪµáĪĽáĪĽ": 5189,
      "áĪ«áĪļ": 5190,
      "áįįáĮ¹áĪĿ": 5191,
      "Ġáī°áĪ°áĪŃ": 5192,
      "Ġáī°áĬĲáĪµ": 5193,
      "áīĥáĪĭ": 5194,
      "ĠáĬ¨áįĪáī°": 5195,
      "áī»áī½áĬĭáĪĪáĪģ": 5196,
      "áĭĺáĭĭáĪį": 5197,
      "ĠáĬłáĪĭáĭįáīĢáĭįáĪĿ": 5198,
      "ĠáĬ¥áĭ¨áĮł": 5199,
      "ĠáĬ¥áĬķáĭ³áĭ°áĪ¨áĮį": 5200,
      "Ġáī³áĮĭáĪ½": 5201,
      "áĪµáī°áĪĥáĪį": 5202,
      "ĠáĬ¥áĬķáĭ²áĪģ": 5203,
      "ĠáĬ¥áĬķáĭ°áĪļáĪĺáĪµáĪį": 5204,
      "ĠáĪ³áĪį": 5205,
      "ĠáĬ¥áĭ«áĭĪáĪ«": 5206,
      "ĠáĬŃáįįáĪīáĬķ": 5207,
      "ĠáĪĦáĭ·áĪį": 5208,
      "áĮĵáĮĵ": 5209,
      "ĠáĪĺáĬªáĬĵáĭįáĬķ": 5210,
      "ĠáĭĽáįİáī½": 5211,
      "ĠáĬłáī¥áĭĽ": 5212,
      "ĠáĭŃáĮĪáī£áĬĽáĪį": 5213,
      "ĠáĪįáī³áĭ°áĪŃáĮį": 5214,
      "áĪ¾áī½áĬķ": 5215,
      "ĠáĪĪáī¥áĪ³áĪĪáī½": 5216,
      "ĠáĪĽáĪµáī°áĪĽáĪŃ": 5217,
      "áĬ¨áĬĿáĬķ": 5218,
      "Ġáī°áĬķáĬ®áĪĪáĬĽ": 5219,
      "áĮ¢áĪŃ": 5220,
      "ĠáĪ¹áĪ«áī¥": 5221,
      "áįĬáĪįáĪĻ": 5222,
      "ĠáīĨáĪŃáĮ¬": 5223,
      "ĠáĪĺáĬķáĮĪáĭ±áĬķ": 5224,
      "ĠáĪĺáī¥áĪ«áī±áĬķ": 5225,
      "ĠáĬłáīĢáĪ¨áīł": 5226,
      "ĠáĬ¥áĬķáĭ°áĪĽáĪįáī½áĪį": 5227,
      "Ġáĭ¨áĪļáīĨáĮłáĪ©": 5228,
      "ĠáĬłáĪµáīĨáĪ«áĮŃ": 5229,
      "Ġáĭ«áĪ¨áĮĭáĮįáĮ¡": 5230,
      "ĠáĭŃáĪĺáĪĪáĬ¨áī³áĪį": 5231,
      "áĮĩ": 5232,
      "áīµáĭķ": 5233,
      "Ġáĭŀ": 5234,
      "ĠáĬłáĬĲáĮĭ": 5235,
      "ĠáĬĲáįį": 5236,
      "áīłáĪĿáĬķ": 5237,
      "áĮįáĮħ": 5238,
      "áī¥áī¶": 5239,
      "Ġáĭ¨áĬ¥áĬĽ": 5240,
      "ĠáīłáĮĥáįĵáĬķ": 5241,
      "ĠáĪĺáįįáīµáĪĦ": 5242,
      "áĭ¨áī±": 5243,
      "áĭ¨áĮłáĭ¨áīħ": 5244,
      "áįĪáĪĥáĪį": 5245,
      "ĠáĭŃáĭĿ": 5246,
      "ĠáĭŃáīłáĪĭáĪį": 5247,
      "áī¶áĪĥáĪį": 5248,
      "áĮ£áįĭ": 5249,
      "áĬ¨áī¤áīµ": 5250,
      "áīħáĪ¨áī¥": 5251,
      "ĠáĪĪáĮ¥áīĤáīµ": 5252,
      "ĠáĬłáĪįáĮłáīł": 5253,
      "ĠáĪ°áĪĮ": 5254,
      "áĬ«áĪļ": 5255,
      "ĠáĪįáĮĥáĮĪáĪ¨áĭ¶áī½": 5256,
      "áĪĦáĭŃ": 5257,
      "áĪ®áīµ": 5258,
      "ĠáĬłáĪĭáĪįáĬ©áĪĿ": 5259,
      "ĠáĬłáĪĭáĭ°áĪ¨áĮĪ": 5260,
      "ĠáĪĪáĪĺáĪį": 5261,
      "ĠáĪĪáĪĺáĮłáīłáīħ": 5262,
      "ĠáĪĪáĪĺáĮĵáĭĿ": 5263,
      "ĠáĮįáĪŃ": 5264,
      "áĮĪáĬĵáĬĽ": 5265,
      "áī·áī³áĪį": 5266,
      "Ġáī£áĬķáĬŃ": 5267,
      "ĠáĭµáĮį": 5268,
      "áĪĬáĭ«áĬķ": 5269,
      "áĮĥáįĵ": 5270,
      "Ġáĭ¨áĪĽáĪŃáĭ«áĪĿ": 5271,
      "ĠáĪŀáĪį": 5272,
      "ĠáĪŀáĬĿáĬĲáīµ": 5273,
      "áĪĺáĪŃáĬ¨": 5274,
      "áĭ¨áī°áĭĪáĪĪ": 5275,
      "ĠáĮĢáĪįáī£": 5276,
      "ĠáĬłáĪįáī°áĬĵáĮĪáĪ¨": 5277,
      "ĠáĪįáīµáĬĲáĮįáĪ©áĬĿ": 5278,
      "áĬłáī£áī±": 5279,
      "ĠáĪķáĪĺáĪĿ": 5280,
      "áĭ¨áĪĺáĮ¨áĪ¨áĪ»": 5281,
      "áĮįáī£áī£áīµ": 5282,
      "áĬ«áĪįáī°": 5283,
      "ĠáĭŃáĪ»áĪĪáĬĽáĪį": 5284,
      "áīłáįįáīħáĪŃ": 5285,
      "áīłáįįáĮ¹áĪĿ": 5286,
      "áĬķáīĭáĪį": 5287,
      "ĠáĪ°áĮłáī½áĬĿ": 5288,
      "áĬłáĪµáī°áĭ«áĭ¨áīµ": 5289,
      "ĠáĪĪáī¥áĪ·áĪį": 5290,
      "ĠáĪĺáĪĪáĭĪáĮ¥": 5291,
      "ĠáĬłáĭµáĪŃáĮĪáĬĵáĪį": 5292,
      "áĬŃáĪµáī´": 5293,
      "ĠáīµáĬ©áĪµ": 5294,
      "áĭ¨áĬ¥áĪŃáĪµáĭİáĬķ": 5295,
      "ĠáĪĺáĬĲáĮ½áĪŃ": 5296,
      "ĠáīĢáĪ¨áĪģ": 5297,
      "ĠáĪĺáĪ«áĪĺáĭµ": 5298,
      "áī°áĪĽáĪªáĭİáī¹": 5299,
      "áĬłáī¥áĭĽáĬŀáī¹": 5300,
      "áĭĪáĪĭáĮĨáī¹": 5301,
      "ĠáĮĨáĪ®": 5302,
      "ĠáĪĺáĬķáīĢáĮ¥áīĢáĮ¥": 5303,
      "áĮłáĬĲáīĢáīħ": 5304,
      "ĠáĪĽáĪįáīĢáĪµ": 5305,
      "ĠáĮ¥áįĭáī°áĬĽ": 5306,
      "Ġáĭ«áĮįáĬĻ": 5307,
      "áĪįáĮĨáī¼": 5308,
      "áĭįáīģáĪĿ": 5309,
      "ĠáĬłáĮ½": 5310,
      "áĪŃáĪĺáĬķ": 5311,
      "áĪŃáĮĤ": 5312,
      "áĪµáĪĻáĬķ": 5313,
      "ĠáĬ¥áĪº": 5314,
      "áīłáĭ¨áīµáĬĽáĭį": 5315,
      "áĪĭáĬķáĭµ": 5316,
      "áī°áĪĺáĪįáĬ¨áīµ": 5317,
      "áī¥áĪįáĪħ": 5318,
      "áĭ«áĪī": 5319,
      "ĠáīłáĮłáĪ¨áĮ´áĭĽáĭį": 5320,
      "ĠáĪĺáĮ¨áĬĲáīħ": 5321,
      "ĠáĪĺáīģáĪ¨áĮ¥": 5322,
      "áĭ¨áĭļáĭ«": 5323,
      "áĬĲáĮŃ": 5324,
      "áįĪáīĥ": 5325,
      "ĠáĭŃáĬ¨áī¥": 5326,
      "ĠáĭŃáįĪáĪįáĮī": 5327,
      "áĪ«áĮ£áĪª": 5328,
      "áī¶áī¼": 5329,
      "áĭĪáī°áīµ": 5330,
      "áĮ£áĮ«": 5331,
      "áĭ³áĭ°áĪŃ": 5332,
      "áĬ¨áĪ±": 5333,
      "áĬ¨áĪ»": 5334,
      "áīĢáĪįáĭµ": 5335,
      "áĮĭáĭľáĮ£": 5336,
      "áĭİáī³áĪĪáĪģ": 5337,
      "Ġáĭ«áīģáĪĻ": 5338,
      "Ġáī°áīłáĪ³áĮ¨": 5339,
      "ĠáĬłáĭŃáĪµ": 5340,
      "Ġáī¥áĪĦáĭµ": 5341,
      "áĭĭáĭŃ": 5342,
      "ĠáĪ°áĬĲ": 5343,
      "ĠáĪĭáĪ³áĭŃáĪħ": 5344,
      "ĠáĪĭáĭŃáĪĨáĬķ": 5345,
      "áĬ¥áĬķáĪµ": 5346,
      "áĬ¥áĬķáĬ³áĬķ": 5347,
      "áĭĺáįĪ": 5348,
      "áĭĺáįįáĬķ": 5349,
      "áĭĻáīµ": 5350,
      "áĪŀáī£áĭŃáĪį": 5351,
      "Ġáĭ¨áĪļáĬĸáĪ©áīµ": 5352,
      "ĠáĬ¥áĬķáĭ³áī³": 5353,
      "áĬĳáĪŃ": 5354,
      "áīłáīµáĪĿáĪħáĪŃáīµ": 5355,
      "Ġáĭ¨áī°áĪ°": 5356,
      "Ġáĭ¨áī°áĪ³": 5357,
      "ĠáĪĬáĬĸ": 5358,
      "áĬ®áĪĿáįĴ": 5359,
      "ĠáĬŃáĪ«áī£áīµ": 5360,
      "ĠáĪ³áĭ«": 5361,
      "ĠáĬłáĭ«áĭįáīģáĪĿ": 5362,
      "ĠáĭĺáĬĵ": 5363,
      "ĠáĬ¥áĪµáĪŃ": 5364,
      "áįįáīµáĪĥáĭĬ": 5365,
      "áĭ¨áĪļáĪĪáĭįáĬķ": 5366,
      "áīĢáĭµáĪįáĬĿ": 5367,
      "ĠáīłáĬłáĮĭáĮ£áĪļ": 5368,
      "áĮĬáī³áĪŃ": 5369,
      "áĮ¦áī½áĬķ": 5370,
      "ĠáĮ£áĪį": 5371,
      "áĮ¸áĭ«áįĬ": 5372,
      "áĪ°áĭįáĭ¬áĭį": 5373,
      "ĠáĪ«áīģ": 5374,
      "áĪĺáĬªáĬĵáĭ¬áĬķ": 5375,
      "áĪĿáĮ£áīµáĪħ": 5376,
      "ĠáĪĽáĪµáīĢáĪĺáĮ«": 5377,
      "ĠáĬłáĮ¥áī·áĪį": 5378,
      "áĪ°áĮ¥áĪĿ": 5379,
      "áĭ£áĪĪáĪģ": 5380,
      "ĠáĭŃáĮłáĮ¡": 5381,
      "Ġáī°áĬ¨áĪµáī·áĪį": 5382,
      "áĭ°áĪŃáĮĪáĭįáĬķ": 5383,
      "Ġáĭ«áĪīáīµáĬķ": 5384,
      "áĭ°áī¥áĭ³áī¤áĭįáĬķ": 5385,
      "áīģáĪįáįīáĬķ": 5386,
      "ĠáĪĺáĪĿáĪ¨áĮ¥": 5387,
      "ĠáĪ¬áĪµáī¶": 5388,
      "ĠáĮ¡áĪ¨áī³": 5389,
      "áĬłáĭĿáĬĵáĪĪáĪģ": 5390,
      "ĠáĪ¾áĪŃáī£": 5391,
      "áĪ¸áĬĲáįĪ": 5392,
      "ĠáĪķáįĥáĬķ": 5393,
      "ĠáįĸáĪĬ": 5394,
      "ĠáįĢáĮī": 5395,
      "Ġáĭ£": 5396,
      "ĠáĬłáĪ®áĮĮ": 5397,
      "ĠáĬ¥áĮ«áĭĪ": 5398,
      "áĪģáĬĶáī³": 5399,
      "ĠáĮ©": 5400,
      "ĠáīłáĭįáĪĥ": 5401,
      "ĠáĪĺáĪĿáĪħáĪŃ": 5402,
      "áĭ¨áĪ±": 5403,
      "áĪĽáī¥áĪ«": 5404,
      "ĠáĭŃáĭŀ": 5405,
      "ĠáĭŃáĮĪáĪŃáĪĺáĬĽáĪį": 5406,
      "áĮ¥áĬĳáĬķ": 5407,
      "áĭĪáĭ«áĭŃ": 5408,
      "áĮłáĬĵáĪį": 5409,
      "áĪ³áī¡": 5410,
      "áįįáī±": 5411,
      "ĠáĬłáĭŃáĬĵáĮĪáĪŃáĪĿ": 5412,
      "ĠáĬłáĪįáī°áĬĽ": 5413,
      "ĠáĬłáĪįáĭ°áĪ¨": 5414,
      "ĠáīµáīłáĪĭ": 5415,
      "ĠáīµáĭĪáĪµ": 5416,
      "ĠáĭĪáĪĪ": 5417,
      "ĠáĪµáĪĿáĬķáīµ": 5418,
      "ĠáĭįáĪ¸áī³áĪĿ": 5419,
      "ĠáĬłáĪĭáĭ°áĪ¨": 5420,
      "ĠáĬłáĪĭáĭ°áĪŃáĮĪáĭįáĪĿ": 5421,
      "ĠáīĢáĪį": 5422,
      "Ġáĭ¨áĪļáĭĪáĪµ": 5423,
      "áī´áĬŃ": 5424,
      "ĠáĬ¥áĭ¨áīĢ": 5425,
      "áĮħáĪĻ": 5426,
      "ĠáĪĪáĪĺáĬĲáĮĭáĮĪáĪŃ": 5427,
      "áĭĪáĭ°áĬĿ": 5428,
      "Ġáĭ¨áī°áĪ°áĪ«": 5429,
      "áī¼áĭĿ": 5430,
      "Ġáĭ¨áĪĿáĬĵ": 5431,
      "áĪľáĬķ": 5432,
      "áĮĨáĪ®": 5433,
      "ĠáĮ¥áĪ©áĭį": 5434,
      "áī¦áī¹": 5435,
      "ĠáĭĺáĬķáĭµ": 5436,
      "áĪ¨áĭ³áĬķ": 5437,
      "áī²áĪµáīµ": 5438,
      "Ġáĭ«áĪĪáįĪ": 5439,
      "ĠáĪ²áĪį": 5440,
      "Ġáī¢áĪĨáĬķáĪĿ": 5441,
      "ĠáīģáĪĿ": 5442,
      "áĭ¨áī°áĪ³áĪ³áī°": 5443,
      "ĠáĬłáĭµáĪŃáĮī": 5444,
      "áĮ¨áĪ¨áīĥ": 5445,
      "ĠáĮ¨áĪ¨": 5446,
      "áįĥáįī": 5447,
      "áĬ¬áĬŃ": 5448,
      "áĬ¸áīµ": 5449,
      "áĬĻáīµ": 5450,
      "áĪĪáĬĿáĬķ": 5451,
      "áĪµáĪĿáĪħáĬķ": 5452,
      "ĠáĬ¥áĬķáĭ³áĪįáī°": 5453,
      "ĠáĮĪáī£áī½": 5454,
      "ĠáĮĪáī£áĬĿ": 5455,
      "áĮ¤áĬķ": 5456,
      "Ġáĭ«áĪįáĬ¨áĭį": 5457,
      "Ġáĭ¨áĪĿáĬķáįĪáĪįáĮĪáĭį": 5458,
      "áīłáī°áī»": 5459,
      "Ġáī¤áī°áĪ°": 5460,
      "ĠáĬ©áĬª": 5461,
      "ĠáĬ¥áĭ¨áĪ°áĪ«áĪģ": 5462,
      "Ġáī°áīĢáī£áĭŃ": 5463,
      "ĠáĬłáĪ³áĪįáįĮáĭ«áĪĪáĪģ": 5464,
      "áĮĪáĬķáĭĺáī¡": 5465,
      "ĠáĬĥáĭŃáĪį": 5466,
      "ĠáĮ»áįĪ": 5467,
      "Ġáī¦áĪŃáĪ³áĭ¬áĬķ": 5468,
      "ĠáĪ°áĪ«áī°áĬĽ": 5469,
      "ĠáĪĺáĮĪáĬĺáīµ": 5470,
      "Ġáĭ«áĪµáīĢáĪĿáĮ¡áīµ": 5471,
      "ĠáįĭáĭŃ": 5472,
      "ĠáĪĪáĪĽáĬķáīłáī¥": 5473,
      "áĬ¥áĪ«áĪµáĭİáĬķ": 5474,
      "áĪ½áĪŃáĪ½áĪŃ": 5475,
      "ĠáĮİáĭ³áĬĵ": 5476,
      "áĪµáī²áĬŃ": 5477,
      "Ġáĭ¨áĪĮáĪĪáĭį": 5478,
      "ĠáĪĺáįĥáĪħ": 5479,
      "ĠáĪĺáĬ«áĬĲ": 5480,
      "Ġáī°áīĥáĪŃáī§áĪį": 5481,
      "ĠáĬ¥áĭ¨áĭĺáĬĲáīł": 5482,
      "áĪ»áĬķáĮīáĪĬáīµ": 5483,
      "áĬ©áĪ½áĬĵ": 5484,
      "áĪĨáī´áĪī": 5485,
      "ĠáįķáĪ®áĮĢáĬŃáīµ": 5486,
      "ĠáĪĪáĪĺáįįáī³áīµ": 5487,
      "ĠáĬ¥áĮ«áĭĪáī³áĪĪáĪģ": 5488,
      "áĭ¤": 5489,
      "áĬķáī£": 5490,
      "áīµáĪµ": 5491,
      "áĪĪáĪĽáĬķ": 5492,
      "áĭįáīĢáĭįáĬķ": 5493,
      "ĠáĬłáĬ«": 5494,
      "ĠáĬłáĪ¥áĪŃ": 5495,
      "áĪŃáĬ©": 5496,
      "áĪµáĪĻ": 5497,
      "áĪµáĬ¤": 5498,
      "ĠáĬ¥áĪĿ": 5499,
      "ĠáĬ¥áī°áĬĽ": 5500,
      "ĠáĬ¥áĮģáĬķ": 5501,
      "áīłáĪ«áĪ´": 5502,
      "áīłáĪ«áĪµáĪħ": 5503,
      "áīłáĬłáīµáĬŃáĪįáī±": 5504,
      "áĭµáĪĺáīµ": 5505,
      "áī¥áĪĭ": 5506,
      "Ġáĭ¨áĮ¥": 5507,
      "ĠáĮĤ": 5508,
      "ĠáīłáĪĺáĬķáĮĪáĭµ": 5509,
      "ĠáīłáīģáĮ¥áĮ¥áĪŃ": 5510,
      "ĠáĪĺáī°": 5511,
      "ĠáĪĺáĬ¨áī°áĪį": 5512,
      "áĭ¨áĪĻ": 5513,
      "áĭ¨áĮ¥áĪŃáĪµ": 5514,
      "áĪĽáĪĽáīµ": 5515,
      "áī¶áī¼áĬķ": 5516,
      "áĮłáĮ¥": 5517,
      "áĬ¨áįĪáĪį": 5518,
      "áīħáĬķ": 5519,
      "áīĢáĪħ": 5520,
      "ĠáĪĽáĪħ": 5521,
      "ĠáĪĽáĮįáī£áīµ": 5522,
      "ĠáĪĽáĬŃáīłáĪŃ": 5523,
      "ĠáĪĽáĪ«áĬª": 5524,
      "Ġáī°áįĪáĮłáĪ¨": 5525,
      "Ġáī¥áī³áĭ°áĪŃáĮį": 5526,
      "ĠáĬłáĪįáĪĦáĭµ": 5527,
      "ĠáĬłáĪįáįĪáĪ«áĪĿ": 5528,
      "áĭĭáĬĿ": 5529,
      "áĭĭáĮĭáĭį": 5530,
      "áĬ«áĬ«": 5531,
      "ĠáĬłáĪµáĪĺáĪµ": 5532,
      "ĠáĬłáĪµáīĢáĭ«áĪļ": 5533,
      "áĪĥáĪĪáĬķ": 5534,
      "ĠáīĢáī£": 5535,
      "ĠáĪĪáĪĺáīĢ": 5536,
      "ĠáĪĪáĪĽáīĨáĪĿ": 5537,
      "áĮŃáĬĲáīµ": 5538,
      "ĠáįĪáĪª": 5539,
      "ĠáįĪáĬķáī³": 5540,
      "áĮĪáī£áĭį": 5541,
      "áĭĪáĭ³áĭ°áĪŃ": 5542,
      "ĠáĬŃáĪŃ": 5543,
      "áĭ°áĪ¨áĮĥ": 5544,
      "ĠáĬ¥áĭ«áĬķ": 5545,
      "Ġáĭ¨áīµáĪŃáįį": 5546,
      "Ġáī½áĮįáĪ©": 5547,
      "áīłáĪĭáĪĿ": 5548,
      "Ġáĭ¨áĪĺáĪ¬áīµ": 5549,
      "áīĢáĪĺáĮ¡": 5550,
      "áīłáĬłáĮĭáĮ£áĪļ": 5551,
      "ĠáĬ¥áĬķáĭ°áĪĽáĭ°áĪŃáĮį": 5552,
      "áĮįáĪ¥": 5553,
      "áĭ°áĬķáī¦áī¹áĬķ": 5554,
      "ĠáĮİáīł": 5555,
      "áĬĲáĮįáĪ¨áĭį": 5556,
      "ĠáĪįáīµáĪ¨áĭ³áĬĿ": 5557,
      "ĠáįĪáĪ¨áĬķáĪ³áĭŃáĬĽáĬķ": 5558,
      "áĪĺáĬªáĬĵáĭ¬": 5559,
      "ĠáĬ¥áĬķáĭ³áĪįáĪĨáĬķáĬŃ": 5560,
      "áĭ¨áĬłáĭį": 5561,
      "ĠáĬ¥áĮłáĪĭ": 5562,
      "Ġáĭ³áī¦": 5563,
      "ĠáĪĽáĪµáīĢáĪĺáĮ¥": 5564,
      "áĭ¨áĪĿáīµáĭĪáĭ°áĭį": 5565,
      "ĠáĬ¥áĬķáĭµáī³áĮĪáĬĿ": 5566,
      "áĮįáĪ«áĪĿ": 5567,
      "ĠáĪ°áĪĽáĭŃ": 5568,
      "ĠáĭĪáĪµáĬĽáĪĪáĪģ": 5569,
      "Ġáĭ°áĬŃáĪŀáĬĿ": 5570,
      "áĪĺáĪµáĬ®áīµ": 5571,
      "áī°áĬķáįĪáĪµ": 5572,
      "ĠáīĨáĭŃáī·áĪį": 5573,
      "Ġáĭ«áĭĺáĬĿ": 5574,
      "áīĢáĪ°áī½": 5575,
      "ĠáĪ¹áįĮáĪŃ": 5576,
      "ĠáīĢáĪŃáįĭáįĭ": 5577,
      "ĠáīĢáĮ¥áĪį": 5578,
      "ĠáĬ¥áĬķáĭ°áĪļáĭ«áĪµáī¡": 5579,
      "ĠáĪĺáĮ½áĪĶ": 5580,
      "Ġáī°áĪ¸áįįáĬĹáĪį": 5581,
      "áī´áĪĮáīªáĭ¥áĬķ": 5582,
      "áĪĺáĭ°áĬĲáĪµ": 5583,
      "áĪĽáĭįáĪ«áīµ": 5584,
      "ĠáĪµáĪħáī°áī¶áī½áĬķ": 5585,
      "áīłáĪįáĮħáĬĲáī´": 5586,
      "ĠáĬ¥áĬķáīģáĪĭáĪį": 5587,
      "áĪ³áĪĿáĬķáī±": 5588,
      "Ġáĭ«áĪµáĭ°áĪµáī°áĬĽáĪį": 5589,
      "Ġáī°áĪĺáĪĪáĬ¨áīµáĬ©": 5590,
      "áĬķáĭµáĭĬáī½": 5591,
      "ĠáĬķáĮĪáĪ¨áĭį": 5592,
      "ĠáĬ¥áĬĲáĮįáĪ«áī½áĬĭáĪĪáĪģ": 5593,
      "áĬĵáĭŃáīµáĭµ": 5594,
      "Ġáĭ£áĬķáĮ¥áĪĭ": 5595,
      "ĠáĬ¥áī°áĬĽáĪĪáĪģ": 5596,
      "ĠáĪĬáĭĺ": 5597,
      "áĪĿáĬ©": 5598,
      "áĪĪáįĪ": 5599,
      "áĪĪáĮ¥áīĤáīµ": 5600,
      "ĠáĬ¥áĮĨáī½": 5601,
      "áīłáĪ±": 5602,
      "áīłáĪģáĪīáĪĿ": 5603,
      "áīłáī³áĪĪáĪģ": 5604,
      "áĪĺáĮ½": 5605,
      "áĮĪáĪª": 5606,
      "áĮĪáĬĿáĪĿ": 5607,
      "áĪ¨áĭ±áīµ": 5608,
      "Ġáĭ¨áĪµáĪ«": 5609,
      "ĠáīłáįĸáĪµáī³": 5610,
      "áĬĵáįĬ": 5611,
      "ĠáĪĺáĪĥáĪį": 5612,
      "ĠáĪĺáĮİáī¥áĬĺáīµ": 5613,
      "ĠáĪĺáĭĺáĪĺáĪŃ": 5614,
      "áĭ¨áĪ¨": 5615,
      "ĠáĭŃáĪŀ": 5616,
      "áĪ«áĪ«áĭį": 5617,
      "áĮ¥áīģáĪŃ": 5618,
      "áĮ£áĭįáĬķ": 5619,
      "áĭ³áĭŃ": 5620,
      "áī£áĪĪáĬķ": 5621,
      "áĬ¨áĬĭáĪĭ": 5622,
      "áīĢáĮł": 5623,
      "áīĢáĭĿáīĥáĭĽ": 5624,
      "áĪ³áī½áĬķ": 5625,
      "Ġáĭ«áĬķáī¥": 5626,
      "ĠáĭĪáĪ«áīµ": 5627,
      "ĠáĪ°áĬĲáįį": 5628,
      "ĠáĬłáĪµáīĢáĪĺáĮł": 5629,
      "áĪĥáī¥": 5630,
      "áĪĥáĪ³áī¥áĪħáĬķ": 5631,
      "Ġáĭ¨áĪļáī³": 5632,
      "Ġáĭ¨áī°áĬĵ": 5633,
      "Ġáĭ¨áī°áĪłáĪ«": 5634,
      "ĠáĮįáĪĽáĪ½": 5635,
      "ĠáĮįáĭ´áī³": 5636,
      "áĪľáĪį": 5637,
      "ĠáįĪáī³": 5638,
      "ĠáĪĬáĮĪáī£áĬĿ": 5639,
      "áĬ®áĪĭ": 5640,
      "áĪµáĪĪáī°": 5641,
      "ĠáĬ¥áĪŃáĮ¥áī¥": 5642,
      "áĪ°áĪ«áĪĪáĬķ": 5643,
      "ĠáīĨáĪ¨áĮł": 5644,
      "ĠáįįáĪŃ": 5645,
      "áĭķáĭµáĪľ": 5646,
      "ĠáīħáĮĤ": 5647,
      "ĠáĬłáĪ³áĭĽáĬĿ": 5648,
      "ĠáĪ¨áĬŃ": 5649,
      "ĠáĬ¥áĬķáĭµáīµáĪĨáĬķ": 5650,
      "áĮĬáīµ": 5651,
      "ĠáĪĺáĪįáĪ±": 5652,
      "áĮ¦áĪŃáĬĲáīµ": 5653,
      "áīłáĪĺáĮĢáĪĺáĪªáĭ«": 5654,
      "áĬ¥áĬĵáī±": 5655,
      "áĭ¨áĪĿáīµáįĪáĪįáĮĪáĭįáĬķ": 5656,
      "áī¤áī°áĪ°áī¡": 5657,
      "áĮįáĪ«áī½áĪģ": 5658,
      "áĭĪáĪŃáīħ": 5659,
      "ĠáĬłáĭµáĪŃáĮĮáĭ«áĪĪáĪģ": 5660,
      "ĠáĬłáī³áĭµáĪŃáĮī": 5661,
      "áĮĢáĪĿáĪ¨áĭį": 5662,
      "áĮĭáī½áĪģáīµ": 5663,
      "áĮİáīłáĬĺ": 5664,
      "ĠáĬłáĪįáīłáĪĭáĪģáĪĿ": 5665,
      "ĠáīµáĬĵáĮĪáĪ«áĪĪáī½": 5666,
      "ĠáĪ¬áĭ²áĭ®": 5667,
      "ĠáĬ¥áĭ«áĭ°áĪ¨áĬŃ": 5668,
      "ĠáĪĪáĪĽáĪ³áĪĺáĬķ": 5669,
      "áīĢáĭĿáīĢáĭ£áĭį": 5670,
      "ĠáĭµáĪįáĭµáĭŃ": 5671,
      "ĠáĮİáīłáĬĺ": 5672,
      "áĭ¡": 5673,
      "áĪįáĭ°áīµ": 5674,
      "áĭįáĪĪáī³": 5675,
      "Ġáī§": 5676,
      "Ġáīª": 5677,
      "áĮįáĪĽáĪ½": 5678,
      "áĪĭáĬķáī°": 5679,
      "áĪĭáĬĵáĮįáĪŃáĪħ": 5680,
      "áĭ«áĮŃ": 5681,
      "áĭ«áĭ°áĪ¨": 5682,
      "Ġáīłáī¶áĪĿ": 5683,
      "ĠáīłáĪ«áĪµ": 5684,
      "áĭ¨áĮłáįĭ": 5685,
      "ĠáĭŃáĮĪáĬĽáĪį": 5686,
      "áī³áĭĭáīĤ": 5687,
      "áĮ£áįĭáĮŃ": 5688,
      "áĬŃáī¶": 5689,
      "áĬ¨áįĪáĪĪ": 5690,
      "ĠáĪĽáĪ½": 5691,
      "ĠáĪĽáĭŃáĪį": 5692,
      "ĠáĪĪáĭļáĪħ": 5693,
      "ĠáĬłáĪįáĬ©áīµ": 5694,
      "áīĥáĪĭáīµ": 5695,
      "ĠáĬ¥áĬķáĭ°áīłáĭĽáī¥áĪħ": 5696,
      "ĠáĬ¨áĪµáĪ«": 5697,
      "ĠáīµáĭĪáĭ°": 5698,
      "ĠáĭĪáĪ¬": 5699,
      "áĭĭáĪ¸": 5700,
      "ĠáĪ°áī¥": 5701,
      "áĪ½áĬĿ": 5702,
      "áī¤áī´áĬķ": 5703,
      "áĬĸáī¹áĬķ": 5704,
      "ĠáĪĪáĪĺáĬķ": 5705,
      "ĠáĪĪáĪĺáĭįáĮ£áīµ": 5706,
      "Ġáĭ¨áī°áĭĪáĪĪáĭµ": 5707,
      "áĬªáĪĻ": 5708,
      "áĬĭáĪį": 5709,
      "ĠáĬłáīµáĭĪáĭµáĪĿ": 5710,
      "áĪ°áĪĽáĭ«áĭĬ": 5711,
      "ĠáĬ¥áĭ«áĪĪáĪģ": 5712,
      "áĪĺáĪįáĪ±": 5713,
      "áĭ©áĬĵáĭŃáīµáĭµ": 5714,
      "ĠáįįáīĢáĭµáĪįáĬĿ": 5715,
      "áīłáĪĭáĪ¸": 5716,
      "áĬłáĬķáĭ±áĬķ": 5717,
      "ĠáīģáĪŃ": 5718,
      "áĮįáī¥áĭ£": 5719,
      "áĮłáī¥áīĢáĭį": 5720,
      "áĭ¨áĪĿáī½áĪĪáĭįáĬķ": 5721,
      "áīłáĪ¨áī³": 5722,
      "áī°áĪŃáĮİáĪĿ": 5723,
      "áĪ¹áĪ«": 5724,
      "áĭ°áĪ°áī±": 5725,
      "ĠáĪ°áĮłáĪģáīµ": 5726,
      "ĠáĭŃáĮłáĪĭáĪį": 5727,
      "áĭµáĪĺáī´": 5728,
      "áĪĪáĭļáĪħáĪĿ": 5729,
      "áĮįáĪ¬áĬķ": 5730,
      "Ġáī¥áīµáĪĦáĭµ": 5731,
      "ĠáĪĺáĪĪáĪ°": 5732,
      "ĠáĪĺáįįáī»": 5733,
      "ĠáĬ¥áĭįáĬĲáī³": 5734,
      "áĭ°áĪ°áīµáĬŃ": 5735,
      "ĠáĬ¥áī£áĬŃáĭİáĬķ": 5736,
      "áīĢáĭŃáĪŃ": 5737,
      "áĮĪáĬĲáĭĺ": 5738,
      "áĮİáīłáĬĿ": 5739,
      "áįĬáĪįáĪĻáĬķ": 5740,
      "áīĢáĪĭáīĢ": 5741,
      "ĠáĭĪáĪĭáĮĨáī½": 5742,
      "Ġáī°áĪ°áīłáĪ¨": 5743,
      "áĮłáī£áīĤ": 5744,
      "ĠáĬłáĪ¸áĬķáįıáĪį": 5745,
      "Ġáĭ«áĪµáįĪáĪįáĮĭáĪį": 5746,
      "Ġáĭ¨áĪ«áīĢ": 5747,
      "Ġáĭ«áĭ°áĪŃáĮĪáĭĭáĪį": 5748,
      "áĪµáīłáĭįáĬķ": 5749,
      "áĪµáĪĽáĪĻ": 5750,
      "áĬłáĭµáĪ«áĪ»": 5751,
      "ĠáĪµáī´áīµáĪµ": 5752,
      "ĠáĬłáĪĭáĭ°áĪ¨áĮįáĬ©áĪĿ": 5753,
      "ĠáĪµáĭįáĪŃ": 5754,
      "áįķáĪ¬áĭļáĭ³áĬķ": 5755,
      "ĠáĬ¥áĬ¨áįįáĪĭáĪĪáĪģ": 5756,
      "Ġ30": 5757,
      "áĬļ": 5758,
      "áĪĪáĬŀáī½": 5759,
      "áĪĪáĭĪáĮ¥": 5760,
      "áĪįáĬĽáĪį": 5761,
      "ĠáĬłáīĨáĪĿ": 5762,
      "ĠáĬłáĬ¥áĪĿáĪ®": 5763,
      "ĠáĬĲáĮįáĪ¨": 5764,
      "áīłáĪ½": 5765,
      "áīłáī£áī¡áĪŃ": 5766,
      "áīłáįĵáĪŃáī²áĭį": 5767,
      "áĭ°áī´": 5768,
      "áĪĺáīĢáĪĺáĮ«": 5769,
      "áĮĪáĪįáĮ½": 5770,
      "áĮĪáĭĪáĮ¥": 5771,
      "áĮįáĪ¨áĭį": 5772,
      "áĪ¨áĬŃ": 5773,
      "áī¥áĪ©": 5774,
      "Ġáīłáĭĺ": 5775,
      "Ġáīłáī¤áīµ": 5776,
      "ĠáĪĺáĭĪáĭ«áĭ¨áīµ": 5777,
      "ĠáĬ¥áĬķáĪ°áĪ«áĪĪáĬķ": 5778,
      "áĪĽáī´": 5779,
      "ĠáĭŃáĪĪ": 5780,
      "áĭĪáĮ£áĪĿ": 5781,
      "áĭĪáĭĿ": 5782,
      "áĮ£áĬĿ": 5783,
      "áĪ°áĬĵ": 5784,
      "áĬ¨áĪĽ": 5785,
      "ĠáĪĽáĭ³áĪĺáĮ¥": 5786,
      "Ġáĭ«áĮĪáĬĽáĪī": 5787,
      "Ġáī°áĪ¨áĭ³": 5788,
      "Ġáī°áĬ¨áī°": 5789,
      "Ġáī°áĭ°áī¥": 5790,
      "Ġáī°áĭĿáĬĵáĬĵ": 5791,
      "ĠáĬłáĭŃáĬĸáĪŃ": 5792,
      "ĠáĪĪáĪµáĪĭáĪ³": 5793,
      "ĠáĬłáĪĪáĪŃáĮĤ": 5794,
      "áī»áī½áĪģáĬķ": 5795,
      "ĠáĪĭáĭ°áĪŃáĮį": 5796,
      "áĭĽáĪĿ": 5797,
      "Ġáĭ°áĪĿ": 5798,
      "ĠáĮ¥áī¥áīħ": 5799,
      "ĠáīĢáīł": 5800,
      "áĪĨáĬĲáĭį": 5801,
      "ĠáĮĪáĪĪ": 5802,
      "ĠáĮĪáĪĭ": 5803,
      "ĠáĮĪáī¡": 5804,
      "Ġáī³áĪª": 5805,
      "Ġáī³áĭ°áĪŃáĮį": 5806,
      "ĠáĪĪáĪĺáĮ¨áĪ¨áĪµ": 5807,
      "Ġáĭ¨áī°áĮł": 5808,
      "ĠáįĪáĪ¨": 5809,
      "áĪĪáĪĿáĬķáĭµáĬķ": 5810,
      "ĠáĬŃáįī": 5811,
      "áĮĪáĪ¨áĪĺ": 5812,
      "ĠáĪµáĪĪáĪĮ": 5813,
      "ĠáīĨáĭ¨": 5814,
      "ĠáīĨáĭ©": 5815,
      "Ġáī°áĪµáĪĽáĪĽ": 5816,
      "ĠáĪĻáĬ¨áĪ«": 5817,
      "Ġáĭ¨áĪļáĭ«áĭ°áĪŃáĮĪáĭį": 5818,
      "ĠáĮ¨áĭį": 5819,
      "ĠáĪ¨áĭĺáĪĿ": 5820,
      "Ġáĭ¨áĪĿáīµáĪĦáĭ°áĭį": 5821,
      "Ġáī°áĬĵáĮįáĪ¬": 5822,
      "áĮłáĬķáĬ«áĪ«": 5823,
      "ĠáĬ¥áĬķáĭ³áĪĪáī£áīµ": 5824,
      "áĪŀáĬŃáĪ©áīµ": 5825,
      "áĬłáĪįáĮĪáī£": 5826,
      "áĮ¹áĬķ": 5827,
      "áĬĵáĮĪáĮł": 5828,
      "áĭįáĪ»áĭ¬": 5829,
      "áĬ¥áĬķáĭµáĪĦáĭµ": 5830,
      "ĠáīłáĪįáī°áĪħ": 5831,
      "áĭĪáĬķáĭµáĪĿáĪħ": 5832,
      "ĠáĪĽáĪµáĮĪáī£áīµ": 5833,
      "ĠáĪĦáĭ°áĪħ": 5834,
      "ĠáĬ¥áĬķáĭµáī³áĭįáīħ": 5835,
      "áĭ£áĬķáĮ¥áĪĭ": 5836,
      "ĠáĪ»áĭĪáĪŃ": 5837,
      "áĭµáĪĺáī¶áī½": 5838,
      "áĭ¨áĬ¥áĬĶáĬķ": 5839,
      "ĠáĬłáĮĪáĪ®áī½": 5840,
      "Ġáī°áīĢáī¥": 5841,
      "ĠáĪ¸áĪ¸": 5842,
      "Ġáĭ¨áĪĺáĮ£áĭį": 5843,
      "ĠáĭĪáĪ¨áĭ°": 5844,
      "áĭ°áĭįáĪįáĪįáĬĿ": 5845,
      "ĠáĬłáĭµáĪŃáĮĪáĭĭáĪį": 5846,
      "ĠáĪĪáĪĺáĪµáĮłáīµ": 5847,
      "ĠáĬ¥áĬķáĭ°áĪĽáīµáī½áĪį": 5848,
      "áīłáĭļáĭ«áĬķ": 5849,
      "áĪ«áī¸áĭįáĪĿ": 5850,
      "áĪļáĪµáī±": 5851,
      "áĭĺáĮįáĭ¨áīµ": 5852,
      "ĠáĬłáīħáĮ£áĮ«": 5853,
      "ĠáĬłáĪĺáĮ£áĪħ": 5854,
      "ĠáĪĽáĬķáĬĽáĭįáĪĿ": 5855,
      "Ġáī°áĮĭáī¥": 5856,
      "ĠáĬłáĪµáīĢáĭµáĪĺáĭį": 5857,
      "áī´áĪĮáīªáĭ¥áĬĳáĬķ": 5858,
      "ĠáīłáĮįáĪįáĮ½": 5859,
      "Ġáī°áĬĲáĪ³áĪģ": 5860,
      "áĮİáĭµáī°áĪĥáĪį": 5861,
      "ĠáįĪáĪ«áĪģ": 5862,
      "áįĸáĪŃáī±áĬķ": 5863,
      "ĠáĪĺáĪĭáĬŃ": 5864,
      "ĠáĭŃáįĪáĪ«áĪį": 5865,
      "ĠáĪĿáĬŀáī´": 5866,
      "ĠáįĪáĮħáī¶": 5867,
      "áĬŃáĪªáī¥áī¶": 5868,
      "ĠáĭŃáĬķáĮĪáĪ©áĬķ": 5869,
      "ĠáĬ¥áĭ°áĭįáĪĭáĪĪáĪģ": 5870,
      "ĠáĬłáĪįáĪ¨áĪ³áĭįáĪĿ": 5871,
      "Ġáĭ«áĬķáī¥áī¡": 5872,
      "áĪĪáĪĪ": 5873,
      "áĪįáĪĽáīµ": 5874,
      "Ġáī±": 5875,
      "ĠáĬłáĬŃ": 5876,
      "ĠáĬłáīĢáĪĭ": 5877,
      "áĪŃáĬķ": 5878,
      "áĪµáĪŁ": 5879,
      "áĪµáĬ³áĪŃ": 5880,
      "áĪħáįĥáĬĳ": 5881,
      "ĠáĬĲáīħ": 5882,
      "ĠáĬĲáīĥ": 5883,
      "áīłáĮĪáĬĵ": 5884,
      "áīłáĪĮáĪĭ": 5885,
      "áīłáĮįáĪį": 5886,
      "áīłáįĬáī±": 5887,
      "áĭ°áĬĲ": 5888,
      "áĭ°áī±": 5889,
      "áĭ°áĬĵáĪį": 5890,
      "áĭ°áĬĲáĮĪ": 5891,
      "áĭŃáīģ": 5892,
      "áĪĺáīĢ": 5893,
      "áĪĺáĮłáĬķáīĢáīħ": 5894,
      "áĮĪáĪįáĮ": 5895,
      "áĭµáĪ©áĬķ": 5896,
      "áĮįáĪįáĮ½": 5897,
      "áĬ¥áĬŃ": 5898,
      "áĬ¥áĪº": 5899,
      "áĪĭáĮİ": 5900,
      "áĪĭáĬķáīº": 5901,
      "áī°áĬ®áĪŃ": 5902,
      "áī¥áĪ°áĪį": 5903,
      "Ġáĭ¨áĬ¥áĪ±": 5904,
      "Ġáĭ¨áįĪáĪ¨áĬķáĪ³áĭŃ": 5905,
      "ĠáĮħ": 5906,
      "ĠáīłáĪħ": 5907,
      "ĠáĪĺáĪ¸áĮ¥": 5908,
      "áĭ¨áĬ¥áĬĽ": 5909,
      "áĪĽáīĨáĪĿ": 5910,
      "ĠáĭŃáįĥáįī": 5911,
      "áī³áĭĪáīµ": 5912,
      "áĬłáįį": 5913,
      "áĬłáĬ¥áĪĿáĪ®": 5914,
      "áĪ³áīĢ": 5915,
      "Ġáĭ«áĭį": 5916,
      "Ġáī°áĪ°áī¥": 5917,
      "ĠáĬĲáīłáĪ«áīµ": 5918,
      "ĠáĬĲáīłáĪ¨áĬķ": 5919,
      "ĠáĬłáĭŃáĭį": 5920,
      "ĠáĬłáĭŃáįĪáĪįáĮīáĪĿ": 5921,
      "ĠáĪĪáįĸáĪĬáĪµ": 5922,
      "ĠáĬłáĪįáĪĺáĪĪ": 5923,
      "ĠáĬłáĪįáīłáĭĽ": 5924,
      "ĠáĬłáĪĪáĪĺáī³": 5925,
      "ĠáĬ¨áĪĪ": 5926,
      "ĠáĬ¨áīłáĪĭ": 5927,
      "ĠáĪĭáĬĲáĮĭ": 5928,
      "áī¸áĮĪáĪ¨": 5929,
      "áī¸áĬ®áĪĮáīµ": 5930,
      "áĮ¨áĪŃáĪµ": 5931,
      "áĮ¨áĬ«áĬĿ": 5932,
      "áī¡áī¥": 5933,
      "ĠáĮĪáĭĿ": 5934,
      "Ġáī³áĭį": 5935,
      "ĠáĮłáīħ": 5936,
      "áĮ½áįĪáĭį": 5937,
      "áĪĻáĬĵ": 5938,
      "áĭ¶áĪ®": 5939,
      "áĭĽáĪ¬áĭį": 5940,
      "ĠáĪĺáĬķáĪµáĬ¤": 5941,
      "ĠáĬ«áĪī": 5942,
      "áīĭáĬķáīĭ": 5943,
      "ĠáīĨáĭ³": 5944,
      "ĠáĭĺáĬĲáīł": 5945,
      "ĠáĪĻáīĢáīµ": 5946,
      "Ġáī¢áĭĺáĬķáī¥": 5947,
      "ĠáīģáĪĺáīµ": 5948,
      "áīłáĪĪáĭļáĭ«": 5949,
      "áĬ¥áĭįáĬĲáīµáĬķ": 5950,
      "Ġáī°áĬĵáĮįáĪ¨": 5951,
      "ĠáĬĲáĮĪáĪ«áīµ": 5952,
      "áĮłáĭŃáīĢáĭį": 5953,
      "áĭµáĬķáĮĪáī°áĬĽ": 5954,
      "áĭŀáī½": 5955,
      "áĭ®áĬķ": 5956,
      "áĭĿáĬĵáĬĵáīµ": 5957,
      "áĪĤáĪ³áī¡áĬķ": 5958,
      "áĮ¨áĬĲáīħáĪĿ": 5959,
      "áĮ¨áĬĲáīĥáĪĪáĪģ": 5960,
      "ĠáĬĸáĪ¨áĭĭáĪį": 5961,
      "ĠáĬłáĮįáĬĿáī°áĬĵáĪį": 5962,
      "ĠáĪĽáĭįáĮ£áīµ": 5963,
      "ĠáĭĵáĭŃáĬĲ": 5964,
      "ĠáĬ¥áĪµáĬ¨áĪĽ": 5965,
      "áĬĹáĬķ": 5966,
      "ĠáĮĪáĬĵáĬķ": 5967,
      "áīłáĪ³áĪĿáĬķáīµ": 5968,
      "ĠáĮŃáĬķáīħ": 5969,
      "áĬ¤áĪĮáĬŃáīµáĪªáĬŃ": 5970,
      "ĠáīĭáĬķáīĭáĭİáī½áĬķ": 5971,
      "ĠáĭĺáĮįáĭŃáī¼": 5972,
      "ĠáĪĺáī³áĮłáī¥": 5973,
      "ĠáĮĥáĬķáĮ¥áĪĭ": 5974,
      "ĠáįĸáĪµáī³": 5975,
      "áĬ¥áĪŃáĭ³áī³áĪħáĬķ": 5976,
      "Ġáī¥áĪµáĬŃáĪĮ": 5977,
      "áĪĺáĭĿáĮĪáīł": 5978,
      "ĠáĬ¥áĪħáī¶áī½": 5979,
      "ĠáĪ°áĪ«áĪģ": 5980,
      "ĠáĪ°áĮ¥áī»áī½áĬĭáĪĪáĪģ": 5981,
      "ĠáĬ¥áĬķáĭ°áĪĮáĪĪáĭį": 5982,
      "áĮīáĭ³áĭ©áĬķ": 5983,
      "ĠáĮłáįįáī°áĭĭáĪį": 5984,
      "áī°áĪĽáĪªáĭİáī½": 5985,
      "Ġáĭ«áĮĪáĬĺáĪģáīµ": 5986,
      "áįĪáĮĪáĮįáī³": 5987,
      "áĪµáĪįáĬ©áĬķ": 5988,
      "ĠáĭŃáĬ¸áĭįáĪįáĪħ": 5989,
      "ĠáīµáĪĺáĮ£áĪĪáĪħ": 5990,
      "ĠáīµáįĪáĪ«áĪĪáĪħ": 5991,
      "Ġáĭ¨áī°áĪĺáĪ°áĪ¨áī°": 5992,
      "áĬ¥áĬķáĪµáĪ³áīµ": 5993,
      "Ġáĭ¨áī°áĭĪáĪĪáĭµáĬ¨áĭį": 5994,
      "áĪĿáĬŀ": 5995,
      "áīµáĬŃáĬŃáĪĪáĬĽáĭį": 5996,
      "Ġáĭ±": 5997,
      "áĪĪáĪ¦áĪµáīµ": 5998,
      "ĠáĬłáįĪ": 5999,
      "ĠáĬłáīĥ": 6000,
      "ĠáĬ¥áĮ¨áĬĲáīĥáĪĪáĪģ": 6001,
      "áīłáĬĵáĪį": 6002,
      "áīłáĭĵ": 6003,
      "áīłáīħáĪŃáī¥": 6004,
      "áī°áĬŀáī¹": 6005,
      "áĭ«áī¸áĭį": 6006,
      "áĭ¨áĪĺáĬªáĬĵ": 6007,
      "áĭ¨áĬ¥áĪ±áĬķ": 6008,
      "áĭ¨áįĪáĪ¨áĬķáĪ³áĭŃ": 6009,
      "áĬĲáĭ±": 6010,
      "ĠáĬ¥áĬķáĮĢáĪĿáĪŃ": 6011,
      "áĪ«áĪħ": 6012,
      "áĮ¥áī³": 6013,
      "áĮ£áĮł": 6014,
      "áīħáĪ«": 6015,
      "áĪīáĪħ": 6016,
      "áĮĭáĬĵ": 6017,
      "áĪ³áīģ": 6018,
      "áĪ³áĪįáįį": 6019,
      "Ġáī°áĮ½": 6020,
      "ĠáĬłáĪįáĬĵáĮĪáĪŃáĪĿ": 6021,
      "ĠáĬłáĪĪáįĪ": 6022,
      "ĠáĬ¥áĬķáĭ°áĪĺáĮ£": 6023,
      "áĬ©áī£": 6024,
      "ĠáĬ¨áįĪáīµ": 6025,
      "ĠáīµáĮł": 6026,
      "ĠáīµáĭĿ": 6027,
      "ĠáīµáįĪáĪįáĮį": 6028,
      "áĬ«áĬ¨áĪĭ": 6029,
      "Ġáĭ°áįĭáĪŃ": 6030,
      "áĪŀáīµáĬķ": 6031,
      "ĠáīĢáĬĿ": 6032,
      "ĠáīĢáĮŃáĬķ": 6033,
      "áĮ¨áĬĵ": 6034,
      "Ġáĭ¨áĪļáĪ°áĪ«": 6035,
      "áīĨáĪ»áĪ»": 6036,
      "áīĨáĪŃáĮ¥": 6037,
      "áĮīáĪŃ": 6038,
      "Ġáī³áĪĺáĪĺ": 6039,
      "Ġáī¤áī³áī½áĬķ": 6040,
      "áĭ¨áīµáĪŃáįį": 6041,
      "áĪĪáīµáĪĿ": 6042,
      "áĪ°áĪĽáĪģ": 6043,
      "áīħáĪŃáĮ«": 6044,
      "áĭµáĪŃáĮħ": 6045,
      "ĠáĭµáĬ«áĪĿ": 6046,
      "áįİáĭŃáī³": 6047,
      "áĪĲáĬķáĪµ": 6048,
      "áĪĺáĬķáįĪáĪµ": 6049,
      "áĪĺáĮ£áĪī": 6050,
      "Ġáĭ¨áĪĽáīµ": 6051,
      "ĠáīħáĮł": 6052,
      "Ġáĭ¨áĪĺáĬªáĬĵ": 6053,
      "Ġáĭ¨áĪĿáīµáī½áĪĪáĭį": 6054,
      "Ġáĭ¨áĪĿáīµáįĪáĪįáĮĪáĭįáĬķ": 6055,
      "ĠáĬłáĭįáī¶áī¡": 6056,
      "ĠáĪħáĭĿáī¥": 6057,
      "áĬ¬áī¶áī½": 6058,
      "áĬ¸áĬĽáĪį": 6059,
      "áĬ¨áīµáĪĿáĪħáĪŃáīµ": 6060,
      "ĠáĪĺáī¥áĪ«áīµ": 6061,
      "ĠáĪµáĪľáī³áĭĬ": 6062,
      "áĪ°áĭįáĭ¨áĭį": 6063,
      "ĠáĬĸáĪ¨": 6064,
      "ĠáĪĺáĮ£áī½áĪģ": 6065,
      "áĪĺáĪ³áĪªáĭ«": 6066,
      "ĠáĬłáĮ¥áī°áĬĵáĪį": 6067,
      "áĮİáĭ³áĪĿ": 6068,
      "Ġáĭ¨áĪļáĭ«áĪµáįĪáĪįáĮĪáĭį": 6069,
      "ĠáĪŃáī¦áĬĽáĪį": 6070,
      "ĠáĪµáĪĿáĪħáĬķ": 6071,
      "áĪģáĪįáĮĬáĭľáĪĿ": 6072,
      "ĠáĬłáĮĭáĮ£áĪļ": 6073,
      "áĬ¥áĬķáĭµáīµáĪĦáĭµ": 6074,
      "ĠáĪĺáĮ¥áī·áĪį": 6075,
      "ĠáĬ¥áī£áĬŃáĭİ": 6076,
      "áĮĪáĬĻáīµ": 6077,
      "ĠáĬłáĭŃáī¼áĭį": 6078,
      "áĪĿáĮĥáĪĪáĪģ": 6079,
      "Ġáī°áĮĭáī£": 6080,
      "ĠáĪĺáĪ«áīħ": 6081,
      "áĮ¸áĭ³áĮĥ": 6082,
      "ĠáĬłáĭŃáĮĪáī£áĬĿáĪĿ": 6083,
      "Ġáĭ¨áįĪáĪĪáĬ©áīµ": 6084,
      "áīĢáĭµáĪŀáĭįáĬķáĪĿ": 6085,
      "ĠáīłáĪĺáĪµáĪĽáī´": 6086,
      "Ġáĭ«áĪµáįĪáĪįáĮĭáī¸áĭĭáĪį": 6087,
      "Ġáī£áĭŃáĪĨáĬķ": 6088,
      "Ġáĭ«áĭįáīģáī³áĪį": 6089,
      "ĠáĬĥáĪĭáįĬáĬĲáīµ": 6090,
      "ĠáĪįáī¦áĪĪáĭµ": 6091,
      "ĠáĭĿáīħáī°áĬĽ": 6092,
      "áĬ¥áĬķáīģáĪĭáĪį": 6093,
      "áĪ°áĪĪáī¸": 6094,
      "áĭĪáī³áĭ°áĪ®áī¹": 6095,
      "Ġáī°áĬĲáĮĭáĮĪáĪŃáĬķ": 6096,
      "ĠáĭŃáĬŃáįĪáī±": 6097,
      "ĠáĬłáĪĭáĭ°áĪ¨áĮĪáĪĿ": 6098,
      "ĠáĬ¥áĪµáĬ¨áĪĽáĭįáīĢáĭį": 6099,
      "áĬ«áĬ¨áĪĭáī½áĬķ": 6100,
      "§áĪ¨": 6101,
      "áĪĪáĮĭ": 6102,
      "áĪįáĪĽ": 6103,
      "áĭįáĪµáĮ¥": 6104,
      "áĭįáĪŀ": 6105,
      "ĠáĬłáĮįáī¥": 6106,
      "ĠáĬ¥áĭĪáĪµáĭµ": 6107,
      "ĠáĬĲáĬ«áĪħ": 6108,
      "áīłáĬŀáī½": 6109,
      "áĭ°áĪĺ": 6110,
      "áĭ°áĬĲáīħ": 6111,
      "áĬ¥áĬ©áĪĪ": 6112,
      "áĪĭáĪĪáįį": 6113,
      "Ġáĭ¨áĭįáĪ»": 6114,
      "Ġáĭ¨áīłáĪ¨áĭ¶": 6115,
      "Ġáĭ¨áī£áĪħáĪŃ": 6116,
      "áĭ«áĭ¨": 6117,
      "áĭ«áī½áĬķ": 6118,
      "ĠáĪĺáĪª": 6119,
      "ĠáĪĺáĭ°áĪ¨áĮį": 6120,
      "áĭ¨áĬ¥áĮįáĪŃ": 6121,
      "ĠáĬ¥áĬķáĪŀáĬŃáĪŃ": 6122,
      "ĠáĭŃáĪŃ": 6123,
      "áī³áĪĺáĪĺ": 6124,
      "áĬłáĪľáĪªáĬ«": 6125,
      "áĪ°áĪªáĭ«": 6126,
      "áĬŃáĪ¨áĭį": 6127,
      "áīĢáĭ±": 6128,
      "ĠáĪĽáīĨáĭ¨áīµ": 6129,
      "áĮĭáī¥": 6130,
      "áįįáĪį": 6131,
      "Ġáĭ«áĪ³áĪį": 6132,
      "Ġáī°áĬ©": 6133,
      "Ġáī°áĭ°áĪŃ": 6134,
      "Ġáī°áĪĪáĭ«": 6135,
      "Ġáī°áĮłáĬķáīĢáīħ": 6136,
      "ĠáĬłáĭŃáĮł": 6137,
      "ĠáĬłáĪįáĪĺáĮ£": 6138,
      "ĠáĬłáĪįáĮ¨áĪ¨áĪµ": 6139,
      "ĠáīµáĮłáī¥": 6140,
      "ĠáīµáĬ¬áīµ": 6141,
      "áĬ«áĭŃ": 6142,
      "áĭĽáĭįáĬķ": 6143,
      "ĠáĬłáĪµáĬªáĭ«": 6144,
      "áįĪáĪįáĮĭáī¸áĭį": 6145,
      "ĠáĪįáĪµáĮ¥": 6146,
      "Ġáĭ°áĬŃ": 6147,
      "áĭĺáįĪáĬķ": 6148,
      "ĠáĬłáĪĭáĪĺáĬĲ": 6149,
      "ĠáīĢáĬĵ": 6150,
      "áĪ»áĭĪáĪŃ": 6151,
      "áĪħáĬķáĬĲáī±": 6152,
      "Ġáĭ¨áĪļáįĪáĪįáĮį": 6153,
      "Ġáĭ¨áĪļáĬĵáĮĪáĪ¨áĭį": 6154,
      "Ġáĭ¨áĪļáĭĺáĬķáī¥": 6155,
      "ĠáĮĭáĭľ": 6156,
      "ĠáĬ¥áĭ¨áįĪáĪĪáĮī": 6157,
      "áī¤áī±áĬķ": 6158,
      "áĬĸáĪªáĭ«": 6159,
      "ĠáĪĪáĪĺáĭĭáĬĺáīµ": 6160,
      "ĠáĪĪáĪĺáĭįáĪ°áĭµ": 6161,
      "Ġáĭ¨áī°áĪĪáĭ«áĭ©": 6162,
      "ĠáĪĪáĪĽáĪĺáĬķ": 6163,
      "ĠáįĪáīĢáĭ°": 6164,
      "ĠáĪĬáī³": 6165,
      "áĪ°áĪĽáĭį": 6166,
      "áĪħáĪįáĪĿ": 6167,
      "áĪĪáī¥áĪµ": 6168,
      "ĠáĬ«áĪĪáĭį": 6169,
      "ĠáĬ«áĪīáīµ": 6170,
      "áīĦáĪĥáĪĪáĪģ": 6171,
      "áĪĺáĪįáĮ¥": 6172,
      "áĪĺáĪįáĬ¥áĬŃáīµ": 6173,
      "áī³áĭįáīģ": 6174,
      "áįĸáĪĪáī²áĬ«": 6175,
      "ĠáĬŃáįįáĪİáī½": 6176,
      "ĠáĮ¨áĪĿ": 6177,
      "áĬ¥áĪµáī²": 6178,
      "áĪµáĪ«áĪħáĬķ": 6179,
      "ĠáĬ¥áĭ¨áī°áĮ«áĭĪ": 6180,
      "ĠáĬ¥áĭ¨áī°áĪĽáĪŃáĬ©": 6181,
      "áĬ¸áĭįáĬķ": 6182,
      "áĪ¨áĮĭáĮįáĮ¥": 6183,
      "Ġáĭķáĭµ": 6184,
      "áĪ³áī½áĪģáĬķ": 6185,
      "áįĵáĪŃáĬŃ": 6186,
      "Ġáĭ«áĪįáĬ©áīµ": 6187,
      "ĠáĪĺáīĨáĮ£áĮłáĪŃ": 6188,
      "ĠáĭŃáĮĪáī£áĪĥáĪį": 6189,
      "áĭ°áĪ°áī°": 6190,
      "ĠáīłáĪ¨áĪ«": 6191,
      "ĠáĬłáĪįáĮĪáī£áĪħáĪĿ": 6192,
      "áĭŃáī³áĪĺáĬķ": 6193,
      "ĠáĪĽáĮ¥áĪĺáĭµ": 6194,
      "ĠáĬ¥áĪ«áĪµáĭİáĬķ": 6195,
      "ĠáĬ¥áĪħáī´": 6196,
      "áĬ«áĬķáīº": 6197,
      "Ġáĭ°áĪ¨áĪ°áĬĿ": 6198,
      "áĬłáĪµáīĢáĭµáĪĺáĭį": 6199,
      "áī¢áĪ®áĭ¬": 6200,
      "Ġ20": 6201,
      "áĬĲáīłáī¥áĬ©": 6202,
      "ĠáĮ®áĬŃ": 6203,
      "Ġáī¥áī¸áĬĽ": 6204,
      "áīłáĪĺáĬªáĬĵáĭį": 6205,
      "ĠáĪĺáĭ°áĬĲáĪµ": 6206,
      "áĬķáĪ°áĪŃáīµ": 6207,
      "Ġáī°áĪĪáĭĭ": 6208,
      "áī¡áĭµáĬĵáī½áĬķ": 6209,
      "ĠáĬ¥áĮ¥áĪ¨áīµ": 6210,
      "áĪĺáī¥áĪ«áī±áĬķ": 6211,
      "ĠáĪ°áĪ¨áīĢ": 6212,
      "áĪĿáī¥áĭĽáĪĿ": 6213,
      "ĠáĪĻáĭļáĭ¨áĪĿ": 6214,
      "áĪ½áĬ¨áĪŃáĬ¨áĪŃ": 6215,
      "ĠáĪ¥áĪŃáĭĵáīµ": 6216,
      "áĬłáĪµáĭ°áĪ³áī½": 6217,
      "ĠáĭŃáĬ¨áĪ°áī³áĪį": 6218,
      "ĠáĬ¥áĪ¨áĭ³áĪĥáĪĪáĪģ": 6219,
      "ĠáĭŃáĭŃáĭĽáĪį": 6220,
      "Ġáĭ¨áĮİáĭ°áĪĪáĭį": 6221,
      "áĬĵáī½áĬķáĪĿ": 6222,
      "áĭ°áĪŃáĪµáī¥áĪħ": 6223,
      "ĠáĬłáĪįáĭ°áĪ¨áĪ°áĪĿ": 6224,
      "Ġáī°áīĢáī£áĭŃáĬĲáīµ": 6225,
      "áĬ§áĪ¨": 6226,
      "áĪĪáĪĺáĪŃáĭ³áīµ": 6227,
      "ĠáĬłáĭ²áĪ±": 6228,
      "áĪµáĪħáī°": 6229,
      "ĠáĬ¥áĭĽ": 6230,
      "ĠáĬ¥áĪ«áĪµáĪħáĬķ": 6231,
      "áĪħáĪĺáĪĻ": 6232,
      "áīłáĪµáĪ«": 6233,
      "áīłáĭĪáĬķáĭĻ": 6234,
      "áĬ¥áĮĨ": 6235,
      "áĪĭáĪĪ": 6236,
      "áĪĭáĬ¨": 6237,
      "áĪ¨áĬŀáī½": 6238,
      "Ġáĭ¨áĬłáĬķáī°": 6239,
      "Ġáĭ¨áĭĵáĪĪáĪĿ": 6240,
      "Ġáĭ¨áĬ¥áĪ³áīµ": 6241,
      "áĭ«áīº": 6242,
      "ĠáīłáĬķ": 6243,
      "ĠáīłáįĵáĪŃáĬ©": 6244,
      "ĠáĬ¥áĬķáĬŃáī¥": 6245,
      "áĪĽáīĤ": 6246,
      "ĠáĭŃáĪ«": 6247,
      "ĠáĭŃáĪĦ": 6248,
      "ĠáĭŃáĬĵáįį": 6249,
      "áĪ«áĪª": 6250,
      "áĪ«áĬķáīµ": 6251,
      "áī¶áī¥áĪµ": 6252,
      "áī£áīł": 6253,
      "áī£áĪ°": 6254,
      "áĬ¨áĬĵ": 6255,
      "áĬ¨áĬĶ": 6256,
      "áĬ¨áįĪáĪĪáĮī": 6257,
      "áĪīáīµáĬķ": 6258,
      "áīĢáī£": 6259,
      "áīĢáĬĵáĪį": 6260,
      "ĠáĪĽáĪħáī°": 6261,
      "áĪ³áĪħ": 6262,
      "Ġáĭ«áĬĲ": 6263,
      "Ġáī°áĮ¸": 6264,
      "Ġáī°áĮłáĬķáīĢáīģ": 6265,
      "ĠáĬĲáīłáĪ«áī¸áĭį": 6266,
      "ĠáĪĪáĬ¥áĪ«áīµ": 6267,
      "ĠáĬłáĪįáĮĪáĭĽ": 6268,
      "áĭĭáĬĵáĭį": 6269,
      "áĬ«áĬŃáĪį": 6270,
      "ĠáĪįáĮĪáĭĽ": 6271,
      "áĪĺáĪµáĪ«áīµ": 6272,
      "áĭĺáĭĻ": 6273,
      "áĪ®áĮł": 6274,
      "Ġáĭ¨áĪļáīł": 6275,
      "áīĨáĪŃ": 6276,
      "ĠáĬ¥áĬķáĭ³áĪĪáĬķ": 6277,
      "ĠáĪĪáĪĺáĬĸáĪŃ": 6278,
      "áĭ¨áīµáĪ«áįĬáĬŃ": 6279,
      "ĠáįĪáĪ¨áĪµ": 6280,
      "áĬĲáīłáīł": 6281,
      "Ġáī£áĭ°áĪŃáĮį": 6282,
      "ĠáĬ¥áĬķáĭ°áĪļáĪĦáĭµ": 6283,
      "Ġáĭ«áĪĪáīłáīµ": 6284,
      "áĪĪáĪĺáĭ°áĭį": 6285,
      "Ġáī¶áĬªáĭ®": 6286,
      "ĠáĬłáĭŃáĪĺáĪµáĪĭáī½áĪģáĪĿ": 6287,
      "áĪįáĮĩ": 6288,
      "ĠáīłáĪĺáĪĿáĮ£áīµáĪħ": 6289,
      "áĪµáī³áī½áĬĭáĪį": 6290,
      "ĠáĪģáĬĶáī³áĭİáī½": 6291,
      "ĠáīłáĪĽáĭµáĪ¨áĮį": 6292,
      "ĠáĪĺáĮ½áĪĲáįįáīµáĬķ": 6293,
      "Ġáĭ¨áĬłáīłáī£": 6294,
      "ĠáĬ¥áĬķáĭ°áĪĿáīµáĪĨáĬķ": 6295,
      "áĪĢáĪį": 6296,
      "áĪĢáĮĪáĪŃ": 6297,
      "áīĢáĪŃáī¥": 6298,
      "ĠáĬłáĮĪáĬĺáĪħ": 6299,
      "áĪįáĬ©áĪħ": 6300,
      "áĪĪáĪĽáĭµáĪ¨áĮį": 6301,
      "ĠáĪĿáĪŃáĪĺáĪ«": 6302,
      "ĠáĬ¥áĬķáĭ²áĭ«áĭ°áĪŃáĮī": 6303,
      "áĭĪáĪµáĭµáĪĿ": 6304,
      "ĠáĪĽáĪ³áĪĪáįĬáĭ«": 6305,
      "ĠáĭĪáĪµáĭ°áĭĭáĪį": 6306,
      "Ġáĭ«áĪµáįĪáĪįáĮĪáĬĵáĪį": 6307,
      "áĪģáĬĳáĬĳ": 6308,
      "áĬ¨áī°áĪĽáĭĭ": 6309,
      "ĠáĮ½áĮĮáĪ¨áĭ³": 6310,
      "ĠáĬłáĪ³áĪįáįıáĪį": 6311,
      "áī°áĭĪáĬĿ": 6312,
      "ĠáĬ¥áĬķáĭ°áĪĮáĪĪ": 6313,
      "ĠáĮ¥áĪŃáĮ£áĪ¬": 6314,
      "áĪĽáĮ¨áĪµáĬķ": 6315,
      "ĠáīµáĪ°áĪ«áĪĪáĪħ": 6316,
      "ĠáĬķáĮĪáĪ©áĬĿ": 6317,
      "ĠáīµáīłáĪįáĮ£áĪĪáī½": 6318,
      "ĠáīĢáĪĪáīłáīµ": 6319,
      "ĠáĬłáĬķáī¥áī¤áĭĭáĪĪáĪģ": 6320,
      "ĠáĪįáī³áĪ³áĭ¨áĬĿ": 6321,
      "áĭ°áĪŃáĭ°áĪªáĭ«áĭį": 6322,
      "ĠáĭŃáĪĺáĪŃáĮ£áĪī": 6323,
      "ĠáĭŃáĭĿáĮī": 6324,
      "ĠáĪ°áĪĮáĭ³": 6325,
      "ĠáĬłáĪįáī°áĬĵáĮĪáĪ¨áĪĿ": 6326,
      "ĠáįĢ": 6327,
      "áįĳ": 6328,
      "áīµáĪįáīģ": 6329,
      "Ġáī«": 6330,
      "ĠáĬłáĪ»": 6331,
      "ĠáĬłáĭĪáĪĪ": 6332,
      "ĠáĬłáĪ°áīĥáīĤ": 6333,
      "áĪµáĪĿáĪħ": 6334,
      "áīłáĪĥáĪį": 6335,
      "áīłáĬŃáįįáĪį": 6336,
      "áĪĺáĬ«": 6337,
      "áĬ¥áĮįáĭļáĬłáī¥áĪĶáĪŃ": 6338,
      "áĪĭáĬŃ": 6339,
      "áī°áĪ«": 6340,
      "áī¥áĪªáĬ«": 6341,
      "Ġáĭ¨áĪ°áĪ«": 6342,
      "Ġáĭ¨áĪĮáĪĭ": 6343,
      "Ġáĭ¨áĮįáĪį": 6344,
      "áĭ«áĪĪáĬķ": 6345,
      "ĠáīłáĪŃáĪµ": 6346,
      "Ġáīłáī¤áī°": 6347,
      "áĬĵáĮĭ": 6348,
      "ĠáĪĺáīħ": 6349,
      "ĠáĪĺáĪł": 6350,
      "ĠáĪĺáĮ®áĪħ": 6351,
      "áĭ¨áīħáĪŃáī¥": 6352,
      "áĭ¨áī£áĪħáĪŃ": 6353,
      "áĬĲáĬķ": 6354,
      "áĪĽáĬĵáī½áĬķáĪĿ": 6355,
      "ĠáĭŃáĬ®": 6356,
      "ĠáĭŃáĪĪáĭ«": 6357,
      "áĪ«áĪ±áĬķ": 6358,
      "áĬłáĪĺáĪ°áĮįáĬĵáĪĪáĪģ": 6359,
      "áĮłáĪĺáĬķáĮĥ": 6360,
      "áīĢáĪĥáĪį": 6361,
      "áĪ³áĪ«": 6362,
      "áĪ³áī±áĬķ": 6363,
      "áĪ³áĮ¥áĬĳáĬķ": 6364,
      "Ġáĭ«áĪ¸áĬķ": 6365,
      "Ġáī°áĬĲáĮį": 6366,
      "Ġáī°áĬ¨áĪ°áī°": 6367,
      "ĠáĪĪáĬ¥áĮįáĪŃ": 6368,
      "Ġáī¥áĭķáĪŃ": 6369,
      "Ġáī¥áĪĪáĪĥáĪį": 6370,
      "ĠáĬ¨áĮİ": 6371,
      "ĠáīµáĮĪáĬĽ": 6372,
      "ĠáīµáĮ¨áĬĲ": 6373,
      "Ġáīµáī¼áĭĭáĪĪáĪģ": 6374,
      "áĮĪáĪŃáĪĽáĪį": 6375,
      "ĠáĪ°áĪĭáĪ³": 6376,
      "ĠáĪĭáĬķáī°": 6377,
      "ĠáĬłáĪµáĪ«": 6378,
      "áĪµáĮ¥áĪ«áĭĬ": 6379,
      "Ġáĭ°áĪ´áīµ": 6380,
      "áĪĥáĭŃ": 6381,
      "ĠáĮ¥áĪŃáĪµ": 6382,
      "áįĭáĪĪáĪħ": 6383,
      "áĮ¨áĬķ": 6384,
      "Ġáĭ¨áĪļáĬĵáĮĪáĪŃ": 6385,
      "Ġáĭ¨áĪļáĮĢáĪĿáĪ¨áĭį": 6386,
      "ĠáĬ¥áĭ¨áĪłáĪ«": 6387,
      "ĠáĬ¥áĬĵáī´": 6388,
      "ĠáĮłáĮ¥": 6389,
      "ĠáĪĪáĪĺáĪ¥áĪ«áīµ": 6390,
      "Ġáĭ¨áī°áĬ©áĪµ": 6391,
      "áĪĻáĭļ": 6392,
      "ĠáĬłáīµáĬĵáĮĪáĪŃ": 6393,
      "áĬ®áĪĿáįĴáĭįáī°": 6394,
      "áĪĪáī½áĭį": 6395,
      "áĪ°áĪĽáĭŃ": 6396,
      "Ġáī£áĪŃ": 6397,
      "áĮ¡áĪ¨áī³": 6398,
      "áĪĺáĬķáĭ°áĪ©": 6399,
      "ĠáĬłáĭ«áĪµáī¥áĪĿ": 6400,
      "ĠáĬ«áĬĵáĭ³áĭĬ": 6401,
      "áĪĺáĪįáīĢáīħ": 6402,
      "áīłáĪĭáĪĪáĬķ": 6403,
      "Ġáī¢áĮ«": 6404,
      "ĠáīłáĪĺáĪĨáĬĵáī½áĪģ": 6405,
      "Ġáī¦áī³áĭİáī½": 6406,
      "Ġáĭ¨áĪĿáīµáįĪáĪįáĮį": 6407,
      "ĠáĬ¥áĭ¨áī°áĪĺáĪĪáĬ¨áī°": 6408,
      "áįĥáįį": 6409,
      "Ġáī°áĬĵáĮįáĪ«": 6410,
      "ĠáĪĺáĮ½áĪĲáįīáĬķ": 6411,
      "ĠáĬ¥áĬķáĭ°áĪĿáĪį": 6412,
      "áĪĮáĪĭáĭį": 6413,
      "áĭµáĬķáĮĭáĭŃ": 6414,
      "áĪµáī¥áĪµáī¥": 6415,
      "áĪķáĬŃáĪĿáĬĵ": 6416,
      "áīģáĪĿáĬĲáĮĪáĪŃ": 6417,
      "áĭ®áĪŃáĬŃ": 6418,
      "áĬłáĪįáĮĭáĭį": 6419,
      "ĠáīłáįįáīħáĪŃ": 6420,
      "áĭ°áĪĿáĭ°": 6421,
      "ĠáĬłáĪĿáĬĹáĪį": 6422,
      "áįĸáĪĬáĪ±": 6423,
      "ĠáĪĺáĮ£áī½": 6424,
      "áĬłáĭŃáĬĸ": 6425,
      "áĬłáī¥áĪ¬": 6426,
      "áĭľáĬĵáĭį": 6427,
      "ĠáĬłáĮ¥áī°áĭĭáĪį": 6428,
      "ĠáĭĵáĭŃáĬĲáī±": 6429,
      "áĮ®áĬ¸": 6430,
      "áĬĸáī½áĭİáĬķ": 6431,
      "ĠáĪ½áĮīáĮ¥": 6432,
      "ĠáĬ¥áĭ¨áĪ°áĪ«áĬķ": 6433,
      "ĠáĭĪáĬķáĭµáĪŀáī½": 6434,
      "ĠáĭįáĪ»áĭįáĬķ": 6435,
      "ĠáĮŃáĪĽáīĤ": 6436,
      "áĬ¥áĭ«áĭĪáĪ«": 6437,
      "ĠáĭŃáīĨáĮł": 6438,
      "ĠáįĪáĪĪáĮį": 6439,
      "ĠáĭŃáĬĵáĮĪáĪ©": 6440,
      "áĭ°áī¥áĭ³áī¤áĭį": 6441,
      "áįįáĪŃáĪĿ": 6442,
      "ĠáĭĪáĪĭáĮĨáī¼": 6443,
      "ĠáĪĺáĮ¨áĪĺáĪŃ": 6444,
      "ĠáĪ©áĭĿ": 6445,
      "ĠáĭŃáĪµáĮ¡": 6446,
      "ĠáĪĽáĪ¨áįĬáĭ«": 6447,
      "áĭ°áĬŃáĪŀáĬĽáĪį": 6448,
      "áĬ¥áĭ¨áīĢáĪĪ": 6449,
      "áĬĵáĬķáĪ½": 6450,
      "áĬĲáĮįáĪ¨áĬĿáĪĿ": 6451,
      "ĠáĬłáĪįáįĪáīħáĭµáĪĿ": 6452,
      "ĠáĭŃáĮ®áĬ»": 6453,
      "ĠáīµáĭįáĪµáī³": 6454,
      "ĠáĬŃáĪ¬áĪĿ": 6455,
      "ĠáĪĬáĭĺáĬķáī¥": 6456,
      "áĮĪáĪªáī±": 6457,
      "Ġáī°áĮ¸áĮ½": 6458,
      "Ġáī°áĬĲáĮįáĪ®": 6459,
      "13": 6460,
      "20": 6461,
      "en": 6462,
      "áĪĿáī±": 6463,
      "áĪĪáįī": 6464,
      "áĭįáĪį": 6465,
      "áīłáĪĺáĪµ": 6466,
      "áīłáĮī": 6467,
      "áīłáĬ¥áĪŃáĪµáĭİ": 6468,
      "áĭ°áĮĭáĭį": 6469,
      "áĭŃáĮĪáī£": 6470,
      "áĪĺáĮĪáī¥": 6471,
      "áī¥áĬĿáĪĿ": 6472,
      "Ġáĭ¨áĭĪáĪ°": 6473,
      "Ġáĭ¨áĪ°áĭį": 6474,
      "Ġáĭ¨áīĢáĪ¨": 6475,
      "Ġáĭ¨áĬĲáīłáĪ¨": 6476,
      "Ġáĭ¨áīłáĭĽáīłáīµ": 6477,
      "ĠáīłáĪģáĪĪáīµ": 6478,
      "ĠáīłáĪļáĭ«": 6479,
      "ĠáīłáīħáĪŃáī¥": 6480,
      "áĭ¨áĬĭáīµ": 6481,
      "áĬĲáĪ³áīµ": 6482,
      "ĠáĬ¥áĬķáĭĪáĭ³": 6483,
      "ĠáĬ¥áĬķáĬĲáĮĭáĮĪáĪŃ": 6484,
      "ĠáĭŃáĭĺáĭį": 6485,
      "áī³áĪªáĬŃ": 6486,
      "áĪ«áīħ": 6487,
      "áī¶áĬķ": 6488,
      "áĭĪáĪ³": 6489,
      "áĮłáĪĭáīµ": 6490,
      "áĮ£áī¸áĭį": 6491,
      "áĮ£áĪªáĭ«áĭį": 6492,
      "áĪ°áīłáĪŃ": 6493,
      "áĬ¨áĪ¶áĪµáīµ": 6494,
      "áĬ¨áĮĵáĭ°áĬŀáī¼": 6495,
      "áīħáĪµ": 6496,
      "áĪīáĬ¥": 6497,
      "ĠáĪĽáĪµáī³áĭĪáĪµ": 6498,
      "áĭİáī¼": 6499,
      "Ġáĭ«áĪĪáĬķ": 6500,
      "Ġáĭ«áĭ°áĪŃáĮī": 6501,
      "Ġáī°áĮĪáĬĵáĬĺ": 6502,
      "ĠáĬłáĭŃáī°áĪħ": 6503,
      "Ġáī¥áīģ": 6504,
      "ĠáĬłáĪįáįĪáīĢ": 6505,
      "ĠáĬłáĪĪáīłáĪĪáĭļáĭ«": 6506,
      "ĠáĬ¥áĬķáĭ°áī°áĬĵ": 6507,
      "ĠáĬ¥áĬķáĭ°áįĪáĪĪáĮįáĬŃ": 6508,
      "áĪĿáĬķáĪħ": 6509,
      "ĠáĬ¨áĪĽáĬķ": 6510,
      "ĠáĬ¨áĬłáĭį": 6511,
      "áĬ¥áĬķáī£": 6512,
      "áĭ°áĪŃáĪ±": 6513,
      "áī´áĪªáĭ«": 6514,
      "ĠáĬ¥áĭ¨áĭ°": 6515,
      "áīłáīµáĪ«áįĬáĬŃ": 6516,
      "ĠáĮįáĮ¥": 6517,
      "áĮ«áĬķ": 6518,
      "Ġáĭ¨áĪĿáĪŃ": 6519,
      "Ġáĭ¨áĪĿáĮįáī¥": 6520,
      "Ġáĭ¨áĪĿáįĪáĪįáĮĪáĭįáĬķ": 6521,
      "áĪĻáīµ": 6522,
      "ĠáĬłáīµáĪŀáĬŃáĪŃ": 6523,
      "áĮĪáī£áĭįáĬķ": 6524,
      "áĪ°áĪĽáĭ©": 6525,
      "áĭĪáĭ³áīµ": 6526,
      "áĭ¶áī¹áĬķ": 6527,
      "áī¢áĭį": 6528,
      "ĠáĬŃáĪĪáī¥": 6529,
      "áĪĬáĬĵ": 6530,
      "áĪĲáĬªáĪĿ": 6531,
      "ĠáĪµáĪĪáĪĽ": 6532,
      "Ġáĭ¨áīµáĪĿáĪħáĪŃáīµ": 6533,
      "ĠáĮīáĮīáīµ": 6534,
      "áĭĪáĭµáĪ½áĪĿ": 6535,
      "ĠáĬłáĪµáī°áĪĽáĪ¨": 6536,
      "áīłáĬłáĮłáīĥáĪĭáĭŃ": 6537,
      "áīłáĬłáĭ°áī£áī£áĭŃ": 6538,
      "áĭ¨áĪĿáĮįáī¥": 6539,
      "áĭ¨áĪĿáįĪáĪįáĮĪáĭįáĬķ": 6540,
      "áĪµáĪ«áĭ¬áĬķ": 6541,
      "ĠáĮİáĪįáįį": 6542,
      "ĠáīłáĬłáĪį": 6543,
      "ĠáĪĺáĪįáĪ°áĭį": 6544,
      "áĪµáī¥áīłáīµ": 6545,
      "áĪŀáĬŃáĪ®": 6546,
      "áĪĺáĪ°áĮįáĬķáĪħ": 6547,
      "áĪµáĪĿáĪĿáĬĲáīµ": 6548,
      "ĠáĬĸáĪ¯áĪį": 6549,
      "áĮłáĪŃáĮ£áĪª": 6550,
      "áĭ¨áĬłáĪľáĪªáĬ«": 6551,
      "Ġáī¡áĭµ": 6552,
      "ĠáĭŃáĮĪáī£áĭĭáĪį": 6553,
      "áĮįáĪ«áįį": 6554,
      "ĠáĪµáĪĿáĪĿáĬĲáīµ": 6555,
      "Ġáī°áĪ³áįĭáĪª": 6556,
      "ĠáĬłáĭ°áĪ¨áĮįáĬķ": 6557,
      "ĠáĪĪáī¥áĪ¶": 6558,
      "Ġáĭ°áĪ¨áĪ±": 6559,
      "áĬ«áī£áī¢áĭį": 6560,
      "áĭ°áĪŃáĮīáīµáĬķ": 6561,
      "Ġ19": 6562,
      "Ġáī°áīĥáĮ¥": 6563,
      "áĮ¥áĭ«áīĦáĭįáĬķ": 6564,
      "ĠáĮ¨áĪŃáĪ°áĪĥáĪį": 6565,
      "áĭĪáĪ¨áīĢ": 6566,
      "ĠáĭµáĬķáĮĪáī°áĬĽ": 6567,
      "áĮĪáĬĻáĪĿ": 6568,
      "ĠáĬĥáĭŃáĪĪáĬĽ": 6569,
      "áĪĪáĭµáĬŃ": 6570,
      "áīłáĬłáĭįáĪµáīµáĪ«áĪĬáĭ«": 6571,
      "ĠáĪĺáĪµáĬ®áīµ": 6572,
      "Ġáĭ°áĪ¨áĪµáĬ©": 6573,
      "áī¾áīµ": 6574,
      "áĪĿáĭµáĮĥ": 6575,
      "ĠáĪłáĪŃáī»áĪĪáĪģ": 6576,
      "ĠáĭĪáĪĭáĮĨ": 6577,
      "ĠáĬłáĪµáīĢáĪĿáĮ«áĪĪáĪģ": 6578,
      "ĠáĬ«áĪŃáĭ¶áī½áĬķ": 6579,
      "ĠáĪ©áīħ": 6580,
      "Ġáī°áĮįáī£áī¢": 6581,
      "áĬ¨áī³áī°áĪį": 6582,
      "ĠáĬłáĬĲáī£áĪĪáĪģ": 6583,
      "áĪĽáĪµáĮłáĬķáīĢáīĤáĭ«": 6584,
      "ĠáĭŃáĮłáĭŃáīģ": 6585,
      "áĪ°áĮ¡áĬĿ": 6586,
      "ĠáĪĺáįĥáįį": 6587,
      "ĠáĭµáĪĺáī¶áī½": 6588,
      "ĠáĮĪáĬķáĭĺáī¡áĬķ": 6589,
      "ĠáĭŃáĪ¨áĭ³áĪį": 6590,
      "Ġáī°áīłáĪĭáĪ½áī·áĪį": 6591,
      "ĠáīłáĪĽáĮįáĬĺáī´": 6592,
      "Ġáī°áī¸áĮįáĪ¬": 6593,
      "Ġáī³áĮĪáĬĽáĪĪáĪħ": 6594,
      "ĠáīµáīłáĪĭáĪĪáĪħ": 6595,
      "áĪ¹áĪ«áĬķáĪµ": 6596,
      "áīħáĪ«áī¢áĭ«áĭį": 6597,
      "Ġáĭ«áĪ¸áĬķáįĭáĪį": 6598,
      "áĪįáĮ£áĬķ": 6599,
      "áĭįáĪ¾áī½": 6600,
      "ĠáĬłáĪ¨áįĪ": 6601,
      "áīłáĮ«áĬ«": 6602,
      "áĪĺáī°áĬĽáīµ": 6603,
      "áĮįáĪª": 6604,
      "áĬ¥áĭļ": 6605,
      "áĪ¨áĬ«": 6606,
      "áī°áĪ¨": 6607,
      "áī°áĮİáĭµáī°áĪĥáĪį": 6608,
      "Ġáĭ¨áĪħ": 6609,
      "Ġáĭ¨áĭ°áĪĿ": 6610,
      "ĠáīłáĪŀáīµ": 6611,
      "áĬĵáĪĪáī½": 6612,
      "ĠáĪĺáĪĺáĪįáĬ¨áīµ": 6613,
      "ĠáĪĺáĭ°áīłáĬĽ": 6614,
      "áĭ¨áĮįáĪį": 6615,
      "áĭ¨áĪģáĪĪáī°áĬĽ": 6616,
      "ĠáĬ¥áĬķáĬĲáĮĭáĮĪ": 6617,
      "ĠáĭŃáĬĲ": 6618,
      "ĠáĭŃáĬ¨áī°": 6619,
      "áī³áĭįáīħ": 6620,
      "áĬłáĪĽ": 6621,
      "áĮ¥áīħ": 6622,
      "áĮ¥áĬ©áĬĿ": 6623,
      "áĭĪáĪ¨áĭį": 6624,
      "áĭ³áī½áĬķ": 6625,
      "áĬŃáī·áĪį": 6626,
      "áĬ¨áĮİ": 6627,
      "áĬ¨áī£áĪĪ": 6628,
      "áīħáĪ¬áī³": 6629,
      "áīħáĭĿáīĥáĭľ": 6630,
      "Ġáĭ«áĭ°áĪŃáĮį": 6631,
      "Ġáĭ«áĮĪáĬĽáĪį": 6632,
      "Ġáĭ«áĪ¨áĮĢ": 6633,
      "ĠáĬłáĭŃáĪĦáĭµáĪĿ": 6634,
      "ĠáĪĪáĪĿáĮĥáĪĪáĪģ": 6635,
      "ĠáĬłáĪįáĪµáĪĽáĪĽáĪĿ": 6636,
      "áīĥáī³áĪĽ": 6637,
      "ĠáĬ¨áī¥": 6638,
      "ĠáīµáĪĿáĪħáĪŃ": 6639,
      "ĠáĪĿáĭµáĪŃ": 6640,
      "ĠáĪĿáĪŃáīµ": 6641,
      "áĭĭáĬĵ": 6642,
      "áī»áĪĭáī½áĪģ": 6643,
      "áĬ«áĪ¬": 6644,
      "áĬ«áĬĵáĭ³áĭĬ": 6645,
      "áī¸áĬ®": 6646,
      "ĠáĬłáĪµáī¸áĬ³áĭŃ": 6647,
      "ĠáĪįáĮĦ": 6648,
      "Ġáĭ°áīł": 6649,
      "ĠáĮ¥áĬĵáīµ": 6650,
      "ĠáĬłáĪĭáĪĽ": 6651,
      "Ġáĭ¨áĪļáīłáĪĭ": 6652,
      "Ġáĭ¨áĪļáĬĸáĪ¨áĭį": 6653,
      "Ġáĭ¨áĪļáĪ°áĪ«áĭį": 6654,
      "áīĨáīħáĪį": 6655,
      "áĮīáĮ¡áĬķ": 6656,
      "áī´áĪĮ": 6657,
      "ĠáĬ¥áĬķáĭ³áĪµ": 6658,
      "ĠáĭĪáĭ°áĭµáĬ©áīµ": 6659,
      "áĬĳáĬĿ": 6660,
      "áįĬáĭį": 6661,
      "áįĬáī±áĬķ": 6662,
      "áįĬáĪįáĪĿ": 6663,
      "Ġáī³áĮ¥": 6664,
      "áĬĸáĪ¨": 6665,
      "áĪĮáĬķ": 6666,
      "ĠáĪĪáĪĺáĮĢáĪĺáĪŃ": 6667,
      "ĠáĪĪáĪĺáīĢáīłáĪį": 6668,
      "ĠáĪĪáĪĺáĬŃáįĪáīµ": 6669,
      "áĮŃáīłáĪŃ": 6670,
      "áįĪáĪįáĮįáĭİáīµáĪĿ": 6671,
      "áĮĢáĪŃáĪĺáĬķ": 6672,
      "ĠáĬłáīµáĪĨáĬķáĪĿ": 6673,
      "ĠáĬłáīµáĪĦáĭµáĪĿ": 6674,
      "ĠáĬłáīµáĮ¨áĬĲáīħ": 6675,
      "áĪµáīµáĬĵ": 6676,
      "áī¢áĪĭ": 6677,
      "ĠáĬ¥áĪŃáĪ³áĪµ": 6678,
      "ĠáĪ³áīģ": 6679,
      "ĠáĬłáĭ«áĪĺáĮ£áĪĿ": 6680,
      "ĠáĪĺáĮłáĮĪáĬķ": 6681,
      "ĠáĪŀáī·áĪį": 6682,
      "áĮĪáĭµáĪĪáĬĿ": 6683,
      "áī¶áī½áĭİ": 6684,
      "áĭķáĪ¨áįįáīµ": 6685,
      "áĬłáĬķáĭ±": 6686,
      "ĠáĬłáĭµáĪŃáĮĭ": 6687,
      "áĮįáī¥áĪŃ": 6688,
      "áĮĮáĮ¥": 6689,
      "Ġáĭ¨áĪĿáīµáĪĪáĭį": 6690,
      "ĠáĬłáĭįáĪ®áįĵ": 6691,
      "ĠáĬ¥áĭ¨áī°áĪ°áĪĽáĬĿ": 6692,
      "áĮłáĬķáīħ": 6693,
      "áĭ´áĪį": 6694,
      "áĮĢáĪĺáĪªáĭ«áĭį": 6695,
      "áĬłáĪµáī¸áĮĭáĪª": 6696,
      "áĬĲáĮįáĪ«áīµ": 6697,
      "áĪłáĪ©": 6698,
      "áĪ¨áĮĭáĮĭáīµ": 6699,
      "áĪ¥áĬĲ": 6700,
      "ĠáĬłáĭ«áĪµáįĪáĪįáĮįáĭİáīµáĪĿ": 6701,
      "áĬŃáįįáĪīáĬķ": 6702,
      "ĠáĪĺáĮ£áĪģ": 6703,
      "áĭĪáĪĭáĮħ": 6704,
      "ĠáĪĽáĪµáĮłáĬķáīĢáīĤáĭ«": 6705,
      "áīłáĪµáĪį": 6706,
      "ĠáĭĵáĭŃáĬķ": 6707,
      "Ġáĭ¨áĪĿáĬķáī½áĪĪáĭį": 6708,
      "áĭĪáĬķáĮĢ": 6709,
      "ĠáĭįáĭµáīĢáīµ": 6710,
      "áī¥áĪŃáī±áĬ«áĬķ": 6711,
      "ĠáĭĵáĪĺáī´": 6712,
      "ĠáĭŃáĮłáīħ": 6713,
      "ĠáĬłáĮĪáĬĻáīµ": 6714,
      "ĠáĪµáĮ¦áī³áĭİáī½áĬķ": 6715,
      "ĠáĪľáĭ³": 6716,
      "ĠáĭŃáīĨáĭ«áĪį": 6717,
      "ĠáĪĿáĪµáĮ¢áĪŃ": 6718,
      "áĪ¨áī¥áĪ½": 6719,
      "áīłáĪħáĭŃáĭĪáī´": 6720,
      "ĠáĬĲáĮĪáĪ¨áĪħ": 6721,
      "áĬ¥áĬĵáīµáĪħáĬķ": 6722,
      "áĪµáī³áĭĪáīĤáĭ«": 6723,
      "ĠáĭŃáĪ°áĪ«áĪī": 6724,
      "ĠáĬłáĪĽáĪ«áĮ®áī½": 6725,
      "ĠáĪ¥áĭķáĪİáī½": 6726,
      "áĪĿáĪµáĮ¢": 6727,
      "ĠáįĪáī°áĬĵáĭįáĬķ": 6728,
      "ĠáĬłáĪµáīĢáĪĿáĮłáĭį": 6729,
      "áĪĺáĬĵáĭĬ": 6730,
      "Ġáĭ«áĪµáĭ°áĪµáīµ": 6731,
      "ĠáĪĺáĮ¨áīĥáĮ¨": 6732,
      "ĠáĭŃáĮ«áĭĪáī³áĪī": 6733,
      "áĭĪáĭ±áīµáĬķ": 6734,
      "Ġáī°áĬĵáĮĪáĪ¨áī½": 6735,
      "ĠáĬłáīħáĪŃáī¦áīµ": 6736,
      "Ġáĭ¨áīłáĮĭ": 6737,
      "áĮīáĭŀáĭį": 6738,
      "Ġáī°áĪĪáĭĪáĮł": 6739,
      "ĠáĮįáī£áĪįáĬĿ": 6740,
      "áī§áĬķáī§": 6741,
      "ĠáĭŃáĬķáĬ¨áī£áĬ¨áī£áĪį": 6742,
      "ĠáĬłáĪįáĮłáĮ£áĪĿ": 6743,
      "ĠáĮ©áĬ¸áīµ": 6744,
      "ĠáĪįáĪµáĮ¥áĪħ": 6745,
      "ĠáīµáĮĪáĬĽáĪĪáī½": 6746,
      "Ġáī°áĮ¸áĮ½áī»áĪĪáĪģ": 6747,
      "ĠáĬ¥áĬķáĭĪáĭ³áĪĪáĬķ": 6748,
      "ĠáĬ¥áĬķáĬĲáĮĭáĮĪáĪ«áĪĪáĬķ": 6749,
      "ĠáįĪáĪįáĮĪ": 6750,
      "áĭĮ": 6751,
      "áĪĿáįķ": 6752,
      "áĪĿáĪ«áĪį": 6753,
      "áīµáĬ©áĪµ": 6754,
      "áĪĪáī°áĭĪáĪ°áĬĲ": 6755,
      "ĠáĬłáĬĲáĮĭáĮĪáĪŃ": 6756,
      "áĪµáĬ®": 6757,
      "áĪµáī¶áī½": 6758,
      "áīłáĬĲáĮĪ": 6759,
      "áīłáĮ¥áĪ©": 6760,
      "áīłáīłáĪ¨áĭ¶": 6761,
      "áĪĺáĮĪ": 6762,
      "áĪĺáĭĭ": 6763,
      "áĪģáĪĭáī½áĪģáĬķáĪĿ": 6764,
      "áī°áī£": 6765,
      "ĠáīłáĮįáĪ«": 6766,
      "ĠáīłáĬŃáįįáĪī": 6767,
      "áĬĵáīħ": 6768,
      "ĠáĪĺáĪ¨": 6769,
      "ĠáĪĺáĬ¨áĪ«": 6770,
      "áĭ¨áīłáĪ¨áĭ¶": 6771,
      "ĠáĬ¥áĬķáĮ«áĭĪáīµ": 6772,
      "áįĪáĬĲ": 6773,
      "áįĪáī»": 6774,
      "áī³áĪĪ": 6775,
      "áĮ£áįį": 6776,
      "áĪ°áĪ©áīµ": 6777,
      "áĬ¨áĬ¥áĬĵáĬķáī°": 6778,
      "ĠáĪĽáįį": 6779,
      "ĠáĪĽáĪĿáĮ£áīµ": 6780,
      "áĮĭáĬĿ": 6781,
      "áĮĭáĮ¤": 6782,
      "áįįáĪ¨áīµ": 6783,
      "Ġáī°áĮİáĭµ": 6784,
      "Ġáī°áĮĪáĬĵáĬĺáĬķ": 6785,
      "ĠáĪĪáī¥áĭĻ": 6786,
      "ĠáĪĪáĭĺáĪĭáĪĪáĪĿ": 6787,
      "ĠáĬłáĪįáī£": 6788,
      "ĠáĬłáĪįáĮĭáĭį": 6789,
      "ĠáīµáĮłáĭŃ": 6790,
      "áĭĭáĬĽ": 6791,
      "áĭĭáī±": 6792,
      "ĠáĪµáĪĿáĪħ": 6793,
      "ĠáĪ°áĮ£áīµ": 6794,
      "áī»áĪįáĬŃ": 6795,
      "áĬ«áĪľáĪ«": 6796,
      "áĭĽáĭ¥": 6797,
      "áĪ½áĪĽáĮįáĪĮ": 6798,
      "ĠáĬłáĪµáĬ¨áįĬ": 6799,
      "ĠáĪįáĪĿ": 6800,
      "ĠáĮ¥áĪĭ": 6801,
      "ĠáĬłáĪĭáĭ¨": 6802,
      "ĠáĬłáĪĭáĮĪáī£": 6803,
      "ĠáĪģáĬĶáī³áĭį": 6804,
      "áĪµáī°áĭį": 6805,
      "Ġáĭ¨áī°áĮĭáī£": 6806,
      "áĭ±áĬĿ": 6807,
      "áĬłáĬķáĭµáĪĿ": 6808,
      "áĪľáĪª": 6809,
      "ĠáĬłáīµáīłáĪį": 6810,
      "áĪ¸áĪĽ": 6811,
      "áĪ¸áĭĭ": 6812,
      "Ġáī£áĬķ": 6813,
      "ĠáĬ¥áĬķáĭ²áĬĸáĪ¨áĬĿ": 6814,
      "ĠáĬ¥áĬķáĭ°áĪļáĪį": 6815,
      "ĠáĭµáĪĥ": 6816,
      "áĪ³áĭŃáĬķáĪµ": 6817,
      "ĠáĪ³áĮ¥": 6818,
      "áĭ°áĪ¨áĮī": 6819,
      "ĠáĬ¥áĭ«áĮłáĬĵ": 6820,
      "ĠáĬ¥áĭ«áĮĭáĮł": 6821,
      "ĠáĪµáĪĪáĪĺ": 6822,
      "ĠáīĨáĪŁáĪį": 6823,
      "áĭ©áĬĴáī¨áĪŃáĪ²áī²": 6824,
      "ĠáĪŀáī°áĭĭáĪį": 6825,
      "ĠáĪŀáĬŃáĪ¬": 6826,
      "ĠáĪ²áĪĦáĭµ": 6827,
      "áĭķáĬĸ": 6828,
      "áĬłáĬķáīº": 6829,
      "Ġáī¢áĪµ": 6830,
      "ĠáīģáĪŃáĮ¥": 6831,
      "áĭ¨áī°áĪĪáĭ¨": 6832,
      "áĪįáĬŃáĪĿ": 6833,
      "ĠáĬłáĪįáī»áĪīáĪĿ": 6834,
      "áīĢáĪĺáĮłáĭį": 6835,
      "áīłáĬłáĪĪáĪĿ": 6836,
      "ĠáĬłáĪįáī°áīĢáīł": 6837,
      "ĠáĮİáĮĨ": 6838,
      "ĠáĬ¥áĬķáĭ°áĪĿáĬĵ": 6839,
      "áĮłáĭŃáīģáĬĿ": 6840,
      "ĠáīłáĪĽáĭŃ": 6841,
      "ĠáĭŃáĪ°áĪĽáĪĥáĪį": 6842,
      "áīłáĪŃáĬ«áī³": 6843,
      "ĠáĬ¥áĭµáĮĪáīµ": 6844,
      "áĪ³áī½áĬķáĬķ": 6845,
      "áĪĢáĭŃ": 6846,
      "ĠáĬ®áĬķáĪ°áĪŃáīµ": 6847,
      "Ġáīłáī°áĪ³áĪ³áī°": 6848,
      "ĠáĪĺáĮ£áĪį": 6849,
      "áĬ¨áįįáĪį": 6850,
      "áīłáīĢáĪĭáĪī": 6851,
      "ĠáĪķáĭŃáĭĪ": 6852,
      "ĠáĬłáĮ¥áĬķ": 6853,
      "ĠáĪĺáĪŃáĬ¨": 6854,
      "áĪµáī³áĭįáĪµ": 6855,
      "áĭĪáĬķáĮĢáĪį": 6856,
      "Ġáĭ¨áĪļáĭ«áĪµáĭ°áĪµáīµ": 6857,
      "áĭ¨áĭįáĪĿ": 6858,
      "ĠáĬ©áĪ«áīµ": 6859,
      "áĭĪáĪŃáĭµ": 6860,
      "Ġáĭ¨áĬ¥áĬĶáĬķ": 6861,
      "áĪ¾áĪŃáī£": 6862,
      "ĠáĮŃáĬķ": 6863,
      "áĪĽáĪįáīĢáĪµ": 6864,
      "áĪįáĮĨáī¹áĬķ": 6865,
      "ĠáĮĥáĬŃ": 6866,
      "áĬķáīĢáĮłáīĢ": 6867,
      "áĬ¨áĬķáī²": 6868,
      "ĠáĮĪáī¥áī·áĪį": 6869,
      "ĠáĬłáī£áĪĭáīµ": 6870,
      "áĪ»áĪ»áĪį": 6871,
      "ĠáĬĲáĮĪáĪ¨áī½áĬĿ": 6872,
      "ĠáĪ°áĮ¥áī·áĪį": 6873,
      "ĠáĮ¸áĪĲáįĬ": 6874,
      "áĭµáĪ¨áĮĮ": 6875,
      "ĠáĭįáĮ¤áī³áĪĽ": 6876,
      "áĪĺáĪĪáĬ¨áīµáĪĿ": 6877,
      "ĠáĪįáĮĨáī¹áĬķ": 6878,
      "áī³áĪªáĬ©": 6879,
      "áīĢáĭµáĪŀáĭįáĬĳ": 6880,
      "áĮĪáĪįáĮįáĪİáīµ": 6881,
      "ĠáĪµáĪħáī°áī¶áī½": 6882,
      "ĠáĬłáĮĭáĮ¥áĪŀáĬĿ": 6883,
      "áīĢáĮ¥áĪįáīłáīµ": 6884,
      "Ġáī¸áĬ®áĪĮáīµ": 6885,
      "ĠáĬ¥áĮ¥áįį": 6886,
      "ĠáĪĪáĪĽáĮ¥áįĭáīµ": 6887,
      "Ġáī°áĪĿáĪ¬áĭ«áĪĪáĪģ": 6888,
      "ĠáĭĪáĭ³áĭµ": 6889,
      "áī¥áĪµáĬŃáĪĮáī´áĬķ": 6890,
      "Ġáī°áĮĪáĬĿáī·áĪį": 6891,
      "Ġáī¥áĬķáĪĨáĬķ": 6892,
      "ĠáĪŀáĬŃáĪ¨áĭĭáĪį": 6893,
      "áĪĺáĮĭáĮĪáī¥": 6894,
      "áĪĺáī¸áĬ®áĪį": 6895,
      "ĠáĪ³áĬķáī²áĪĿ": 6896,
      "Ġáĭ«áĭ³áĪĿáĮ¡": 6897,
      "áĪļáĪµáīµáĪħ": 6898,
      "Ġáī³áĪĿáĪľáĬłáĪĪáĪģ": 6899,
      "ĠáĪµáĬ¬áī³áĪĽ": 6900,
      "ĠáĭµáĮįáĪ±": 6901,
      "áĪĽáī¥áĪ«áĪ«áīµ": 6902,
      "ĠáĬłáĪįáĪĦáĭµáĬ©áĪĿ": 6903,
      "ĠáĬŃáĪŃáĬŃáĪŃ": 6904,
      "ĠáĬ¥áĭ«áĬķáĭ³áĬķ": 6905,
      "ĠáĬłáĪĪáĪĺáī³áĭ°áĪį": 6906,
      "ĠáĬ¨áĪĪáĬ¨": 6907,
      "ĠáĪĭáĬĲáĮĭáĮįáĪŃ": 6908,
      "Ġ3": 6909,
      "ĠáįĵáĪŃáĬ©": 6910,
      "áĮ¾": 6911,
      "áīµáĪĥáĭĬ": 6912,
      "áĪįáīĢáīµ": 6913,
      "áĪįáĬĲáĮįáĪŃáĪħ": 6914,
      "áĪµáī¸áĮĪáĪŃ": 6915,
      "ĠáĬ¥áĪĭáĪĪáĪģ": 6916,
      "ĠáĬ¥áĮĦáĬķ": 6917,
      "áĮĪáī¤": 6918,
      "áĮĪáĬĽáĪĪáĪģ": 6919,
      "áĪĭáĪĪáĬķ": 6920,
      "áī°áĬĲ": 6921,
      "Ġáĭ¨áĪµ": 6922,
      "Ġáĭ¨áĬķáĮįáĭµ": 6923,
      "áĭ«áĭ°áĪ¨áĮį": 6924,
      "ĠáĪĺáī»áĪį": 6925,
      "ĠáĪĺáĮ¨áĪ¨áĪ»áĭį": 6926,
      "ĠáĪĺáĭ°áĪĿáĭ°": 6927,
      "áĭ¨áĭĪáĭ°": 6928,
      "áĭ¨áĪ°áĭį": 6929,
      "áĭ¨áĬ¥áĮħ": 6930,
      "áĬĲáĪĥáĪį": 6931,
      "áĬĲáĮĪáĪ¨áĬĿ": 6932,
      "áĪĽáĬĸ": 6933,
      "ĠáĭŃáīģ": 6934,
      "ĠáĭŃáĮĪáĬĽáĪī": 6935,
      "áī³áĮłáī¢áĭ«": 6936,
      "áĪ«áĬĿ": 6937,
      "áĬłáĮŃáĪŃ": 6938,
      "áĬłáĪĿáĪµáīµ": 6939,
      "áĬłáįįáĬķáĮ«": 6940,
      "áĮłáĭĭáī±": 6941,
      "áĭ³áī½áĪģ": 6942,
      "áī£áĭĬ": 6943,
      "áĪ³áĪ°áī¥": 6944,
      "áĭİáī¼áĬķ": 6945,
      "Ġáĭ«áī¥áĪ©": 6946,
      "ĠáĬłáĭŃáī¥": 6947,
      "ĠáĬłáĪįáĪ°áĪ«": 6948,
      "ĠáĬłáĪįáĮłáī¥áīħáĪĿ": 6949,
      "ĠáīµáĪĪáī¥": 6950,
      "ĠáĮĬáĭľáĭ¬áĬķ": 6951,
      "ĠáĪįáĪĨáĬķ": 6952,
      "ĠáĪįáĭ°áĭįáĪį": 6953,
      "ĠáĪįáĬĲáĮįáĪŃ": 6954,
      "áĪĥáįį": 6955,
      "áĪŀáĪį": 6956,
      "ĠáīĢáĭµáĪĺ": 6957,
      "áĪĪáĪĿáĪ³": 6958,
      "Ġáĭ¨áĪļáįĪáĪįáĮīáīµáĬķ": 6959,
      "áĮīáīµáĬķ": 6960,
      "áī¡áīłáīµ": 6961,
      "Ġáī³áĮłáįĭ": 6962,
      "Ġáī¤áī·": 6963,
      "Ġáĭ¨áī°áĪ¨": 6964,
      "Ġáĭ¨áī°áĪ«": 6965,
      "áīµáĬķáįĭ": 6966,
      "áĬ®áĪļ": 6967,
      "ĠáĬłáĬķáĪĦáĭµáĪĿ": 6968,
      "áįİáī¹": 6969,
      "áīĦáĬłáĪĪáĪģ": 6970,
      "áĪ°áī¥áĪ°áī¥": 6971,
      "áįĵáĪµ": 6972,
      "ĠáĪŀáī±": 6973,
      "ĠáĪŀáī°áĪŃ": 6974,
      "ĠáįįáīµáĪĥáĭĬ": 6975,
      "ĠáĮĵáĭ°áĬĿáĬĲáīµ": 6976,
      "áĭķáĭµáĪį": 6977,
      "ĠáĪĦáĭ¶": 6978,
      "ĠáĬłáĭŃáĪĺáĪµáĪįáĪħáĪĿ": 6979,
      "Ġáī³áĭįáīĥáĪĪáī½": 6980,
      "Ġáĭ¨áĪĿáīµáĬĸáĪ¨áĭį": 6981,
      "ĠáĪĪáĪĿáĬķáĭµáĬĲáĭį": 6982,
      "áĭ¨áĪĿáĪ½áī±": 6983,
      "áīłáĪįáĮ¥": 6984,
      "áī°áĭįáīµ": 6985,
      "áĭĿáĬĵáĬĳ": 6986,
      "áĭĺáĮĭáĭį": 6987,
      "áįĸáĪĬáĪ¶áī½": 6988,
      "áĭĪáĬķáĭµáĪĿ": 6989,
      "ĠáĮĪáĭĽáĪħ": 6990,
      "áĬķáĮįáĮįáĪ©": 6991,
      "áĭ¥áĪĿ": 6992,
      "ĠáĭĪáĭµáīĭáĪį": 6993,
      "ĠáĪĺáīĢáī£áīµ": 6994,
      "ĠáĪ½áĪįáĪĽáīµ": 6995,
      "ĠáĮįáĭµáĮįáĭ³": 6996,
      "áī³áĪĽáĬĿáĬĲáīµ": 6997,
      "ĠáĬłáĭ°áĪ¨áĮįáĬ©áīµ": 6998,
      "áĬ¥áĪħáīµáĪħ": 6999,
      "ĠáĮŃáĪµ": 7000,
      "ĠáĭĪáĪµáĬĹáĪį": 7001,
      "ĠáĬ¢áĬ®áĬĸáĪļ": 7002,
      "áīłáĪĺáĮ¨áĪ¨áĪ»áĪĿ": 7003,
      "ĠáĭŃáĬĵáĮĪáĪ«áĪī": 7004,
      "ĠáĮ¨áĭĭáī³áĭİáī½áĬķ": 7005,
      "ĠáĪģáĪĪáī±": 7006,
      "áĪĺáĭĿáĮį": 7007,
      "áĭ«áĪįáī°": 7008,
      "áĬ¥áĬķáĭ²áĭ«": 7009,
      "áĬĥáĬĴ": 7010,
      "Ġáī°áĮ¨áĬĵ": 7011,
      "ĠáĪĺáĪĺáĪªáĭ«": 7012,
      "áĪģáĪĪáī³áī½áĪģ": 7013,
      "áī³áĪªáĬ©áĬķ": 7014,
      "ĠáĬ¥áĮĪáī£áĪįáĪĥáĪĪáĪģ": 7015,
      "áīłáīłáĮĭ": 7016,
      "ĠáīµáĪ°áĪ«áĪĪáī½": 7017,
      "ĠáĬ¥áĬķáīģáĪĭ": 7018,
      "Ġáī°áīĨáĪį": 7019,
      "Ġáī°áĮĪáĪ¨áĪĿáĬ©": 7020,
      "áīµáĬ©áĪ¨áīµ": 7021,
      "áĬ«áĬ¨áĪĭáī¸áĭį": 7022,
      "Ġáī°áī£áĪ¨áĪ¨": 7023,
      "Ġáĭ¨áĪĨáĬĳáīµ": 7024,
      "ĠáĬ¥áĭ¨áĪĦáĭµáĬ©": 7025,
      "ĠáĬ¥áīĥáĭİáī½": 7026,
      "áī¥áī¸áĬĽ": 7027,
      "ĠáĬ¥áĬĲáĭļáĪħáĬķ": 7028,
      "áĭ³áĭ³áĪª": 7029,
      "áĪĪáĬ¥áĪŃáĭ³áī³áĭİ": 7030,
      "áĮīáĪ¨áĪĿáĪ¨": 7031,
      "ĠáĬ¨áĪĺáĪĦáĭµáĭİ": 7032,
      "ĠáĪĬáĬĲáĮįáĪ©áĬķ": 7033,
      "ĠáĬłáĪįáĮłáīłáĬ©áĪĿ": 7034,
      "ĠáĪĪáĪĺáĪįáīĢáīħ": 7035,
      "ĠáĪ¬áĪµáī¶áĪ«áĬķáīµ": 7036,
      "Ġáī§áĬķ": 7037,
      "ĠáĬłáīĨáĪĿáĬ©": 7038,
      "ĠáĬĲáīĥáĪģ": 7039,
      "ĠáĬłáĭĪáĪĪáīĢ": 7040,
      "Ġáī°áĬĵáĮįáĪ«áĪĪáī½": 7041,
      "ĠáīĢáĭµáĪĺáĪħ": 7042,
      "Ġ6": 7043,
      "ĠáįĴ": 7044,
      "áī¬": 7045,
      "áĪĿáĬĵ": 7046,
      "áĪĪáĮł": 7047,
      "áĪĪáĭĪáĮł": 7048,
      "ĠáĬłáĭĺáĮĭáĮĢ": 7049,
      "ĠáĬ¥áįİáĭŃáī³": 7050,
      "áīłáĪĨáĬĲ": 7051,
      "áĪĺáīĨ": 7052,
      "áĪĺáĬĲáĮĭáĮĪáĪŃ": 7053,
      "áĪĺáĪŀáĬ¨áĪŃ": 7054,
      "áĪĺáĪ«áĭį": 7055,
      "áĪĺáĪ®áĮ¥": 7056,
      "áĪ¨áĪ±": 7057,
      "áī°áĪ¨áĮĭáĮĭ": 7058,
      "áī¥áĪħáĪĿ": 7059,
      "áī¥áĪ©áĪħ": 7060,
      "Ġáĭ¨áĭļáĪħ": 7061,
      "Ġáĭ¨áĪĦáĭµ": 7062,
      "Ġáĭ¨áĪ°áĮł": 7063,
      "Ġáĭ¨áĮ¥áĪŃáĪµ": 7064,
      "Ġáĭ¨áĪĭáīµáĪĿ": 7065,
      "ĠáīłáĪĽáĬķ": 7066,
      "ĠáīłáĪĮáĪĭ": 7067,
      "Ġáīłáĭ°áĪµáī³": 7068,
      "áĭ¨áīł": 7069,
      "áĭ¨áĬĽ": 7070,
      "áĪĽáĪ©": 7071,
      "áĪĽáĪ¸áĬĲáįį": 7072,
      "ĠáĭŃáĪĪáī¥": 7073,
      "ĠáĭŃáĬĳáĪŃ": 7074,
      "áī³áī½áĪģ": 7075,
      "áĬłáī£áīµ": 7076,
      "áĭĪáįįáĪ«áĪĿ": 7077,
      "áĮłáĪħ": 7078,
      "áĮłáīĨ": 7079,
      "áĪ°áīµ": 7080,
      "áĪ°áĪĭáĪ³": 7081,
      "áĭ³áĪī": 7082,
      "áī£áīĤ": 7083,
      "áĬ¨áī¤áī´": 7084,
      "áīħáĭ³áĪľáĬĵ": 7085,
      "ĠáĪĽáĪŃ": 7086,
      "ĠáĪĽáĮ½áĭ³áīµ": 7087,
      "áĪ³áįĪ": 7088,
      "áĪ³áī¢": 7089,
      "Ġáĭ«áĪĭ": 7090,
      "Ġáĭ«áĮ£": 7091,
      "Ġáĭ«áĪĺáĮ£áĪį": 7092,
      "Ġáī°áĪ¨áĮĭáĮĭ": 7093,
      "ĠáĬłáĭŃáī°áĬĵáĪį": 7094,
      "ĠáĬłáĭŃáĪŀáĬŃáĪ©": 7095,
      "ĠáĬłáĭŃáĭĪáĭ±": 7096,
      "ĠáĬ¥áĬķáĭ°áĪĦáĭ°": 7097,
      "áĬ©áĬª": 7098,
      "ĠáĬ¨áĪĽáĬķáĪĿ": 7099,
      "ĠáĪµáĪĪáĪĿ": 7100,
      "ĠáĭįáĪ°áĭ±": 7101,
      "áĬ«áī¤": 7102,
      "áĭĽáįį": 7103,
      "Ġáĭ°áĭĪáĪĪ": 7104,
      "áĭĺáĪĺ": 7105,
      "áĬĲáīµáĪħáĬķ": 7106,
      "ĠáĬłáĪĭáĭĪáīħ": 7107,
      "ĠáĬłáĪĭáĪµáī¥áĪĿ": 7108,
      "áĮ¨áīł": 7109,
      "Ġáĭ¨áĪļáĪĺáĮ£áĭį": 7110,
      "Ġáĭ¨áĪļáī½áĪīáīµ": 7111,
      "áīĨáī½": 7112,
      "áīĨáĪĽ": 7113,
      "áīłáīµáĬŃáĬŃáĪĪáĬĽáĭį": 7114,
      "áĪµáī°áĬĵ": 7115,
      "ĠáĬ¥áĬĵáĭį": 7116,
      "ĠáĪĪáĪĺáĮ»áįį": 7117,
      "áĪİáĬķ": 7118,
      "Ġáĭ¨áī°áĬĵáĮĪáĪŃ": 7119,
      "áĭ±áĪµáīµ": 7120,
      "Ġáī¤áīµáĭİ": 7121,
      "áĪĪáĬķáĭ°áĬķ": 7122,
      "ĠáĬłáīµáīģáĪ¨áĮ¥": 7123,
      "ĠáĬłáīµáĪĺáĬĳ": 7124,
      "ĠáĬłáīµáĬĲáĮįáĪ¨áĬĿáĪĿ": 7125,
      "ĠáĬŃáī¥áĪŃ": 7126,
      "ĠáĬŃáĪĭáĭį": 7127,
      "áĮ¡áĬĿ": 7128,
      "ĠáĬ¥áĬķáĭ°áĪļáĪ°áĪĽáĪħ": 7129,
      "ĠáĪ³áīµ": 7130,
      "ĠáĪĺáĬķáĭ°áĪŃ": 7131,
      "áĬŀáī¹áĬķ": 7132,
      "ĠáĬ¥áĭ«áĪįáĬŃ": 7133,
      "ĠáĬ«áĪĭ": 7134,
      "ĠáĬ«áįĸáĪŃáīµ": 7135,
      "áĪĺáĪįáĬ¥áĬŃ": 7136,
      "ĠáīĨáĪŀ": 7137,
      "áĪ¨áĭ³áĭİ": 7138,
      "áĬŃáĪįáĬĿ": 7139,
      "áĪĺáĪŃáĪĺáĪŃ": 7140,
      "áī¶áī½áĭİáĬķ": 7141,
      "ĠáĪĢáī¥áīµ": 7142,
      "áįķáĪª": 7143,
      "áĭĪáĭµáĪħ": 7144,
      "ĠáĬłáĪµáī°áĭį": 7145,
      "Ġáĭ¨áĪĺáĪĨáĬķ": 7146,
      "ĠáĬ¥áĬķáĭµáīµáĭĪáĮ£": 7147,
      "ĠáĬłáĭįáĮ£": 7148,
      "Ġáī°áĬĵáĮĪáĪ©": 7149,
      "ĠáĬ¥áĬķáĭ°áĪĿáĪĦáĭµ": 7150,
      "áĬĸáĪŃáīłáīµ": 7151,
      "ĠáĭŃáĪ°áĪĽáĭĭáĪį": 7152,
      "Ġáĭ¨áĬłáĭį": 7153,
      "áĭĺáĮĭáĮģ": 7154,
      "áĬłáī£áī´áĬķ": 7155,
      "ĠáĬ®áĬ¨áī¥": 7156,
      "áĪ¥áĪ«áĭ¬áĬķ": 7157,
      "ĠáĪĺáīĨáĮłáī¥": 7158,
      "Ġáī£áĪĪáĮĮ": 7159,
      "ĠáĬĲáīłáĪŃáĬ©áĬĿ": 7160,
      "ĠáĮłáĬķáĬŃáĪ¬": 7161,
      "áīłáĭĽáī¥áĬĿ": 7162,
      "áĪĺáĮ½áĪĲáįī": 7163,
      "ĠáĪļáĪĬáĭ®áĬķ": 7164,
      "áĮįáĪ©áĪĿ": 7165,
      "Ġáī¥áĪŃáĭµ": 7166,
      "ĠáĭŃáĬĸáĪ¨": 7167,
      "áīĢáĪ¨áī¥": 7168,
      "áĮįáĭµáĭ«": 7169,
      "ĠáĬ¥áī£áĬ«áī½áĪģ": 7170,
      "áĬłáĪµáī°áĭĭáĭŃ": 7171,
      "áĮłáĮ£áĪĪáĪħ": 7172,
      "ĠáĬ¥áĬķáĭ°áĪĽáĭŃáī½áĪį": 7173,
      "ĠáĪ±áĪ°": 7174,
      "ĠáĬłáĪµáī°áĪĽáĪªáĭİáī½": 7175,
      "Ġáī°áĬĿáī¶": 7176,
      "ĠáĬ¥áĬķáĭ°áĪļáĭ«áĭįáīħ": 7177,
      "ĠáĮĪáī¥áī°áĪĥáĪį": 7178,
      "áĮįáĪ®áī¼": 7179,
      "áįĪáī°áĬĵáĭį": 7180,
      "áĬ«áĬķáĪ°áĪŃ": 7181,
      "áĭµáĪĿáĮ½": 7182,
      "ĠáĪįáĮĨáī½áĬķ": 7183,
      "ĠáīłáĪ°áĪĭáĪĿ": 7184,
      "áĬłáī¥áĭĽáĬĽáĭįáĬķ": 7185,
      "Ġáĭ²áĮįáĪª": 7186,
      "ĠáĪĿáĮįáī¦áī½áĬķ": 7187,
      "áīĢáĬĵáī°áĬĽ": 7188,
      "áįķáĪ¬áĭĿ": 7189,
      "ĠáĮłáĮ£áĪģ": 7190,
      "ĠáĭŃáĮłáĭŃáīĥáĪį": 7191,
      "áĪµáĪįáĬ¬": 7192,
      "ĠáĪĺáĬķáīĢáĮ¥áīĢ": 7193,
      "ĠáĬłáĪ³áĭŃáĪĥáĪĪáĪģ": 7194,
      "ĠáĪĺáĮ½áĪĥáįį": 7195,
      "ĠáĭŃáĭ°áĭįáĪīáĪįáĬĿ": 7196,
      "Ġáĭ¨áī°áĭ°áĬĵáĮĪáĮł": 7197,
      "ĠáĪħáĭŃáĭĪáī±": 7198,
      "Ġáĭ¨áĪĽáĭŃáī³áĪĺáĬķ": 7199,
      "Ġáĭ¨áĬĲáĮĪáĪŃáĬ©áĪħ": 7200,
      "ĠáĬ¥áĭ¨áĪĦáĭµáĬķ": 7201,
      "ĠáĮĪáĪĿáī»áĪĪáĪģ": 7202,
      "áīģáĪįáįİáī¼áĬķ": 7203,
      "ĠáĬłáĪĭáĭĪáīĢáĪĿ": 7204,
      "ĠáĪŃáĭķáĪ°": 7205,
      "ĠáĬłáĪįáĬĲáĮĪáĪ¨áĬĿáĪĿ": 7206,
      "Ġáī°áĬĲáĪµáī·áĪį": 7207,
      "ĠáįĭáĭŃáĭ³": 7208,
      "ĠáĬ¥áĮłáĪĭáĭĭáĪĪáĪģ": 7209,
      "áĬ©áī£áĬķáĭ«": 7210,
      "ĠáĬ¥áĭ¨áī°áĮ«áĭĪáī°": 7211,
      "ĠáĭŃáĮ®áĬ»áĪį": 7212,
      "ĠáĮŃáĬķáīĢáīµ": 7213,
      "áĮīáĪ¨áĪĿáĪ¨áĪĿ": 7214,
      "yen": 7215,
      "áįĤ": 7216,
      "ĠáĪ£": 7217,
      "áĪĿáĮįáī¡": 7218,
      "áĪĪáĪ«áĪµáĪħ": 7219,
      "ĠáĬłáĪ«": 7220,
      "ĠáĬłáĭĺ": 7221,
      "ĠáĬłáĭĺáĭĺ": 7222,
      "áĪŃáįĸáĪŃáīµ": 7223,
      "áĪµáĪĪáĪĿ": 7224,
      "áĪµáįĪáĪ«": 7225,
      "ĠáĬ¥áĬ©áĪĪ": 7226,
      "ĠáĬ¥áĪĿáī¥áĭĽáĪĿ": 7227,
      "áīłáĭĪáĪŃ": 7228,
      "áīłáĭĿáĬĵáī¥": 7229,
      "áĪĺáī°áĭį": 7230,
      "áĪĺáĪ¬áīµ": 7231,
      "áĪĺáīĨáĭ¨áīµ": 7232,
      "áĮĪáĭ°áĪį": 7233,
      "áĮįáĪĪ": 7234,
      "áĮįáĭĽ": 7235,
      "áĮįáĭ´áī³": 7236,
      "áĪ¨áĪĿ": 7237,
      "áĪ¨áīµáĬķ": 7238,
      "Ġáĭ¨áĪŀ": 7239,
      "Ġáĭ¨áĭ°áĪ¨": 7240,
      "Ġáĭ¨áĮłáįĭ": 7241,
      "Ġáĭ¨áĮĢáĪĺáĪŃ": 7242,
      "Ġáĭ¨áĮĪáĬķáĭĺáī¥": 7243,
      "Ġáĭ¨áĬ¢": 7244,
      "Ġáĭ¨áĬłáīµáĬŃáĪįáīµ": 7245,
      "Ġáīłáī¥áĭĻ": 7246,
      "ĠáīłáĬ¥áĬĽ": 7247,
      "ĠáīłáĪĽáĬķáĬĽáĭįáĪĿ": 7248,
      "ĠáīłáĬ¨áĬķáī±": 7249,
      "áĬĵáĬĲáīħ": 7250,
      "áĬĵáĮįáĪ«áī½áĪģ": 7251,
      "áĭ¨áįĢáĪĲáĭŃ": 7252,
      "áĭ¨áĭĭáĪħ": 7253,
      "áĬĲáĬĵáĪį": 7254,
      "ĠáĭŃáĪĻáĪī": 7255,
      "áĪ«áĮĢáīµ": 7256,
      "áĬłáĪĿáĪŃ": 7257,
      "áĮ¥áĪ¨áīµ": 7258,
      "áĮ£áĪ«": 7259,
      "áĪ°áĬĽáĪį": 7260,
      "áĭ³áĪĿ": 7261,
      "áĬŃáĪ©": 7262,
      "áī£áĪĪáī½": 7263,
      "áī£áīłáīĥ": 7264,
      "áīħáĭ³áĪľ": 7265,
      "áĮĭáĮ¥": 7266,
      "áĭİáīµáĬķ": 7267,
      "Ġáĭ«áĪĺáĪĪ": 7268,
      "Ġáĭ«áĪĽáĪį": 7269,
      "Ġáī°áĭĽ": 7270,
      "Ġáī°áĪĺáĪŃ": 7271,
      "Ġáī°áĭ°áĪ¨áĮĪ": 7272,
      "Ġáī°áĮĪáĬĵáĬĿ": 7273,
      "ĠáĬĲáīłáĪ«áī½áĪģ": 7274,
      "ĠáĬłáĭŃáĮ¥": 7275,
      "ĠáĪĪáĪļ": 7276,
      "ĠáĪĪáĪ«áĪµáĪħ": 7277,
      "ĠáĪĪáĪ°áĭĵáī³áīµ": 7278,
      "ĠáĬłáĪįáĬ©áĬĿ": 7279,
      "ĠáĬłáĪĪáīĢáĪ°": 7280,
      "áīĥáĪīáĬķ": 7281,
      "ĠáĬ¥áĬķáĭ°áĬĲáīłáĪ©": 7282,
      "ĠáĬ¨áĪĺáĪµ": 7283,
      "ĠáĬ¨áĮłáĪ¨áĮ´áĭĽáĭį": 7284,
      "Ġáīµáī¶": 7285,
      "ĠáīµáīĨ": 7286,
      "ĠáīµáĪ°áĮł": 7287,
      "ĠáīµáĪĭáĬķáīµ": 7288,
      "ĠáīµáĮłáīĢ": 7289,
      "ĠáĭĪáįİáī½": 7290,
      "áĭĭáĭį": 7291,
      "ĠáĪµáĮĭáīµ": 7292,
      "ĠáĪµáĭ°áĪŃáĪµ": 7293,
      "ĠáĪ°áįĪáĪŃ": 7294,
      "áĪĪáĪħáĬķ": 7295,
      "áī¸áĮį": 7296,
      "ĠáĬłáĪµáĬ¨áįį": 7297,
      "ĠáĬłáĪµáīłáĪħ": 7298,
      "áĪĺáĪµáĮĪáĬķ": 7299,
      "áĪĺáĪµáĮĭáĬĿ": 7300,
      "Ġáĭ°áĮĭ": 7301,
      "Ġáĭ°áĪĺáĬĵ": 7302,
      "Ġáĭ°áĪ«áĪ²": 7303,
      "áĪĥáĭ«": 7304,
      "áĪ®áĭįáĬķ": 7305,
      "ĠáīĢáĭ¶": 7306,
      "áĪ»áĪĽ": 7307,
      "áĪ¬áĬłáĪĪáĪģ": 7308,
      "áĮ¨áĬķáīĢ": 7309,
      "Ġáĭ¨áĪļáĬĲ": 7310,
      "Ġáĭ¨áĪļáĮł": 7311,
      "Ġáĭ¨áĪļáįĪáĪįáĮĪáĭįáĬķ": 7312,
      "Ġáĭ¨áĪļáĪ»áĪį": 7313,
      "áĪĨáĬĲáĭįáĬķ": 7314,
      "ĠáĬ¥áĭ¨áįĪáĪĪáĮĪ": 7315,
      "ĠáĬ¥áĭ¨áĪ®áĮł": 7316,
      "ĠáĮĪáī¢": 7317,
      "áĬĸáī¹": 7318,
      "ĠáĬ¥áĬĵáīµ": 7319,
      "ĠáĮłáī£áī¥": 7320,
      "Ġáĭ¨áī°áĮłáīłáīĢ": 7321,
      "Ġáĭ¨áī°áĮ¨áĬĲáīĢ": 7322,
      "áĬªáĬĸáī½": 7323,
      "ĠáĪĬáĬĲáĮįáĪ©áĬĿ": 7324,
      "áĪ¸áĪ¸": 7325,
      "áĮĪáī£áĪģ": 7326,
      "ĠáĬ¥áĬķáĭµáĬĵáĭ°áĪŃáĮį": 7327,
      "áĭ¶áĪ»": 7328,
      "áĪĺáĪĪáĪ±": 7329,
      "ĠáĬłáĬķáĬ³áĬ³": 7330,
      "áĭ°áĪ¨áĮīáīµ": 7331,
      "ĠáĬ¥áĭ«áĪ°áī¥áĬŃ": 7332,
      "ĠáĬłáĭ«áĭ°áĪŃáĮįáĪĿ": 7333,
      "ĠáĪµáĪĪáĪļ": 7334,
      "ĠáĪµáĪĪáĪ±": 7335,
      "ĠáĮīáĭµáĮĵ": 7336,
      "ĠáĭĵáĪĭáĪĽ": 7337,
      "ĠáĪŀáĬŃáĪŃ": 7338,
      "ĠáĪŀáĭ´áĪį": 7339,
      "áĪĪáĪĺáĮĢáĪĺáĪŃ": 7340,
      "ĠáĪ²áĮĪáī£": 7341,
      "ĠáĪ²áĪĺáĮ£": 7342,
      "ĠáĪĻáĭĿ": 7343,
      "ĠáĪĢáĭŃáīģ": 7344,
      "Ġáīħáĭ³áĪľ": 7345,
      "áĮłáī¥áīĢáĬĿ": 7346,
      "ĠáĪ¨áĭ³": 7347,
      "ĠáĪ¨áĮħáĪĻ": 7348,
      "ĠáĬłáĪįáī°áĮİáĭ³áĪĿ": 7349,
      "ĠáĬłáĭįáĪİ": 7350,
      "ĠáīĢáĬķáĪ·áĪį": 7351,
      "ĠáĬłáī³áĬĵáĮį": 7352,
      "ĠáĪĿáĬķáĭµáĬĵáī¸áĭį": 7353,
      "áĭĪáĮ£áĪħ": 7354,
      "áĪ²áĮĭáĪ«": 7355,
      "ĠáĬ¥áĬķáĭ³áĪĪáī¦áīµ": 7356,
      "ĠáĬ¥áĭįáĬĲáī±": 7357,
      "ĠáĬłáĪĿáĮ£": 7358,
      "áĪĢáī¥": 7359,
      "ĠáĬłáī¥áĪ¬": 7360,
      "áīªáĭ²áĭ®": 7361,
      "ĠáĬ¥áĮłáī£áīłáīĥ": 7362,
      "áĬłáī¥áĪ¨áĭį": 7363,
      "Ġáĭ³áĮįáĪĺáĬĽ": 7364,
      "ĠáīłáĪįáĮħ": 7365,
      "áĭľáĪĽ": 7366,
      "ĠáĪĺáīĨáĪĪáįį": 7367,
      "áī§áĪ«": 7368,
      "áĬĲáįįáĪµ": 7369,
      "áĭ°áĪ°áīµáĬķ": 7370,
      "ĠáĭĵáĪĺáī±": 7371,
      "ĠáĬłáĪŃáī²áĪµáīµ": 7372,
      "áī³áĪĽáĬĿ": 7373,
      "ĠáīłáĭĿáī¶áī£": 7374,
      "ĠáĮĢáĪĺáĪ¨áī½": 7375,
      "áĪįáĮĨáī»áī½áĪģ": 7376,
      "ĠáĪĺáī³áĮĪáĪµ": 7377,
      "áīĭáīĭáĪĺáĭį": 7378,
      "ĠáīłáĬ¥áĪ³áīµ": 7379,
      "ĠáĪĿáĪµáĮĭáĬĵ": 7380,
      "ĠáĪĪáĪĺáĪµáĪĽáīµ": 7381,
      "ĠáĬ¥áĬķáĭ°áĪļáĭ«áĭ°áĪŃáĮį": 7382,
      "ĠáĮ¨áĪŃáĪ°áĭĭáĪį": 7383,
      "ĠáĪĺáĪ³áī¢áĭ«": 7384,
      "áĮĵáĭĿáĬķ": 7385,
      "áīłáĮ¥áĬķáīĥáīĦ": 7386,
      "áĭĺáĮĪáĭ¨": 7387,
      "áĬŃáĪ¬áĪĿ": 7388,
      "ĠáĪĺáĮ¨áĬĵáĬĲáīħ": 7389,
      "ĠáĬłáįįáī³": 7390,
      "áĭĵáĪĺáī³áīµ": 7391,
      "ĠáĬ¥áĭ«áĭ°áĪ¨áĮī": 7392,
      "ĠáĮ¥áĬķáĬ«áĪ¬": 7393,
      "áī¡áĭµáĬĳ": 7394,
      "ĠáĪĪáĪĽáĮ¥áĪĺáĭµ": 7395,
      "ĠáĬłáĪŃáĮħáī»áĪĪáĪģ": 7396,
      "ĠáĬĳáĪ®": 7397,
      "ĠáĪĺáĮ½áĪĥáįİáī½áĬķ": 7398,
      "Ġáĭ«áĪĿáĬĵáĪį": 7399,
      "ĠáĬ¨áĪĮáĪĪ": 7400,
      "áĬĴáĭįáĭ®áĪŃáĬŃ": 7401,
      "ĠáĬłáĭĪáīħáĬŃ": 7402,
      "ĠáĬłáĬķáĭ³áī¸áĭįáĪĿ": 7403,
      "áĭ¨áī°áĭĪáĪĪáĭµáĬ©áīµ": 7404,
      "ĠáĭŃáĬ¨áī¥áĭ°áĬĽáĪį": 7405,
      "áīłáī°áī»áĪĪáĬĿ": 7406,
      "áįķáĪ¬áĭļáĭ³áĬķáī±": 7407,
      "Ġáī°áĪ¨áĭ³áĪģ": 7408,
      "Ġáī§áĬķáī§": 7409,
      "ĠáĬ¥áĮłáī£áīłáīĥáĪĪáĪģ": 7410,
      "!\"": 7411,
      "Ġyen": 7412,
      "áī®": 7413,
      "ĠáĬłáīłáĪĭáĪ½": 7414,
      "áĪµáĬ©": 7415,
      "ĠáĬ¥áĪ³áīµ": 7416,
      "ĠáĬ¥áĮłáī¥áīħ": 7417,
      "ĠáĬĲáĪŃ": 7418,
      "áīłáĭŃ": 7419,
      "áīłáĭµáĪŃ": 7420,
      "áīłáĪ¥áĪ«": 7421,
      "áīłáĬ¨áī°áĪĽ": 7422,
      "áĭ°áĬĿáĬĲáīµ": 7423,
      "áĭ°áįĭáĪŃ": 7424,
      "áĪĺáĬĵáĮĪáĪŃ": 7425,
      "áĭµáĪļáĭ«": 7426,
      "áĮįáĭĻ": 7427,
      "áĪĭáĭįáīħ": 7428,
      "áĪ¨áĭ±áĬķ": 7429,
      "Ġáĭ¨áĬ¥áĪ¨áįįáīµ": 7430,
      "Ġáĭ¨áĭĭáĪħ": 7431,
      "áĭ«áīµáĪŃ": 7432,
      "ĠáīłáĬŃ": 7433,
      "áĭ¨áĪµ": 7434,
      "áĭ¨áĬªáĪµ": 7435,
      "áĬĲáīĢáĬĿ": 7436,
      "ĠáĬ¥áĬķáīĢáĪĺáĮ¥": 7437,
      "ĠáĬ¥áĬķáĮ¨áīµ": 7438,
      "áįĪáĮ£áĬķ": 7439,
      "áĪĽáĪ²": 7440,
      "áĪĽáīĭáĪ¨áĮ¥": 7441,
      "ĠáĭŃáĪĺáĭĿ": 7442,
      "áī³áĬķ": 7443,
      "áī³áĮĭáĪ½": 7444,
      "áĪ«áī¸áĭįáĬķ": 7445,
      "áĬłáĪ¨áĬķáĮĵáĭ´": 7446,
      "áĮ¥áĬķáīĥáīĦ": 7447,
      "áĪ°áĪŀ": 7448,
      "áĪ°áĭİáī½áĬķ": 7449,
      "áĭ³áī¦": 7450,
      "áī£áī½áĪģ": 7451,
      "áī£áĪħáĪª": 7452,
      "áĬ¨áĬ¥áĪ«áīµ": 7453,
      "áĮĭáĪį": 7454,
      "áĪ³áī¸áĭį": 7455,
      "áĪ³áī¸áĭįáĬķ": 7456,
      "Ġáĭ«áīłáīĥáĪį": 7457,
      "Ġáī°áĮĪáĬĺ": 7458,
      "Ġáī°áįĪáĮ¥": 7459,
      "Ġáī°áĪŀáĬŃáĪ®": 7460,
      "ĠáĬłáĭŃáĪ¨áĭ³": 7461,
      "Ġáī¥áĪ¨áīµ": 7462,
      "ĠáĬłáĪĪáĪĿ": 7463,
      "áĪļáĪµáĮ¥áĪŃ": 7464,
      "ĠáĬ¥áĬķáĭ°áīĨ": 7465,
      "ĠáīµáĪŃ": 7466,
      "Ġáīµáī°": 7467,
      "ĠáīµáĮłáĮ£áĪĪáĪħ": 7468,
      "ĠáĪµáĪĦáĭµ": 7469,
      "ĠáĪµáĪĻáĬķ": 7470,
      "áĭŃáĪħáĪĿ": 7471,
      "áĭŃáĪħáī½": 7472,
      "ĠáĪ°áīłáī¥": 7473,
      "ĠáĪĭáĪµáī°áĭĭ": 7474,
      "áĬĶáīµ": 7475,
      "áĬ«áįį": 7476,
      "áĬ«áĪª": 7477,
      "áĭĽáĭĽ": 7478,
      "áĪ½áĬ¨áĪ¨": 7479,
      "áĪ½áĮīáĮ¥": 7480,
      "ĠáĪįáĮģ": 7481,
      "ĠáĪįáĮģáĬķ": 7482,
      "áĬĲáīµáĭİ": 7483,
      "ĠáĮ¥áĮį": 7484,
      "áįĭáĪ±": 7485,
      "ĠáĬłáĪĭáī½áĪģ": 7486,
      "ĠáĬłáĪĭáĬĲáīłáī¥": 7487,
      "Ġáĭ¨áĪļáī£áĪį": 7488,
      "Ġáĭ¨áĪļáī»áĪį": 7489,
      "ĠáĬ¥áĬķáĭ³áī³áĭ°áĪŃáĮį": 7490,
      "ĠáĮĪáĪĺ": 7491,
      "Ġáī³áĭ«áĪĪáĪħ": 7492,
      "áĬ¥áĪŃáĪ³áĪµ": 7493,
      "ĠáĮłáĮį": 7494,
      "Ġáĭ¨áī°áĬĽ": 7495,
      "Ġáĭ¨áī°áĮĪáĬĵáĬĺáĬķ": 7496,
      "ĠáĭŃáĪĺáĪµáĪį": 7497,
      "ĠáĮįáįĬáīµ": 7498,
      "ĠáĪĪáĪĽáĭ³áĬķ": 7499,
      "áĪľáĭ«áĪĪáĪģ": 7500,
      "ĠáįĪáĮłáĪ¨": 7501,
      "ĠáĪĬáįĪáĮłáĪŃ": 7502,
      "áĬĭáī¸áĭį": 7503,
      "áĬ®áĬķ": 7504,
      "áĪ¸áĪ¨": 7505,
      "áĪĪáīµáĭ³áĪŃ": 7506,
      "áĪµáĪĪáĬĶ": 7507,
      "ĠáĬŃáĪµáī°": 7508,
      "áĪĲáĬªáĪĻ": 7509,
      "ĠáĪĺáĬķáĮįáĪ¥": 7510,
      "ĠáĪĺáĪµáĪĺ": 7511,
      "ĠáĪµáĪĪáĪĨáĬķáĬŃ": 7512,
      "ĠáĪĨáĬľ": 7513,
      "áĪĽáĪªáĭİáī½": 7514,
      "Ġáī½áĭ«áĪĪáĪģ": 7515,
      "Ġáī½áĮįáĪ©áĬķ": 7516,
      "ĠáĭĿáĮĭáĭį": 7517,
      "áĪĪáĪĺáĮįáĭĽáīµ": 7518,
      "áĭĪáīµáĪ®áĭį": 7519,
      "ĠáĪ²áĮĭáĪ«": 7520,
      "áīłáĪĭáĪ¹": 7521,
      "áĬłáĬķáĮĪáīµ": 7522,
      "Ġáĭ¨áĪļáĭ«áĭįáīĢáĭį": 7523,
      "áĭ¨áī°áĬĵáĮĪáĪŃ": 7524,
      "Ġáĭ¨áĪĺáī°áĪĽáĪĺáĬķ": 7525,
      "ĠáĬ¥áĬķáĭµáīµáĮĪáī£": 7526,
      "ĠáĬ¥áĬķáĭµáīµáĪĨáĬĳ": 7527,
      "ĠáĬłáĪįáī°áĮĪáĬĺ": 7528,
      "ĠáīłáĬłáĭ¨áĪŃ": 7529,
      "ĠáĬłáī³áĭŃáĪĿ": 7530,
      "áĮ»áįĪáĭį": 7531,
      "áĭĪáĮ£áĪģ": 7532,
      "áĪĿáĪŃáĮ¥": 7533,
      "áī°áĭįáī³áĪį": 7534,
      "áĪłáĪŃ": 7535,
      "áĪłáĪĭáĪ³": 7536,
      "Ġáīłáī°áĪĪáĭŃ": 7537,
      "áĬ¨áĪ¨áĮħáĪĿ": 7538,
      "áĪ¨áĮĥáĭį": 7539,
      "ĠáĬ¥áĬķáĭ³áĪįáĪĨáĬĳ": 7540,
      "áĭįáĪ»áĭ¬áĬķ": 7541,
      "áĮłáĪŃáĪĻ": 7542,
      "áĭĪáĬķáĭµáĪĻ": 7543,
      "ĠáĪĽáĪµáĪ¨áĭ³áīµ": 7544,
      "ĠáĬłáĮłáĪ«áĮ£áĪª": 7545,
      "ĠáĮłáĬķáĬŃáĪ¨áĪħ": 7546,
      "áĬĲáĮĪáĪŃáĬ©áĪħ": 7547,
      "ĠáĪĥáĭŃ": 7548,
      "ĠáĭŃáĮłáĮ£áĪį": 7549,
      "áī£áī¸áĭįáĪĿ": 7550,
      "ĠáĬłáīłáĭµ": 7551,
      "ĠáīĭáĬķáīĭáĭİáī½": 7552,
      "ĠáĪµáĮ¦áī³áĭİáī½": 7553,
      "ĠáĬłáĭ¨áĬķ": 7554,
      "áĪıáĬķ": 7555,
      "ĠáĪĲáĪ³áī¥": 7556,
      "ĠáĬłáĪ³áĪįáįĪáĬĵáĪį": 7557,
      "ĠáĮĥáįĵ": 7558,
      "ĠáĬ«áĪįáĪ²": 7559,
      "ĠáĪĽáĪµáī°áĪĭáĪĪáįį": 7560,
      "áī°áĭĪáĭĭáĪĪáĪģ": 7561,
      "áĬŃáĪ²áĭ®áĬķ": 7562,
      "ĠáĬ¥áĬĲáĪĨ": 7563,
      "ĠáĬ¥áĬĲáĪĽáĬķ": 7564,
      "ĠáīµáĬ©áĪ³áīµ": 7565,
      "ĠáĪĤáĪ³áī¥": 7566,
      "ĠáĮĪáī¥áī°áĭĭáĪį": 7567,
      "ĠáĬªáĪ«áĭŃ": 7568,
      "ĠáĬłáĪĺáĮĭ": 7569,
      "áīłáĮ¥áĪŀáĬĵ": 7570,
      "áĪ¯áĭĬ": 7571,
      "áĭ¨áĬĶáĬķ": 7572,
      "áĬłáĪĭáĪĽ": 7573,
      "Ġáī°áīĢáĪĿáĮłáĭĭáĪį": 7574,
      "áĭ«áĬķáĭ³áĬķáĭ±": 7575,
      "ĠáĬ¥áĭ¨áĪŀáĬ¨áĪŃáĬŃ": 7576,
      "áĭĺáĮĪáĭŃ": 7577,
      "ĠáĬłáĪĪáĪĺáĮįáī£áī£áīµ": 7578,
      "ĠáĬ¥áĬķáĭ°áĪĮáĪĪáĬĿ": 7579,
      "áī£áĪ¨áĪŃ": 7580,
      "áĪģáĪĪáī°áĬĽáĭį": 7581,
      "ĠáĬłáĪľáĪªáĬ«áĭįáĭ«áĬķ": 7582,
      "áĭ¨áĭļáĪħáĬķ": 7583,
      "ĠáĪĿáĪįáĬŃáī¶áī½": 7584,
      "áĭĭáĮĭáĭİáī½": 7585,
      "áī´áĪĮáīªáĭ¥áĬĳ": 7586,
      "áĬłáĭ°áĮĭáĭįáĬķ": 7587,
      "ĠáĬ«áĪŃáī³": 7588,
      "ĠáĭŃáĪ¸áĮ£áĪį": 7589,
      "áĬłáĪµáī°áĪĽáĪªáĭį": 7590,
      "ĠáĪĺáī¥áĪ«áī¶áī½": 7591,
      "áĬłáĪµáįĪáĪª": 7592,
      "áĬłáĪĪáīĥáĭį": 7593,
      "ĠáĬłáĭµáĪŃáĮİáĬĽáĪį": 7594,
      "áĭ°áĮĭáĮĭáĪļ": 7595,
      "ĠáĮĢáĪĿáĪ¬áĭ«áĪĪáĪģ": 7596,
      "áĬ¥áĭ¨áīĢáĪĪáĭµáĬŃ": 7597,
      "áĪĿáĬŃáĬķáĭ«áī±áĬķ": 7598,
      "áĮ¸áĮ¸áīµ": 7599,
      "ĠáĭĺáįĪáĬĸáī½áĬķ": 7600,
      "ĠáĭŃáĪ°áĮ£áĪī": 7601,
      "ĠáĬłáī¥áĭĽáĬĽáĭįáĬķ": 7602,
      "áĮĪáĬĵáĬĽáĪĪáĬķ": 7603,
      "áĮĥáįĵáĬĵáĭĬ": 7604,
      "ĠáĮ¨áĪ¨áīĥ": 7605,
      "ĠáĬ¥áĭĪáĪµáĭµáĪĥáĪĪáĪģ": 7606,
      "ĠáĬ¥áĬķáĬŃáī¥áĬ«áī¤": 7607,
      "ĠáĭŃáĬĵáįįáīĢ": 7608,
      "10": 7609,
      "Ġ8": 7610,
      "ĠáįĴáĭĽ": 7611,
      "áĪĪáĪŃ": 7612,
      "áĪĪáĭĽáĪ¬": 7613,
      "áĪĪáįĪáĭį": 7614,
      "áĪĪáĭ³áĭį": 7615,
      "ĠáĬłáįĭáĪŃ": 7616,
      "ĠáĬłáīĭáĪŃ": 7617,
      "áĪµáīħ": 7618,
      "ĠáĬ¥áĭ³": 7619,
      "áĪħáĭĿáī¡": 7620,
      "áīłáĬŃ": 7621,
      "áīłáīģáĪĿ": 7622,
      "áĭ°áī½": 7623,
      "áĭŃáĪĪáįį": 7624,
      "áĪĺáīħ": 7625,
      "áĪĺáĮ®áĪħ": 7626,
      "áī½áīµ": 7627,
      "áĪģáĪħáĪĿ": 7628,
      "áĭµáĪįáĭµ": 7629,
      "áĬ¥áĭµáĪį": 7630,
      "áĪĭáīĢáĪį": 7631,
      "áī°áĬĿáĬĲáīµ": 7632,
      "áī°áĭĺáĮĭáĮħ": 7633,
      "Ġáĭ¨áĪĨáĬķ": 7634,
      "Ġáĭ¨áįįáīħáĪŃ": 7635,
      "Ġáĭ¨áĭĪáĭŃáĬķ": 7636,
      "áĭ«áĭ°áĮį": 7637,
      "ĠáīłáĮĬáĭľ": 7638,
      "Ġáīłáī¥áĪµáĬŃáĪĮáīµ": 7639,
      "ĠáīłáīĢáĮ¥áī³": 7640,
      "áĬĵáī½áĬķáĬķ": 7641,
      "ĠáĪĺáĭĵ": 7642,
      "ĠáĪĺáĪ³áī°áįį": 7643,
      "ĠáĪĺáĪĺáĪŃáĪĺáĪŃ": 7644,
      "áĭ¨áī¶áĪĿáĬķ": 7645,
      "áĬĲáĬĽ": 7646,
      "ĠáĬ¥áĬķáĭįáĮ£": 7647,
      "ĠáĭŃáĪī": 7648,
      "áĪĪáĪģáĪĪáīµ": 7649,
      "áĬłáĭ¨áĪŃ": 7650,
      "áĮ¥áī¡": 7651,
      "áĭĪáĮª": 7652,
      "áĮłáīĥáĪļ": 7653,
      "áĪ°áīłáĪ¨": 7654,
      "áĭ³áī½áĬķáĬķ": 7655,
      "áī£áī´": 7656,
      "áĬ¨áĪģáĪīáĪĿ": 7657,
      "áĬ¨áĪµáĪ«": 7658,
      "áīħáĬ©": 7659,
      "ĠáĪĽáīĢáĭĿáīĢáĭ£": 7660,
      "ĠáĪĽáĭĺáĮĭáĮĢáīµ": 7661,
      "ĠáĪĽáĪ°áĪªáĭ«": 7662,
      "áįįáįģáĪĿ": 7663,
      "Ġáĭ«áĬĵáĭµ": 7664,
      "Ġáī°áĪ¸áĬķ": 7665,
      "Ġáī°áĪĺáī³": 7666,
      "Ġáī°áĪ°áĪĿ": 7667,
      "ĠáĬłáĭŃáįĪáīħáĭµ": 7668,
      "ĠáĪĪáĮĭ": 7669,
      "ĠáĪĪáĪ«áĪ±": 7670,
      "ĠáĬłáĪįáĭĪáĪ°áĬķ": 7671,
      "áīĥáī½áĪģ": 7672,
      "ĠáĬ¨áĪģáĪĪáīµ": 7673,
      "ĠáĬ¨áĪĨáĬķáĬŃ": 7674,
      "ĠáīµáĪĺáĪĪ": 7675,
      "ĠáīµáĪ¨áĭ³": 7676,
      "ĠáīµáĬŃáĬŃáĪĪáĬĽáĭį": 7677,
      "ĠáĭĪáĮ¡": 7678,
      "áĭĭáĪļ": 7679,
      "áĭĭáĪ»": 7680,
      "áĬ«áī¸áĭį": 7681,
      "ĠáĮĬáĭľáĪħáĬķ": 7682,
      "ĠáĮĬáĭľáĭ«áīµ": 7683,
      "ĠáĪįáĭ°áīµ": 7684,
      "áĪĺáĪµáĪī": 7685,
[...]
