{
  "version": "1.0",
  "truncation": null,
  "padding": null,
  "added_tokens": [
    {
      "id": 0,
      "content": "<PAD>",
      "single_word": false,
      "lstrip": false,
      "rstrip": false,
      "normalized": false,
      "special": true
    },
    {
      "id": 1,
      "content": "<START>",
      "single_word": false,
      "lstrip": false,
      "rstrip": false,
      "normalized": false,
      "special": true
    },
    {
      "id": 2,
      "content": "<END>",
      "single_word": false,
      "lstrip": false,
      "rstrip": false,
      "normalized": false,
      "special": true
    },
    {
      "id": 3,
      "content": "<UNK>",
      "single_word": false,
      "lstrip": false,
      "rstrip": false,
      "normalized": false,
      "special": true
    },
    {
      "id": 4,
      "content": "<SEP>",
      "single_word": false,
      "lstrip": false,
      "rstrip": false,
      "normalized": false,
      "special": true
    }
  ],
  "normalizer": null,
  "pre_tokenizer": {
    "type": "ByteLevel",
    "add_prefix_space": false,
    "trim_offsets": true,
    "use_regex": true
  },
  "post_processor": {
    "type": "TemplateProcessing",
    "single": [
      {
        "SpecialToken": {
          "id": "<START>",
          "type_id": 0
        }
      },
      {
        "Sequence": {
          "id": "A",
          "type_id": 0
        }
      },
      {
        "SpecialToken": {
          "id": "<END>",
          "type_id": 0
        }
      }
    ],
    "pair": [
      {
        "SpecialToken": {
          "id": "<START>",
          "type_id": 0
        }
      },
      {
        "Sequence": {
          "id": "A",
          "type_id": 0
        }
      },
      {
        "SpecialToken": {
          "id": "<SEP>",
          "type_id": 0
        }
      },
      {
        "Sequence": {
          "id": "B",
          "type_id": 0
        }
      },
      {
        "SpecialToken": {
          "id": "<END>",
          "type_id": 0
        }
      }
    ],
    "special_tokens": {
      "<END>": {
        "id": "<END>",
        "ids": [
          2
        ],
        "tokens": [
          "<END>"
        ]
      },
      "<SEP>": {
        "id": "<SEP>",
        "ids": [
          4
        ],
        "tokens": [
          "<SEP>"
        ]
      },
      "<START>": {
        "id": "<START>",
        "ids": [
          1
        ],
        "tokens": [
          "<START>"
        ]
      }
    }
  },
  "decoder": {
    "type": "ByteLevel",
    "add_prefix_space": true,
    "trim_offsets": true,
    "use_regex": true
  },
  "model": {
    "type": "BPE",
    "dropout": null,
    "unk_token": null,
    "continuing_subword_prefix": null,
    "end_of_word_suffix": null,
    "fuse_unk": false,
    "byte_fallback": false,
    "ignore_merges": false,
    "vocab": {
      "<PAD>": 0,
      "<START>": 1,
      "<END>": 2,
      "<UNK>": 3,
      "<SEP>": 4,
      "!": 5,
      "\"": 6,
      "$": 7,
      "%": 8,
      "'": 9,
      "(": 10,
      ")": 11,
      "+": 12,
      ",": 13,
      "-": 14,
      ".": 15,
      "/": 16,
      "0": 17,
      "1": 18,
      "2": 19,
      "3": 20,
      "4": 21,
      "5": 22,
      "6": 23,
      "7": 24,
      "8": 25,
      "9": 26,
      ":": 27,
      ";": 28,
      "?": 29,
      "A": 30,
      "B": 31,
      "C": 32,
      "D": 33,
      "E": 34,
      "F": 35,
      "G": 36,
      "H": 37,
      "I": 38,
      "J": 39,
      "K": 40,
      "L": 41,
      "M": 42,
      "N": 43,
      "O": 44,
      "P": 45,
      "Q": 46,
      "R": 47,
      "S": 48,
      "T": 49,
      "U": 50,
      "V": 51,
      "W": 52,
      "X": 53,
      "Y": 54,
      "Z": 55,
      "a": 56,
      "b": 57,
      "c": 58,
      "d": 59,
      "e": 60,
      "f": 61,
      "g": 62,
      "h": 63,
      "i": 64,
      "j": 65,
      "k": 66,
      "l": 67,
      "m": 68,
      "n": 69,
      "o": 70,
      "p": 71,
      "q": 72,
      "r": 73,
      "s": 74,
      "t": 75,
      "u": 76,
      "v": 77,
      "w": 78,
      "x": 79,
      "y": 80,
      "z": 81,
      "©": 82,
      "¬": 83,
      "°": 84,
      "¼": 85,
      "Â": 86,
      "Ã": 87,
      "Ê": 88,
      "â": 89,
      "Ġ": 90,
      "Ģ": 91,
      "Ĥ": 92,
      "ĵ": 93,
      "Ķ": 94,
      "Ļ": 95,
      "aa": 96,
      "ee": 97,
      "an": 98,
      "ii": 99,
      "oo": 100,
      "uu": 101,
      "Ġh": 102,
      "Ġd": 103,
      "Ġk": 104,
      "ar": 105,
      "ti": 106,
      "Ġb": 107,
      "kk": 108,
      "in": 109,
      "am": 110,
      "Ġt": 111,
      "Ġg": 112,
      "aan": 113,
      "ir": 114,
      "Ġn": 115,
      "tti": 116,
      "Ġj": 117,
      "Ġa": 118,
      "dh": 119,
      "Ġq": 120,
      "al": 121,
      "Ġhin": 122,
      "ab": 123,
      "Ġs": 124,
      "ch": 125,
      "is": 126,
      "Ġm": 127,
      "da": 128,
      "ur": 129,
      "Ġdh": 130,
      "ss": 131,
      "eess": 132,
      "aal": 133,
      "Ġqab": 134,
      "at": 135,
      "Ġakk": 136,
      "ra": 137,
      "un": 138,
      "een": 139,
      "ana": 140,
      "Ġbar": 141,
      "oom": 142,
      "Ġjir": 143,
      "Ġw": 144,
      "Ġf": 145,
      "aat": 146,
      "chuu": 147,
      "Toom": 148,
      "Ġis": 149,
      "ni": 150,
      "Ġakka": 151,
      "baa": 152,
      "Ġtur": 153,
      "Ġy": 154,
      "iin": 155,
      "ma": 156,
      "Ġdan": 157,
      "Ġto": 158,
      "yy": 159,
      "il": 160,
      "dha": 161,
      "Ġna": 162,
      "Ġbarbaa": 163,
      "Ġta": 164,
      "itti": 165,
      "er": 166,
      "Ġkeess": 167,
      "aaf": 168,
      "aar": 169,
      "Ġkoo": 170,
      "ama": 171,
      "dd": 172,
      "arg": 173,
      "Ġtokk": 174,
      "iif": 175,
      "eroo": 176,
      "ta": 177,
      "Ġture": 178,
      "eek": 179,
      "Ġtokko": 180,
      "um": 181,
      "akk": 182,
      "Ġdee": 183,
      "ag": 184,
      "bb": 185,
      "Ġbeek": 186,
      "Ġje": 187,
      "te": 188,
      "Ġho": 189,
      "aay": 190,
      "Ġgo": 191,
      "Ġir": 192,
      "jj": 193,
      "tu": 194,
      "taa": 195,
      "raa": 196,
      "Ġqaba": 197,
      "ne": 198,
      "Ġdanda": 199,
      "Ġarg": 200,
      "uun": 201,
      "iis": 202,
      "Ġnan": 203,
      "Ġc": 204,
      "Ġyaa": 205,
      "Ġkana": 206,
      "uf": 207,
      "eeny": 208,
      "of": 209,
      "Ġwal": 210,
      "eera": 211,
      "Ġkee": 212,
      "la": 213,
      "maa": 214,
      "Ġisaa": 215,
      "oon": 216,
      "uuf": 217,
      "Ġkeessa": 218,
      "Ġnatti": 219,
      "Yeroo": 220,
      "aas": 221,
      "Ġjira": 222,
      "Ġhun": 223,
      "Ġwaan": 224,
      "Ġsi": 225,
      "Ġdand": 226,
      "Ġdu": 227,
      "Ġni": 228,
      "Ġirra": 229,
      "ol": 230,
      "achuu": 231,
      "tee": 232,
      "ph": 233,
      "tii": 234,
      "Ġjedh": 235,
      "Akk": 236,
      "Ġbaay": 237,
      "adh": 238,
      "im": 239,
      "Ġfakk": 240,
      "Dh": 241,
      "Ġkan": 242,
      "jje": 243,
      "Ġdeem": 244,
      "Ġgar": 245,
      "Ġhojje": 246,
      "Ġmi": 247,
      "ff": 248,
      "or": 249,
      "ug": 250,
      "Ġsana": 251,
      "Ġfakkaat": 252,
      "Waan": 253,
      "ll": 254,
      "on": 255,
      "Ġmaal": 256,
      "Maal": 257,
      "daa": 258,
      "Ġkun": 259,
      "Ġgu": 260,
      "amma": 261,
      "ann": 262,
      "eessa": 263,
      "en": 264,
      "Ġjiru": 265,
      "Ġdubb": 266,
      "Mee": 267,
      "Ġakkas": 268,
      "Ġirratti": 269,
      "Ġl": 270,
      "Ani": 271,
      "di": 272,
      "Ġyeroo": 273,
      "iq": 274,
      "Ġgaar": 275,
      "Ġjaal": 276,
      "Ġgochuu": 277,
      "Ġitti": 278,
      "Ġx": 279,
      "Ġbarbaada": 280,
      "anaa": 281,
      "ww": 282,
      "uma": 283,
      "Is": 284,
      "ddaa": 285,
      "all": 286,
      "Ġnama": 287,
      "Ġqabu": 288,
      "du": 289,
      "ala": 290,
      "Ġdhag": 291,
      "yaa": 292,
      "na": 293,
      "Ġgaarii": 294,
      "chis": 295,
      "aalaa": 296,
      "Ġam": 297,
      "Ġqof": 298,
      "sa": 299,
      "iyy": 300,
      "ata": 301,
      "Ġhunda": 302,
      "oota": 303,
      "ri": 304,
      "Ê¼": 305,
      "Ġdha": 306,
      "Ġyaada": 307,
      "Ġil": 308,
      "Ġkeessan": 309,
      "Ġwaliin": 310,
      "eenya": 311,
      "ah": 312,
      "Am": 313,
      "Akka": 314,
      "Ġdhuf": 315,
      "tuu": 316,
      "chaa": 317,
      "rii": 318,
      "Nam": 319,
      "og": 320,
      "Ġjedheen": 321,
      "ba": 322,
      "saa": 323,
      "tan": 324,
      "Ġken": 325,
      "Ġbeeku": 326,
      "Ġee": 327,
      "Ġi": 328,
      "Ġmiti": 329,
      "Kana": 330,
      "Ġnaaf": 331,
      "Ġboo": 332,
      "hee": 333,
      "Ġhim": 334,
      "Ġdandeess": 335,
      "Ġeeg": 336,
      "In": 337,
      "yyee": 338,
      "aadha": 339,
      "Ġbarbaachis": 340,
      "ad": 341,
      "Ġakkan": 342,
      "qa": 343,
      "Ġdeeb": 344,
      "Ati": 345,
      "aayyee": 346,
      "Ġqofa": 347,
      "Ġgara": 348,
      "jii": 349,
      "Ġisa": 350,
      "dhu": 351,
      "Ġfi": 352,
      "ate": 353,
      "ame": 354,
      "Ġishee": 355,
      "Ġgaaf": 356,
      "Kun": 357,
      "Ġgal": 358,
      "Ġha": 359,
      "oonni": 360,
      "Ġsir": 361,
      "Ġmana": 362,
      "Ġqabda": 363,
      "alee": 364,
      "oph": 365,
      "ga": 366,
      "Sun": 367,
      "aatii": 368,
      "Ġdhug": 369,
      "Ġgamma": 370,
      "aataa": 371,
      "Ġsun": 372,
      "Ġirraa": 373,
      "re": 374,
      "Ġfu": 375,
      "Ġfakkaata": 376,
      "argaar": 377,
      "Ġdur": 378,
      "Ġas": 379,
      "ĠToom": 380,
      "Ho": 381,
      "Ġkeessatti": 382,
      "ub": 383,
      "Ġbooda": 384,
      "Ġbeeka": 385,
      "Ġof": 386,
      "de": 387,
      "Ġdhi": 388,
      "ars": 389,
      "duu": 390,
      "Ġo": 391,
      "dda": 392,
      "atu": 393,
      "kan": 394,
      "kol": 395,
      "Ġguddaa": 396,
      "aata": 397,
      "ul": 398,
      "Ġdhiis": 399,
      "Dhug": 400,
      "eeff": 401,
      "iqq": 402,
      "ark": 403,
      "aasa": 404,
      "yyaa": 405,
      "chi": 406,
      "faan": 407,
      "alaa": 408,
      "iir": 409,
      "Ġisin": 410,
      "onkol": 411,
      "Ġso": 412,
      "llee": 413,
      "Ġilaal": 414,
      "Ġra": 415,
      "Ġkeessaa": 416,
      "Ġbil": 417,
      "Ġmur": 418,
      "Ġr": 419,
      "Ġkeenya": 420,
      "umaa": 421,
      "amaa": 422,
      "ummaa": 423,
      "itaa": 424,
      "Maaliif": 425,
      "anti": 426,
      "Ġsiif": 427,
      "Amma": 428,
      "Ġbir": 429,
      "gaa": 430,
      "Ġcaalaa": 431,
      "Ġbaayyee": 432,
      "âĢ": 433,
      "âĢĻ": 434,
      "Ġjiraa": 435,
      "Ġati": 436,
      "ara": 437,
      "Namni": 438,
      "Ġisaan": 439,
      "si": 440,
      "cha": 441,
      "Ġdeebi": 442,
      "qab": 443,
      "ool": 444,
      "Ġgargaar": 445,
      "eer": 446,
      "amitti": 447,
      "Ġjaall": 448,
      "Ġny": 449,
      "alqab": 450,
      "Ġnu": 451,
      "Ġga": 452,
      "Ġdhaga": 453,
      "bil": 454,
      "Ġsitti": 455,
      "Ġaman": 456,
      "Ġbi": 457,
      "Ġdab": 458,
      "Ġka": 459,
      "soo": 460,
      "nu": 461,
      "Ġdar": 462,
      "atte": 463,
      "Ġqabna": 464,
      "tiin": 465,
      "amu": 466,
      "Ġbarbaadu": 467,
      "Ġab": 468,
      "Ġjalqab": 469,
      "ayy": 470,
      "Ġxiqq": 471,
      "Ġan": 472,
      "Ġku": 473,
      "Ġsa": 474,
      "Ġwaa": 475,
      "Ġmir": 476,
      "Ġguu": 477,
      "Ġji": 478,
      "annoo": 479,
      "Ġdandeeny": 480,
      "if": 481,
      "Ġhir": 482,
      "Ġhaa": 483,
      "Ġjaalla": 484,
      "dhaa": 485,
      "Ġin": 486,
      "eef": 487,
      "Waa": 488,
      "Ġbarbaadd": 489,
      "yyaan": 490,
      "aala": 491,
      "ataa": 492,
      "akka": 493,
      "Hun": 494,
      "oof": 495,
      "Ġmee": 496,
      "anga": 497,
      "Ġjet": 498,
      "dhe": 499,
      "heen": 500,
      "iyaa": 501,
      "ĠMee": 502,
      "Far": 503,
      "allee": 504,
      "qaa": 505,
      "Ġmii": 506,
      "Ġdandeessu": 507,
      "ukk": 508,
      "jaa": 509,
      "Dhuguma": 510,
      "Ġturte": 511,
      "Har": 512,
      "ans": 513,
      "chiis": 514,
      "umur": 515,
      "Ġjirta": 516,
      "Ġturre": 517,
      "Ġmanaa": 518,
      "Ġdhaa": 519,
      "ophaa": 520,
      "amm": 521,
      "Ġnam": 522,
      "uk": 523,
      "ogg": 524,
      "Isaan": 525,
      "Si": 526,
      "Ġdarb": 527,
      "Wanti": 528,
      "inaa": 529,
      "Ġqabdu": 530,
      "Ġani": 531,
      "Ġtaph": 532,
      "uff": 533,
      "anne": 534,
      "Gu": 535,
      "onkolaataa": 536,
      "Ġbilbil": 537,
      "naa": 538,
      "Ġnyaa": 539,
      "siis": 540,
      "Ġti": 541,
      "ĠMeerii": 542,
      "araa": 543,
      "Ġma": 544,
      "ttaa": 545,
      "amuu": 546,
      "Farans": 547,
      "Faransaay": 548,
      "Ġbarbaachisa": 549,
      "Ġgoo": 550,
      "af": 551,
      "Ġhundi": 552,
      "Ġisaanii": 553,
      "ĠFaransaay": 554,
      "alkan": 555,
      "Ġba": 556,
      "adhu": 557,
      "dii": 558,
      "ubb": 559,
      "aaraa": 560,
      "Ġdhab": 561,
      "Sana": 562,
      "Ġmitii": 563,
      "baan": 564,
      "chuun": 565,
      "Ġfudha": 566,
      "Ġhark": 567,
      "dduu": 568,
      "reess": 569,
      "Ġrakk": 570,
      "Afaan": 571,
      "Akkas": 572,
      "nis": 573,
      "Ġsirrii": 574,
      "As": 575,
      "adha": 576,
      "Ġtola": 577,
      "Ġgaruu": 578,
      "Isheen": 579,
      "Ġp": 580,
      "ogogg": 581,
      "attee": 582,
      "Ġbiraa": 583,
      "Hojii": 584,
      "arra": 585,
      "dhaan": 586,
      "joo": 587,
      "Ġsh": 588,
      "Ġfakkaatu": 589,
      "arraa": 590,
      "Na": 591,
      "Kan": 592,
      "sh": 593,
      "aree": 594,
      "fii": 595,
      "amaan": 596,
      "Ġqabaa": 597,
      "Ġhund": 598,
      "eeraa": 599,
      "attu": 600,
      "Ġdura": 601,
      "Ġdandeessaa": 602,
      "iifama": 603,
      "Ġajaa": 604,
      "Ġol": 605,
      "aroo": 606,
      "Ġqor": 607,
      "Ġeessa": 608,
      "fa": 609,
      "jiin": 610,
      "Ġsad": 611,
      "om": 612,
      "Inni": 613,
      "ill": 614,
      "mallee": 615,
      "Ġhojii": 616,
      "Ġfudh": 617,
      "Ġyaal": 618,
      "Ġwa": 619,
      "Ġyoo": 620,
      "Ġgah": 621,
      "Ġmalee": 622,
      "ĠFaransaayii": 623,
      "ora": 624,
      "eet": 625,
      "adhe": 626,
      "chuuf": 627,
      "Ġkenn": 628,
      "us": 629,
      "ina": 630,
      "Ġeeny": 631,
      "oob": 632,
      "iy": 633,
      "Hir": 634,
      "Ġhi": 635,
      "Ġdeema": 636,
      "Ġtokkollee": 637,
      "Ġmu": 638,
      "kaa": 639,
      "mii": 640,
      "Kitaa": 641,
      "Ġxumur": 642,
      "Yoo": 643,
      "bbol": 644,
      "Ġhaasa": 645,
      "ish": 646,
      "ja": 647,
      "Ġwaanan": 648,
      "laqa": 649,
      "Akkamitti": 650,
      "Ġkanaa": 651,
      "Ġuff": 652,
      "yyaana": 653,
      "Yeroon": 654,
      "Ġmeeqa": 655,
      "Ġbarbaan": 656,
      "Ġib": 657,
      "Nama": 658,
      "iiru": 659,
      "achaa": 660,
      "Ġkaa": 661,
      "att": 662,
      "Halkan": 663,
      "achuun": 664,
      "Ġakkam": 665,
      "alph": 666,
      "achuuf": 667,
      "Guyyaa": 668,
      "Ġseen": 669,
      "adhab": 670,
      "Ġhojjet": 671,
      "Ġjirra": 672,
      "Yaa": 673,
      "anii": 674,
      "Ġdandeenye": 675,
      "Maar": 676,
      "Ġdubbis": 677,
      "Hundi": 678,
      "Ê¼ee": 679,
      "iyaam": 680,
      "Mana": 681,
      "umsaa": 682,
      "Maariyaam": 683,
      "Wal": 684,
      "Ġhe": 685,
      "Ġamma": 686,
      "Ġfayy": 687,
      "Dee": 688,
      "aleessa": 689,
      "Ġdhagah": 690,
      "Ġbarreess": 691,
      "aniiru": 692,
      "Ġwajj": 693,
      "kii": 694,
      "Ġhub": 695,
      "aate": 696,
      "pp": 697,
      "Ġwajjin": 698,
      "tanii": 699,
      "Ġbu": 700,
      "iyyuu": 701,
      "amee": 702,
      "Ġbita": 703,
      "isa": 704,
      "Ġdaa": 705,
      "Ġyaadd": 706,
      "Ġbaas": 707,
      "icha": 708,
      "Ġkenni": 709,
      "Ġgur": 710,
      "ok": 711,
      "ib": 712,
      "aatiin": 713,
      "anni": 714,
      "Ġbo": 715,
      "Ġsalph": 716,
      "Ġkam": 717,
      "suu": 718,
      "aatti": 719,
      "Sa": 720,
      "Een": 721,
      "Bor": 722,
      "Eeny": 723,
      "Ku": 724,
      "aane": 725,
      "ishaan": 726,
      "Ġxiqqoo": 727,
      "Ġafaan": 728,
      "aam": 729,
      "Ġdadhab": 730,
      "Ġhaaraa": 731,
      "arsiis": 732,
      "Ġfe": 733,
      "Ġyaade": 734,
      "Ġkaff": 735,
      "Osoo": 736,
      "ull": 737,
      "arr": 738,
      "Ġbarumsaa": 739,
      "Ġjedhee": 740,
      "Ġbarbaachisu": 741,
      "Ġguyyaa": 742,
      "st": 743,
      "Ġmaaliif": 744,
      "Ġhaww": 745,
      "Ġ\"": 746,
      "Ġlama": 747,
      "Ġjaalladha": 748,
      "Ġinni": 749,
      "Ġgadi": 750,
      "Ġguutuu": 751,
      "ine": 752,
      "aggaa": 753,
      "Ġasitti": 754,
      "Ġeenyu": 755,
      "ilaa": 756,
      "Ġdandeessa": 757,
      "Ġmaali": 758,
      "eessi": 759,
      "ess": 760,
      "Sir": 761,
      "Ġbarbaaddaa": 762,
      "Ġdogogg": 763,
      "alb": 764,
      "Ġdhukk": 765,
      "Ġjijj": 766,
      "Baayyee": 767,
      "amne": 768,
      "Ġdabars": 769,
      "Ġjirtaa": 770,
      "kumaa": 771,
      "iig": 772,
      "Ġhanga": 773,
      "aq": 774,
      "diin": 775,
      "Nu": 776,
      "Rakk": 777,
      "aba": 778,
      "Ġsadii": 779,
      "ban": 780,
      "malee": 781,
      "Ġkonkolaataa": 782,
      "amb": 783,
      "Ġakkamitti": 784,
      "faa": 785,
      "Ġgodh": 786,
      "Ġfuu": 787,
      "Ġfayyad": 788,
      "yoo": 789,
      "isaa": 790,
      "laa": 791,
      "Ġkootti": 792,
      "Ġcuf": 793,
      "Ġroob": 794,
      "Ġachi": 795,
      "Toomii": 796,
      "Ġhaf": 797,
      "Ġturan": 798,
      "anama": 799,
      "aann": 800,
      "Innis": 801,
      "kanaa": 802,
      "Ġer": 803,
      "Ġdheeraa": 804,
      "Ġyaad": 805,
      "Ġdag": 806,
      "Ġnamni": 807,
      "Ġtol": 808,
      "Ġmirkanaa": 809,
      "Hin": 810,
      "Ġhojjechuu": 811,
      "ĠMaariyaam": 812,
      "agg": 813,
      "Ġeegg": 814,
      "ĠB": 815,
      "Namoonni": 816,
      "aab": 817,
      "ĠbaayÊ¼ee": 818,
      "aatu": 819,
      "Ġammaa": 820,
      "Asitti": 821,
      "ati": 822,
      "ddaan": 823,
      "dhii": 824,
      "eesse": 825,
      "Ġbarbaanne": 826,
      "bbaan": 827,
      "atta": 828,
      "Hanga": 829,
      "it": 830,
      "Ġkaffal": 831,
      "Ġbah": 832,
      "eessaa": 833,
      "ĠtaÊ¼": 834,
      "Ġarguu": 835,
      "Ġosoo": 836,
      "Ġbakka": 837,
      "Ġdhugaa": 838,
      "Ammas": 839,
      "illeen": 840,
      "Ġadda": 841,
      "Ġbarsiis": 842,
      "Ġmurt": 843,
      "Ġmirkan": 844,
      "Ġbeektaa": 845,
      "eessuu": 846,
      "iil": 847,
      "Ġyeroon": 848,
      "Ġci": 849,
      "Maallaqa": 850,
      "Ġkooti": 851,
      "Ġgon": 852,
      "eettii": 853,
      "Ġjechuu": 854,
      "Ġgochuuf": 855,
      "Ġgonkumaa": 856,
      "cc": 857,
      "Ġjirti": 858,
      "Ġhomaa": 859,
      "wwan": 860,
      "adheera": 861,
      "Ġbaree": 862,
      "Ijoo": 863,
      "Ġgammachiis": 864,
      "Ġmuda": 865,
      "Ġraa": 866,
      "Dhiifama": 867,
      "Ġgodhu": 868,
      "ota": 869,
      "Ġduu": 870,
      "atan": 871,
      "Ġdabal": 872,
      "Ġdeemuu": 873,
      "Ġsodaa": 874,
      "Ġqabne": 875,
      "Bakka": 876,
      "aara": 877,
      "Ġdubbachuu": 878,
      "Ġtaane": 879,
      "Boru": 880,
      "Isheenis": 881,
      "Ġjijjiir": 882,
      "Ġdeemuun": 883,
      "Baay": 884,
      "Gaaf": 885,
      "Sh": 886,
      "Ġfuf": 887,
      "Ġmuraasa": 888,
      "ulq": 889,
      "arii": 890,
      "Ġfag": 891,
      "Ġhayy": 892,
      "Gara": 893,
      "isiis": 894,
      "Ammallee": 895,
      "Ġhimuu": 896,
      "uuraa": 897,
      "ulqull": 898,
      "Qor": 899,
      "soon": 900,
      "Ġag": 901,
      ".\"": 902,
      "Ġtaa": 903,
      "Ġdhagahama": 904,
      "nee": 905,
      "Ġfil": 906,
      "Ġul": 907,
      "Kaleessa": 908,
      "Ġhedduu": 909,
      "li": 910,
      "Ġsanatti": 911,
      "Ġbarbaade": 912,
      "Silaa": 913,
      "Ġwaggaa": 914,
      "se": 915,
      "Ġgammad": 916,
      "Ġilaalaa": 917,
      "Ġdhih": 918,
      "Konkolaataa": 919,
      "annaa": 920,
      "Ġkanaan": 921,
      "Ġayyaana": 922,
      "Ġguut": 923,
      "Ġkutaa": 924,
      "Dur": 925,
      "Ġmar": 926,
      "Ġdeemu": 927,
      "Obbol": 928,
      "Ġgochuun": 929,
      "Ġdhuguma": 930,
      "Ġabdiin": 931,
      "Ġkophaa": 932,
      "arri": 933,
      "Ġharka": 934,
      "Ġwanti": 935,
      "Ġhiriyy": 936,
      "atee": 937,
      "adhaa": 938,
      "Ġdarbe": 939,
      "Ġdhiisuu": 940,
      "Ġbeekuu": 941,
      "Ġliq": 942,
      "ĠJ": 943,
      "Ġjirtu": 944,
      "Kitaab": 945,
      "Ġkaas": 946,
      "Ġbarbaaddu": 947,
      "Ġool": 948,
      "Ġhojjechaa": 949,
      "Ġqulqull": 950,
      "Ġruk": 951,
      "Ġyoom": 952,
      "Ġgoww": 953,
      "Ġarge": 954,
      "Ġe": 955,
      "Ġhojiin": 956,
      "areen": 957,
      "Mii": 958,
      "Ġtokkon": 959,
      "Of": 960,
      "lmaa": 961,
      "Ġjibb": 962,
      "Ġtilmaa": 963,
      "eetii": 964,
      "Ġqa": 965,
      "ston": 966,
      "Bar": 967,
      "Ġmas": 968,
      "maan": 969,
      "Ġdaf": 970,
      "Ġsanaa": 971,
      "Manni": 972,
      "uux": 973,
      "Ġkitaa": 974,
      "Ġgargaaruu": 975,
      "qon": 976,
      "toota": 977,
      "agalee": 978,
      "Ġri": 979,
      "Ġbarbaadda": 980,
      "Ġruku": 981,
      "aanaa": 982,
      "Ġaar": 983,
      "aabur": 984,
      "imma": 985,
      "Ġar": 986,
      "uuz": 987,
      "Ġraf": 988,
      "Ab": 989,
      "ang": 990,
      "Ġakkasii": 991,
      "Gargaar": 992,
      "albala": 993,
      "Eenyu": 994,
      "Ġtor": 995,
      "Ġtokkotti": 996,
      "Ġhime": 997,
      "Ġhundumaa": 998,
      "Ġdhii": 999,
      "Ġdhaq": 1000,
      "iik": 1001,
      "Ġagarsiis": 1002,
      "Ny": 1003,
      "le": 1004,
      "Ġdhufu": 1005,
      "Ġargi": 1006,
      "Ġgalat": 1007,
      "Ġeegaa": 1008,
      "Ġdhiyoo": 1009,
      "ameera": 1010,
      "Yoom": 1011,
      "Yaada": 1012,
      "Ġdhukkub": 1013,
      "dheera": 1014,
      "Ġqabdaa": 1015,
      "Ġbishaan": 1016,
      "isuu": 1017,
      "Ġbeektu": 1018,
      "Ġdhufe": 1019,
      "Ġmasq": 1020,
      "Abbaan": 1021,
      "ateera": 1022,
      "Ġakkamii": 1023,
      "gg": 1024,
      "Ġnuuf": 1025,
      "Ġqilleen": 1026,
      "ĠA": 1027,
      "iqqoo": 1028,
      "Ġgahaa": 1029,
      "aati": 1030,
      "aannoo": 1031,
      "Ġqabduu": 1032,
      "Ġjedhe": 1033,
      "Ġmasqalaa": 1034,
      "Ġhamaa": 1035,
      "lee": 1036,
      "aatee": 1037,
      "Ġdeeme": 1038,
      "Ġdhaab": 1039,
      "aapp": 1040,
      "inq": 1041,
      "Ġsirriitti": 1042,
      "ichi": 1043,
      "Ġsaree": 1044,
      "ĠdandaÊ¼": 1045,
      "ĠToomii": 1046,
      "Ġajj": 1047,
      "Ġcab": 1048,
      "Ġqoo": 1049,
      "Ġdhal": 1050,
      "Ġjiraachuu": 1051,
      "Ġdhaabb": 1052,
      "Kutaa": 1053,
      "oor": 1054,
      "Ġisiniif": 1055,
      "dur": 1056,
      "toonni": 1057,
      "Ġfur": 1058,
      "Ġkol": 1059,
      "Ġgodhe": 1060,
      "Ġfakkaate": 1061,
      "anna": 1062,
      "atii": 1063,
      "Ġjab": 1064,
      "kaan": 1065,
      "sii": 1066,
      "Ġjaalladhu": 1067,
      "Ġraaww": 1068,
      "see": 1069,
      "Ġgaa": 1070,
      "jif": 1071,
      "Ġmanaatti": 1072,
      "aqii": 1073,
      "Ġbira": 1074,
      "Ġfedhii": 1075,
      "aqiiqaa": 1076,
      "Ġaan": 1077,
      "akkaa": 1078,
      "Ġmirkaneeff": 1079,
      "geeff": 1080,
      "Ġdhaggeeff": 1081,
      "Ġulf": 1082,
      "Gar": 1083,
      "taan": 1084,
      "Akkasitti": 1085,
      "aappaan": 1086,
      "Ġqoph": 1087,
      "Ġqofan": 1088,
      "Ġnyaata": 1089,
      "Ġkennuu": 1090,
      "Ġjechuun": 1091,
      "Ġdinq": 1092,
      "Ġdheer": 1093,
      "Ġammallee": 1094,
      "Ġnyaat": 1095,
      "Nuti": 1096,
      "Ġcim": 1097,
      "Ġbarbaadde": 1098,
      "Ta": 1099,
      "Rakkoo": 1100,
      "Ġkaroo": 1101,
      "Ġcarraa": 1102,
      "Ġijoo": 1103,
      "oolis": 1104,
      "aataan": 1105,
      "atteettaa": 1106,
      "Gal": 1107,
      "Dhugaa": 1108,
      "oomaa": 1109,
      "Ġeeggannoo": 1110,
      "Jir": 1111,
      "Ġcaal": 1112,
      "Ġban": 1113,
      "Ġgodha": 1114,
      "Ġal": 1115,
      "Ġmil": 1116,
      "Ġcimaa": 1117,
      "annu": 1118,
      "Deem": 1119,
      "Ġyaaddu": 1120,
      "Ġwayy": 1121,
      "umsa": 1122,
      "Kophaa": 1123,
      "Konkol": 1124,
      "Ġdandeenyu": 1125,
      "Ġdhiifama": 1126,
      "Ġgurg": 1127,
      "Ġdii": 1128,
      "Xiqqoo": 1129,
      "ob": 1130,
      "Ġwayya": 1131,
      "xx": 1132,
      "Ġmoo": 1133,
      "Ġgammadeera": 1134,
      "Ġjedhu": 1135,
      "Kitaaba": 1136,
      "Ġrif": 1137,
      "akki": 1138,
      "qonnaa": 1139,
      "gil": 1140,
      "Ġgaariitti": 1141,
      "teettaa": 1142,
      "Gaaffii": 1143,
      "Hark": 1144,
      "Ġamanuu": 1145,
      "bii": 1146,
      "ibaa": 1147,
      "Ġdogoggora": 1148,
      "ootaa": 1149,
      "amaadha": 1150,
      "Ġkenne": 1151,
      "ummaatti": 1152,
      "Dogogg": 1153,
      "ophee": 1154,
      "Ġqabaachuu": 1155,
      "Ġargachuu": 1156,
      "alli": 1157,
      "raan": 1158,
      "Ġim": 1159,
      "Ġjaallat": 1160,
      "essa": 1161,
      "Ijooll": 1162,
      "Ġbiyy": 1163,
      "ddun": 1164,
      "Ġwalii": 1165,
      "Ġlamaan": 1166,
      "Ġbalaa": 1167,
      "Ġbarbaachisaa": 1168,
      "Ġnyaachuu": 1169,
      "Bo": 1170,
      "Ġqabdi": 1171,
      "onni": 1172,
      "Ġhar": 1173,
      "Anis": 1174,
      "baata": 1175,
      "Ġkanaaf": 1176,
      "ammuu": 1177,
      "Ġqabnu": 1178,
      "Ġobbol": 1179,
      "isiif": 1180,
      "Ġmag": 1181,
      "Tor": 1182,
      "Ġxuux": 1183,
      "uba": 1184,
      "Ġhirri": 1185,
      "dhaaf": 1186,
      "Ġgor": 1187,
      "eensa": 1188,
      "Ġhiik": 1189,
      "Saree": 1190,
      "Ġbal": 1191,
      "Ġgoote": 1192,
      "Ġsuu": 1193,
      "Ġwalitti": 1194,
      "Torban": 1195,
      "Ġgatii": 1196,
      "Osoon": 1197,
      "Ġfiig": 1198,
      "Ġhojjen": 1199,
      "okt": 1200,
      "Ġajjee": 1201,
      "Ġdinqisiif": 1202,
      "isk": 1203,
      "Ġob": 1204,
      "zii": 1205,
      "eessoo": 1206,
      "ffaa": 1207,
      "Ingil": 1208,
      "Ġxiyy": 1209,
      "inii": 1210,
      "Ġmul": 1211,
      "ambal": 1212,
      "Ġmiidh": 1213,
      "Ġsalphaa": 1214,
      "Mu": 1215,
      "Uff": 1216,
      "Ġla": 1217,
      "Ingili": 1218,
      "Karaa": 1219,
      "aman": 1220,
      "Ġsan": 1221,
      "Lamaan": 1222,
      "Ġgarmalee": 1223,
      "Daf": 1224,
      "Ġkaraa": 1225,
      "Ġala": 1226,
      "Duraan": 1227,
      "Ġdhum": 1228,
      "Ġmaaltu": 1229,
      "Ġsoch": 1230,
      "Nyaata": 1231,
      "tiif": 1232,
      "Ġgab": 1233,
      "Ġhor": 1234,
      "Ġbaaf": 1235,
      "ammam": 1236,
      "Ġdabalataa": 1237,
      "Ġaf": 1238,
      "Ġciis": 1239,
      "Akkam": 1240,
      "Ġfakkaatta": 1241,
      "isaan": 1242,
      "siif": 1243,
      "Ġdhiisaa": 1244,
      "Ġkuf": 1245,
      "Ġbilch": 1246,
      "Jaal": 1247,
      "Ġjettanii": 1248,
      "Ġhaas": 1249,
      "ĠdhagaÊ¼": 1250,
      "udha": 1251,
      "Ġnyaataa": 1252,
      "Ġdaaww": 1253,
      "Ġkamiyyuu": 1254,
      "Ġedaa": 1255,
      "To": 1256,
      "Ġyaalaa": 1257,
      "Il": 1258,
      "ĠIngili": 1259,
      "aana": 1260,
      "dheen": 1261,
      "Ġdhufuu": 1262,
      "eerra": 1263,
      "Akkan": 1264,
      "Ġguddaadha": 1265,
      "Itti": 1266,
      "Int": 1267,
      "ddunyaa": 1268,
      "dee": 1269,
      "oddaa": 1270,
      "agal": 1271,
      "Ġsod": 1272,
      "Ġarguun": 1273,
      "Ġhojjedhu": 1274,
      "Ġamana": 1275,
      "Ġmuraas": 1276,
      "Gargaarsa": 1277,
      "Ġdhiq": 1278,
      "Ġdhiyootti": 1279,
      "Ġguddaan": 1280,
      "Carraa": 1281,
      "Ġbee": 1282,
      "Ġganama": 1283,
      "ababa": 1284,
      "uufata": 1285,
      "iskil": 1286,
      "Je": 1287,
      "uudha": 1288,
      "Maaltu": 1289,
      "ree": 1290,
      "Ġdi": 1291,
      "Ġgaafachuu": 1292,
      "Ijoolleen": 1293,
      "una": 1294,
      "Ġinjif": 1295,
      "Ma": 1296,
      "Ġmuf": 1297,
      "aalee": 1298,
      "aalli": 1299,
      "Ġdiimaa": 1300,
      "Ji": 1301,
      "Sareen": 1302,
      "umaan": 1303,
      "Ġgurgur": 1304,
      "Dhukk": 1305,
      "Ġharkif": 1306,
      "Ġammaatti": 1307,
      "Garmalee": 1308,
      "Er": 1309,
      "Ġ1": 1310,
      "ĠQ": 1311,
      "ald": 1312,
      "alle": 1313,
      "Ġtas": 1314,
      "Ġhiriyyaa": 1315,
      "Ġnaannoo": 1316,
      "dof": 1317,
      "ira": 1318,
      "Ġgaafate": 1319,
      "ĠJaappaan": 1320,
      "caan": 1321,
      "Ġyaadda": 1322,
      "Ġjaallatu": 1323,
      "Hunduu": 1324,
      "Ġmirkaneeffatteettaa": 1325,
      "Ganama": 1326,
      "Ġqaa": 1327,
      "Ġtokkoon": 1328,
      "Hojiin": 1329,
      "Ġhordof": 1330,
      "unn": 1331,
      "Ġisinitti": 1332,
      "Ġog": 1333,
      "Ġjette": 1334,
      "Bil": 1335,
      "gala": 1336,
      "uum": 1337,
      "Ġhojjetu": 1338,
      "Ġfudhachuu": 1339,
      "xum": 1340,
      "urxum": 1341,
      "Ġdhok": 1342,
      "dhan": 1343,
      "Ġjalqabe": 1344,
      "gah": 1345,
      "arq": 1346,
      "Ġargine": 1347,
      "Ġhaala": 1348,
      "irra": 1349,
      "Isa": 1350,
      "Ġjaallata": 1351,
      "Ġdafee": 1352,
      "ĠT": 1353,
      "chitti": 1354,
      "Ġbeekta": 1355,
      "Ġsaff": 1356,
      "Ġmaaloo": 1357,
      "Ġbad": 1358,
      "Ġqaban": 1359,
      "aayi": 1360,
      "Ġdeebii": 1361,
      "Ġhaasof": 1362,
      "Ġu": 1363,
      "tin": 1364,
      "Ġabbaa": 1365,
      "illee": 1366,
      "Ġjala": 1367,
      "Ġtokkoof": 1368,
      "Ġdeemne": 1369,
      "alayaa": 1370,
      "Ġwaadaa": 1371,
      "Ġjettu": 1372,
      "taniit": 1373,
      "atti": 1374,
      "aaq": 1375,
      "Ġgadh": 1376,
      "Ġdhumaa": 1377,
      "Ġbit": 1378,
      "bi": 1379,
      "dan": 1380,
      "Ġisaaf": 1381,
      "Ġgalatoomaa": 1382,
      "Bara": 1383,
      "Ġhalkan": 1384,
      "iyaan": 1385,
      "Ġdir": 1386,
      "yyuu": 1387,
      "Ġij": 1388,
      "Ġdurii": 1389,
      "Ir": 1390,
      "oma": 1391,
      "Ġargatte": 1392,
      "Kanaaf": 1393,
      "Ayyaana": 1394,
      "ldur": 1395,
      "Ġsammuu": 1396,
      "iilmii": 1397,
      "Ġjaallattu": 1398,
      "Ġjettee": 1399,
      "ĠBoo": 1400,
      "Ġijoollee": 1401,
      "Bishaan": 1402,
      "Ġdeebis": 1403,
      "ambalii": 1404,
      "ĠQillee": 1405,
      "Ġkaroor": 1406,
      "tob": 1407,
      "usii": 1408,
      "uuziq": 1409,
      "utti": 1410,
      "Ġbareedduu": 1411,
      "Ġjibba": 1412,
      "tobusii": 1413,
      "Ġargam": 1414,
      "Ġdandeenya": 1415,
      "amboo": 1416,
      "Ġduuba": 1417,
      "Ġgalle": 1418,
      "Baabur": 1419,
      "Ġdeemte": 1420,
      "Hiriyy": 1421,
      "Ġbitachuu": 1422,
      "Ġqilleensaa": 1423,
      "Harka": 1424,
      "Dogoggora": 1425,
      "Ġakkasitti": 1426,
      "Ġnamatti": 1427,
      "Konkolaataan": 1428,
      "argagg": 1429,
      "Ġdeemaa": 1430,
      "Ġmaallaqa": 1431,
      "Ġbilbila": 1432,
      "Ġroobni": 1433,
      "Ġerga": 1434,
      "Ġsagalee": 1435,
      "Ġjiran": 1436,
      "eeri": 1437,
      "Ġdhiph": 1438,
      "Ġoolu": 1439,
      "maata": 1440,
      "Ġgi": 1441,
      "uka": 1442,
      "atin": 1443,
      "Bilbil": 1444,
      "Ġum": 1445,
      "Ameeri": 1446,
      "arsh": 1447,
      "Ġgammachiisa": 1448,
      "tta": 1449,
      "Ġdhimma": 1450,
      "Ġkunuun": 1451,
      "Ġgaafat": 1452,
      "Ġdhib": 1453,
      "Ġhafe": 1454,
      "Ġerg": 1455,
      "Ġdhukkubs": 1456,
      "ung": 1457,
      "Ġkudhan": 1458,
      "Haati": 1459,
      "ĠAfaan": 1460,
      "tir": 1461,
      "Ġbara": 1462,
      "oos": 1463,
      "ddoo": 1464,
      "Ġdull": 1465,
      "Ġtilmaam": 1466,
      "San": 1467,
      "dhee": 1468,
      "akkoof": 1469,
      "oonii": 1470,
      "Ġbarachuu": 1471,
      "Ġkaroorf": 1472,
      "Tarii": 1473,
      "Ġeenyutu": 1474,
      "Ġtorban": 1475,
      "Uffata": 1476,
      "Fur": 1477,
      "Ġhaadha": 1478,
      "Ġnagaa": 1479,
      "arratti": 1480,
      "Ġbareedaa": 1481,
      "Ġkom": 1482,
      "Namoota": 1483,
      "Balaa": 1484,
      "iniin": 1485,
      "irraa": 1486,
      "inj": 1487,
      "Ġmiira": 1488,
      "Ġgootu": 1489,
      "Suu": 1490,
      "Seen": 1491,
      "ik": 1492,
      "Ġgaaffii": 1493,
      "Ġmudate": 1494,
      "iskileetii": 1495,
      "Ġumur": 1496,
      "Ġabdii": 1497,
      "Ġnamoota": 1498,
      "Ġqunn": 1499,
      "Ġmataa": 1500,
      "Ġdhabe": 1501,
      "Ġhimaa": 1502,
      "Ġguutummaatti": 1503,
      "aak": 1504,
      "aaree": 1505,
      "dduun": 1506,
      "Ġlubb": 1507,
      "Warri": 1508,
      "Ġilaaluu": 1509,
      "Ar": 1510,
      "Wan": 1511,
      "oot": 1512,
      "Ġgoone": 1513,
      "Ġmuraasaaf": 1514,
      "Ġakkuma": 1515,
      "Ġfa": 1516,
      "urxummii": 1517,
      "uutu": 1518,
      "qq": 1519,
      "eenyi": 1520,
      "site": 1521,
      "Ch": 1522,
      "Karoo": 1523,
      "Ġkaleessa": 1524,
      "Ġbalbala": 1525,
      "Ġnaan": 1526,
      "Ġgadd": 1527,
      "Gaa": 1528,
      "Poolis": 1529,
      "Ġtaas": 1530,
      "Ġhojjeta": 1531,
      "Um": 1532,
      "eeq": 1533,
      "iree": 1534,
      "ffeer": 1535,
      "taniittuu": 1536,
      "Ġtaate": 1537,
      "Yaad": 1538,
      "Ġoof": 1539,
      "Ġkootiif": 1540,
      "ĠK": 1541,
      "aash": 1542,
      "Ġtaphachuu": 1543,
      "Ameerikaa": 1544,
      "Ġkennaa": 1545,
      "Ġbiyya": 1546,
      "So": 1547,
      "daan": 1548,
      "eenyaa": 1549,
      "Eenyuutu": 1550,
      "Ġuum": 1551,
      "Ġbarbaadaa": 1552,
      "itii": 1553,
      "Ġhedduun": 1554,
      "Ġboqonnaa": 1555,
      "ĠtaÊ¼e": 1556,
      "Daqiiqaa": 1557,
      "Ġhang": 1558,
      "Ġyaadu": 1559,
      "lli": 1560,
      "Ġiyyuu": 1561,
      "aachis": 1562,
      "Ġkonkol": 1563,
      "Ġbaasuu": 1564,
      "Ġbarsiisaa": 1565,
      "Ġqophaa": 1566,
      "Ġhimi": 1567,
      "Ni": 1568,
      "Ġgala": 1569,
      "iina": 1570,
      "Ġargadhe": 1571,
      "Ġkeessaniif": 1572,
      "Ġnutti": 1573,
      "Ġshan": 1574,
      "Ġqaamaa": 1575,
      "Ġxiqqaa": 1576,
      "Taph": 1577,
      "Ġhojjenne": 1578,
      "achiis": 1579,
      "Ġboon": 1580,
      "eenye": 1581,
      "Rakkoon": 1582,
      "Hiriyyoota": 1583,
      "Ġjalaa": 1584,
      "Barsiis": 1585,
      "aabb": 1586,
      "Ġqaroo": 1587,
      "Ġbeekne": 1588,
      "laq": 1589,
      "Ġgaraa": 1590,
      "ubbaa": 1591,
      "amte": 1592,
      "mee": 1593,
      "artii": 1594,
      "Ġjirtuu": 1595,
      "Ġgeess": 1596,
      "agaa": 1597,
      "Ġofii": 1598,
      "eeffannoo": 1599,
      "Ġkolf": 1600,
      "alluu": 1601,
      "Maqaa": 1602,
      "Ġguyyaan": 1603,
      "aaqana": 1604,
      "Kophee": 1605,
      "Ġeessaa": 1606,
      "Ġdald": 1607,
      "Ġturuu": 1608,
      "Ġyaadaa": 1609,
      "Ġifa": 1610,
      "Ġeeguu": 1611,
      "Ġgalaanaa": 1612,
      "Ġgammachuu": 1613,
      "Boo": 1614,
      "Ee": 1615,
      "Ġqarsh": 1616,
      "attii": 1617,
      "Isaanis": 1618,
      "Ġgadhiis": 1619,
      "araan": 1620,
      "Ġaffeer": 1621,
      "Ġbarr": 1622,
      "Ġfoddaa": 1623,
      "Ġsob": 1624,
      "Ġjalqabaa": 1625,
      "Ġdhaam": 1626,
      "Walgah": 1627,
      "atinaa": 1628,
      "Ġdheeraaf": 1629,
      "Tokk": 1630,
      "amummaa": 1631,
      "aga": 1632,
      "Ġbarbaadduu": 1633,
      "shann": 1634,
      "Ġnamoonni": 1635,
      "Kitaabni": 1636,
      "Ġhangam": 1637,
      "Dubb": 1638,
      "iba": 1639,
      "Ġaddunyaa": 1640,
      "Ġkeetii": 1641,
      "Ġdeemnu": 1642,
      "Ġfayyadamuu": 1643,
      "Bal": 1644,
      "Haalli": 1645,
      "suuf": 1646,
      "Ġtasaa": 1647,
      "Ġdeemtu": 1648,
      "Kutaan": 1649,
      "Fil": 1650,
      "pit": 1651,
      "Ġaja": 1652,
      "ise": 1653,
      "Ġillee": 1654,
      "Ġrakkoo": 1655,
      "eettiin": 1656,
      "uuziqaa": 1657,
      "injaala": 1658,
      "Ad": 1659,
      "Balbala": 1660,
      "ĠAmeerikaa": 1661,
      "iqil": 1662,
      "Ġija": 1663,
      "arqara": 1664,
      "Ġhamma": 1665,
      "Ġhima": 1666,
      "Ġhayyam": 1667,
      "anneen": 1668,
      "boo": 1669,
      "Ġisheen": 1670,
      "Ġxiqqaadha": 1671,
      "Ġfuuldur": 1672,
      "Eessa": 1673,
      "su": 1674,
      "waa": 1675,
      "Ġbuufata": 1676,
      "allatt": 1677,
      "Buna": 1678,
      "Ġtokkoo": 1679,
      "Meesh": 1680,
      "Ġgammadd": 1681,
      "An": 1682,
      "Ġdhung": 1683,
      "Ġgub": 1684,
      "ĠAw": 1685,
      "Ġqarshii": 1686,
      "xaa": 1687,
      "iitti": 1688,
      "Mucaan": 1689,
      "Ġsocho": 1690,
      "Ġaddaan": 1691,
      "Ġarganne": 1692,
      "arkaa": 1693,
      "Ijoollee": 1694,
      "Ġdirq": 1695,
      "Ġarguuf": 1696,
      "Ġgaariin": 1697,
      "Ġdhabuu": 1698,
      "Ġmurteess": 1699,
      "mi": 1700,
      "eedha": 1701,
      "Ġbur": 1702,
      "Ġjiraata": 1703,
      "Ġwarra": 1704,
      "teetta": 1705,
      "Ġibi": 1706,
      "ĠBo": 1707,
      "miin": 1708,
      "Ġmor": 1709,
      "ataan": 1710,
      "Ġcall": 1711,
      "Xalayaa": 1712,
      "je": 1713,
      "ooyy": 1714,
      "Ġkof": 1715,
      "Ġkaba": 1716,
      "jjira": 1717,
      "Mag": 1718,
      "Ġbanaa": 1719,
      "aanne": 1720,
      "aaraan": 1721,
      "Ġdeemuuf": 1722,
      "attoonni": 1723,
      "abab": 1724,
      "attuu": 1725,
      "adheen": 1726,
      "Dhimma": 1727,
      "Ġgudd": 1728,
      "wwaa": 1729,
      "Teessoo": 1730,
      "meen": 1731,
      "Ġalaa": 1732,
      "Ġsirb": 1733,
      "Ġsiree": 1734,
      "oolii": 1735,
      "Ġgowwaa": 1736,
      "caa": 1737,
      "moo": 1738,
      "iix": 1739,
      "Ġdamma": 1740,
      "Ġbul": 1741,
      "Ġfudhate": 1742,
      "Ġfagaa": 1743,
      "Ġgabaa": 1744,
      "Ġsaffisaan": 1745,
      "Haala": 1746,
      "Xiyy": 1747,
      "Ġbor": 1748,
      "inuu": 1749,
      "aandii": 1750,
      "Ġfal": 1751,
      "ummaan": 1752,
      "ĠBooston": 1753,
      "Gamma": 1754,
      "Suuraa": 1755,
      "ck": 1756,
      "ve": 1757,
      "yinii": 1758,
      "Ġdhageess": 1759,
      "ĠdandaÊ¼a": 1760,
      "Dokt": 1761,
      "quu": 1762,
      "Ġqorra": 1763,
      "Ġbahuu": 1764,
      "Ġdinqisiifadha": 1765,
      "Ġ2": 1766,
      "uura": 1767,
      "Ġad": 1768,
      "Ġfooyy": 1769,
      "Ġargee": 1770,
      "Ġdubbata": 1771,
      "ĠBoston": 1772,
      "Ġkofal": 1773,
      "roo": 1774,
      "iiraa": 1775,
      "Ġbuu": 1776,
      "Ġdeemta": 1777,
      "Isn": 1778,
      "Natti": 1779,
      "Ġhundinuu": 1780,
      "ibsiif": 1781,
      "Jireenya": 1782,
      "Gur": 1783,
      "ĠO": 1784,
      "iit": 1785,
      "aayii": 1786,
      "Im": 1787,
      "Ġur": 1788,
      "Ġosoon": 1789,
      "Ġkaffaltii": 1790,
      "Ġkaan": 1791,
      "Ġlakkaa": 1792,
      "Ġdhufa": 1793,
      "Ġbilbilaa": 1794,
      "Ġdulloom": 1795,
      "Fuu": 1796,
      "Ġdambalii": 1797,
      "jjii": 1798,
      "aasaa": 1799,
      "Ġofirraa": 1800,
      "Ġroo": 1801,
      "Ġtilmaama": 1802,
      "Mur": 1803,
      "juu": 1804,
      "Ġbaabur": 1805,
      "Ġnarra": 1806,
      "aaliyaa": 1807,
      "Ġisaatiin": 1808,
      "Ġjech": 1809,
      "Ġkenna": 1810,
      "Ġgidduu": 1811,
      "Maq": 1812,
      "Ġmuka": 1813,
      "Ġwaaree": 1814,
      "Ġirbaata": 1815,
      "Ġmitiiree": 1816,
      "Ġrakkis": 1817,
      "Ġmeeqatti": 1818,
      "Ġqoosaa": 1819,
      "Ġhalluu": 1820,
      "Ġak": 1821,
      "Maallaq": 1822,
      "Homaa": 1823,
      "Ġdhiy": 1824,
      "Ġamanu": 1825,
      "Ġlubbuun": 1826,
      "Maqaan": 1827,
      "attan": 1828,
      "Akkaataa": 1829,
      "Ġsadarkaa": 1830,
      "Ġhirriba": 1831,
      "Ġumuriin": 1832,
      "Ġkofalchiis": 1833,
      "Ifa": 1834,
      "gab": 1835,
      "Ġjiruu": 1836,
      "Ġshubb": 1837,
      "Ġjaallattaa": 1838,
      "Ġlafa": 1839,
      "Ġdhibu": 1840,
      "Ġjiraat": 1841,
      "Ġsirra": 1842,
      "Sagalee": 1843,
      "biin": 1844,
      "baaboo": 1845,
      "yyoota": 1846,
      "Maaloo": 1847,
      "ustir": 1848,
      "Ġmala": 1849,
      "Ġint": 1850,
      "Ġuffata": 1851,
      "Ġbarreessi": 1852,
      "Furtuu": 1853,
      "Bu": 1854,
      "Roob": 1855,
      "Ġhammam": 1856,
      "Ġgammada": 1857,
      "ccitii": 1858,
      "Ġfayyaa": 1859,
      "Umur": 1860,
      "too": 1861,
      "Ġdargagg": 1862,
      "Ġnamaa": 1863,
      "umna": 1864,
      "akkii": 1865,
      "Ġmij": 1866,
      "sitee": 1867,
      "Ġariif": 1868,
      "Ġogeessa": 1869,
      "ustiraaliyaa": 1870,
      "Ġtamboo": 1871,
      "Ġsuuraa": 1872,
      "Toomiin": 1873,
      "Ġkeeti": 1874,
      "Ġsirreess": 1875,
      "Hiriyaa": 1876,
      "Ġmagaalaa": 1877,
      "Ġdammaq": 1878,
      "Gor": 1879,
      "Ġbiqil": 1880,
      "00": 1881,
      "Ġja": 1882,
      "Ġdhufte": 1883,
      "Ġcaalu": 1884,
      "Erga": 1885,
      "Od": 1886,
      "Wa": 1887,
      "eessuun": 1888,
      "Ġnag": 1889,
      "Ġmeesh": 1890,
      "Abbaa": 1891,
      "Go": 1892,
      "Ġmaqaa": 1893,
      "ima": 1894,
      "Ġjiraatu": 1895,
      "Isin": 1896,
      "Ġhimne": 1897,
      "siisuu": 1898,
      "Ġduraan": 1899,
      "Ġcaalaatti": 1900,
      "Ġobboleessa": 1901,
      "Daa": 1902,
      "Yoon": 1903,
      "neerra": 1904,
      "alama": 1905,
      "Ġsaan": 1906,
      "eenis": 1907,
      "eekii": 1908,
      "Ġhojjechuuf": 1909,
      "Ġdaqiiqaa": 1910,
      "Ġqarqara": 1911,
      "Ġdukk": 1912,
      "Ġkanuma": 1913,
      "Ġdhiib": 1914,
      "Ġsodaat": 1915,
      "Ġgabaabaa": 1916,
      "Isniina": 1917,
      "Ija": 1918,
      "Mi": 1919,
      "Ġargu": 1920,
      "Ġgudda": 1921,
      "Ġdubbatu": 1922,
      "Ġhidh": 1923,
      "Ġfooyya": 1924,
      "Koo": 1925,
      "Ġdhugaatii": 1926,
      "Ġdubbisuu": 1927,
      "Ġbitachuuf": 1928,
      "Ġobsuu": 1929,
      "Ġhojjete": 1930,
      "Harmeen": 1931,
      "aayidaa": 1932,
      "Irbaata": 1933,
      "ka": 1934,
      "oraa": 1935,
      "ttu": 1936,
      "Ġch": 1937,
      "Ġsababa": 1938,
      "Ġwalakkaa": 1939,
      "Dhaabb": 1940,
      "Ġgargaaruuf": 1941,
      "Ġjalqaba": 1942,
      "Ġqorraa": 1943,
      "ĠtaÊ¼uu": 1944,
      "Jecha": 1945,
      "Ġrakkisaadha": 1946,
      "Lakkoof": 1947,
      "ze": 1948,
      "Ġachitti": 1949,
      "Ġkeetti": 1950,
      "Ġhojjettu": 1951,
      "Ġfayyadam": 1952,
      "Dub": 1953,
      "Ġgalgala": 1954,
      "Ġari": 1955,
      "Ġxuuxuu": 1956,
      "Fiilmii": 1957,
      "qo": 1958,
      "amni": 1959,
      "Ġkootii": 1960,
      "Ġbeekamaadha": 1961,
      "Ġgargaaru": 1962,
      "Ġijaar": 1963,
      "Ġgootan": 1964,
      "Ġdabarsi": 1965,
      "Maallaqni": 1966,
      "Achi": 1967,
      "idha": 1968,
      "yaan": 1969,
      "atame": 1970,
      "Akkuma": 1971,
      "Ġammas": 1972,
      "Ġkitaabaa": 1973,
      "Ġargate": 1974,
      "Waanan": 1975,
      "oolaara": 1976,
      "uffisiis": 1977,
      "Ġfudhadhu": 1978,
      "Sanduu": 1979,
      "uut": 1980,
      "Ġjedha": 1981,
      "Ġlamma": 1982,
      "Ġhundaaf": 1983,
      "Miira": 1984,
      "Oduu": 1985,
      "ix": 1986,
      "eekk": 1987,
      "Ġsim": 1988,
      "Ġsodd": 1989,
      "Ġdagatinaa": 1990,
      "Ġfagoo": 1991,
      "Roobni": 1992,
      "Sar": 1993,
      "spit": 1994,
      "ing": 1995,
      "Ġgoota": 1996,
      "aamur": 1997,
      "Ġtolu": 1998,
      "xxaamur": 1999,
      "Ġdubbadhu": 2000,
      "Ġdubbateera": 2001,
      "wwee": 2002,
      "arkaan": 2003,
      "Ġkennite": 2004,
      "Ġsalphaadha": 2005,
      "arree": 2006,
      "Ġdabarsuu": 2007,
      "Ġsodaadha": 2008,
      "Ġmari": 2009,
      "Ġkitaaba": 2010,
      "Waggaa": 2011,
      "jee": 2012,
      "Ġyaabb": 2013,
      "Ġibsaa": 2014,
      "Ġbarreessuu": 2015,
      "Ġhawwii": 2016,
      "Ġqaxxaamur": 2017,
      "Ġdhaloota": 2018,
      "Gab": 2019,
      "Ġiyy": 2020,
      "Ġhan": 2021,
      "atiin": 2022,
      "Ġgaafadhe": 2023,
      "araqaa": 2024,
      "attoota": 2025,
      "Ġdhihoo": 2026,
      "Ġgaddisiis": 2027,
      "Qab": 2028,
      "Ġmo": 2029,
      "ilee": 2030,
      "Ġgaragal": 2031,
      "Ġlamm": 2032,
      "Ġbashann": 2033,
      "Ġbarbaanna": 2034,
      "ĠTV": 2035,
      "Ġaffeerraa": 2036,
      "Ba": 2037,
      "Ġsiin": 2038,
      "Ġargachuuf": 2039,
      "Dhum": 2040,
      "Dhuma": 2041,
      "Ġilaala": 2042,
      "Ġrifeensa": 2043,
      "ĠAwustiraaliyaa": 2044,
      "uq": 2045,
      "Ġnuffisiis": 2046,
      "Ġqurxummii": 2047,
      "Ġdhang": 2048,
      "Ġgaafatte": 2049,
      "Ġfedhe": 2050,
      "Ġbalal": 2051,
      "ĠIngilizii": 2052,
      "Yaadni": 2053,
      "Ġilaale": 2054,
      "Seenaa": 2055,
      "Poolisiin": 2056,
      "Filannoo": 2057,
      "Garaa": 2058,
      "laan": 2059,
      "saan": 2060,
      "inni": 2061,
      "amtee": 2062,
      "aanni": 2063,
      "Ġqabaat": 2064,
      "Ġjirre": 2065,
      "Ġmiilaa": 2066,
      "Ġyaale": 2067,
      "Deebii": 2068,
      "Ġdogoggor": 2069,
      "Ġfuula": 2070,
      "Ġhiriyyoota": 2071,
      "Ġgoon": 2072,
      "Ġrukut": 2073,
      "Ġduubatti": 2074,
      "Kaar": 2075,
      "Qilleen": 2076,
      "oog": 2077,
      "Ġjen": 2078,
      "Hojje": 2079,
      "Ġpoolis": 2080,
      "faati": 2081,
      "ababni": 2082,
      "Dhumarratti": 2083,
      "neef": 2084,
      "qor": 2085,
      "Ġdokt": 2086,
      "Ġmallatt": 2087,
      "Ġtureef": 2088,
      "Ġirraan": 2089,
      "aalaatti": 2090,
      "Ġdhufaa": 2091,
      "Ġisheef": 2092,
      "Tokko": 2093,
      "Ġdib": 2094,
      "Ġminjaala": 2095,
      "eens": 2096,
      "Ġkeessanii": 2097,
      "Ġsalphaatti": 2098,
      "Dhukkub": 2099,
      "30": 2100,
      "Hammam": 2101,
      "iidha": 2102,
      "oosaa": 2103,
      "Ġdhiif": 2104,
      "Ġdhufne": 2105,
      "Ġboor": 2106,
      "Ġgargaaraa": 2107,
      "Ġnuti": 2108,
      "Ġtaphachaa": 2109,
      "Hiriy": 2110,
      "ĠdhagaÊ¼ame": 2111,
      "Karoora": 2112,
      "Hamma": 2113,
      "kn": 2114,
      "iifi": 2115,
      "Ġcinaa": 2116,
      "Ġdhiisee": 2117,
      "Ġgargaarsa": 2118,
      "Ġyaadne": 2119,
      "Qorqor": 2120,
      "deen": 2121,
      "son": 2122,
      "amoo": 2123,
      "Ġdhuun": 2124,
      "Ġkootiin": 2125,
      "Ġgodhaa": 2126,
      "Ġyaadadha": 2127,
      "Ġmaxx": 2128,
      "Ġqulqulluu": 2129,
      "bir": 2130,
      "che": 2131,
      "Ġdhuk": 2132,
      "Ġilaalu": 2133,
      "Ġfudhata": 2134,
      "Ġulfaataa": 2135,
      "Ġkonkolaachis": 2136,
      "Bakki": 2137,
      "Sababa": 2138,
      "ritti": 2139,
      "Ġkophee": 2140,
      "attaa": 2141,
      "Ġturee": 2142,
      "Ġykn": 2143,
      "bba": 2144,
      "Ġqabadhu": 2145,
      "Ġsanaaf": 2146,
      "Rif": 2147,
      "ru": 2148,
      "Ġkaar": 2149,
      "Ġteessoo": 2150,
      "Ġjireenyaa": 2151,
      "aarkii": 2152,
      "Ġgosa": 2153,
      "ork": 2154,
      "Ġfufe": 2155,
      "Ġbareedduudha": 2156,
      "piit": 2157,
      "inee": 2158,
      "Ġbite": 2159,
      "Ġmiila": 2160,
      "Ġdogoggoraa": 2161,
      "Ġxiyyeeff": 2162,
      "Qoosaa": 2163,
      "amaniiru": 2164,
      "Ġjeeq": 2165,
      "Ġbilisa": 2166,
      "Ġmaraat": 2167,
      "Intala": 2168,
      "Ġdaldalaa": 2169,
      "Gorsa": 2170,
      "Haadha": 2171,
      "riin": 2172,
      "Ġtaatee": 2173,
      "Ġmaatii": 2174,
      "Ġbeeks": 2175,
      "Ġhojjedhe": 2176,
      "lle": 2177,
      "Ġdhiise": 2178,
      "Dhugaatii": 2179,
      "Ġgodheera": 2180,
      "Boqonnaa": 2181,
      "Ġbeela": 2182,
      "Wiix": 2183,
      "gar": 2184,
      "ooti": 2185,
      "Ġkir": 2186,
      "Ġkoma": 2187,
      "Ġgad": 2188,
      "Ġturtee": 2189,
      "annee": 2190,
      "Ġilaaluun": 2191,
      "Ġrakkisaa": 2192,
      "Ġmudaa": 2193,
      "Ġsodaachis": 2194,
      "Wiixata": 2195,
      "Guut": 2196,
      "poor": 2197,
      "suun": 2198,
      "ddisa": 2199,
      "eerri": 2200,
      "Ġwaajjira": 2201,
      "Ġnyaachuuf": 2202,
      "ittan": 2203,
      "Ġgowwummaa": 2204,
      "Jireenyi": 2205,
      "Ġgorsite": 2206,
      "Ġboorsaa": 2207,
      "Biyy": 2208,
      "Hi": 2209,
      "Otobusii": 2210,
      "annoon": 2211,
      "Ishee": 2212,
      "eefu": 2213,
      "Ġfudhadha": 2214,
      "omb": 2215,
      "Ġhidhaa": 2216,
      "Ġjechootaa": 2217,
      "ichaa": 2218,
      "Ġbarn": 2219,
      "Ġwaanuma": 2220,
      "Ġdhiisi": 2221,
      "Ka": 2222,
      "Ko": 2223,
      "Laf": 2224,
      "banaa": 2225,
      "Ġhamm": 2226,
      "aatiif": 2227,
      "ons": 2228,
      "allaa": 2229,
      "Ġseene": 2230,
      "faatina": 2231,
      "Ġjireenya": 2232,
      "Ġqabachuu": 2233,
      "Ġbilbile": 2234,
      "Ġfuudh": 2235,
      "Ġrukute": 2236,
      "Jaalallee": 2237,
      "Ġdukkanaa": 2238,
      "Reefu": 2239,
      "naan": 2240,
      "aruuraa": 2241,
      "Ġbaan": 2242,
      "Ġaddaa": 2243,
      "choota": 2244,
      "isaas": 2245,
      "Ġakkanaa": 2246,
      "Ġhojjedha": 2247,
      "Ġotobusii": 2248,
      "Ġkitaab": 2249,
      "Ġlammaffaa": 2250,
      "Du": 2251,
      "Fe": 2252,
      "tummaa": 2253,
      "Ġwar": 2254,
      "Ġbeektuu": 2255,
      "Ġdubbate": 2256,
      "Ê¼e": 2257,
      "Ġkudha": 2258,
      "Ġmilkaa": 2259,
      "Ġhirribaa": 2260,
      "Ġtasgab": 2261,
      "Ġbarreeff": 2262,
      "Barr": 2263,
      "Maatii": 2264,
      "lu": 2265,
      "Ġdoolaara": 2266,
      "Ġbiskileetii": 2267,
      "inaan": 2268,
      "Ġgarg": 2269,
      "Ġwan": 2270,
      "Ġilkaan": 2271,
      "Ġgammade": 2272,
      "Ġgahe": 2273,
      "Bilbila": 2274,
      "Caalaatti": 2275,
      "Ġfaayidaa": 2276,
      "Ġhogg": 2277,
      "Ġqorri": 2278,
      "Sanduuqa": 2279,
      "Jalqab": 2280,
      "Ġkeeny": 2281,
      "Ġbeekna": 2282,
      "Ġisaas": 2283,
      "Ġduwwaa": 2284,
      "Ġdubbanne": 2285,
      "Ġjaalallee": 2286,
      "Ġeenyuu": 2287,
      "Dar": 2288,
      "Naannoo": 2289,
      "inu": 2290,
      "Ġargadhu": 2291,
      "Ġisaatti": 2292,
      "Ġdub": 2293,
      "adhee": 2294,
      "Ġgurraa": 2295,
      "Yoomiyyuu": 2296,
      "Ġsoddoma": 2297,
      "Ofii": 2298,
      "Ġana": 2299,
      "Ġkubbaa": 2300,
      "Ġqabbanaa": 2301,
      "Ġciniin": 2302,
      "Ġxiqqaate": 2303,
      "Ġrakkoon": 2304,
      "Ġyaaluun": 2305,
      "irratti": 2306,
      "Ġbade": 2307,
      "Tapha": 2308,
      "Ġgargaara": 2309,
      "Ob": 2310,
      "Qa": 2311,
      "Ġqisaas": 2312,
      "Ġargama": 2313,
      "Ġargadheera": 2314,
      "Ġdarbee": 2315,
      "Sirrii": 2316,
      "Ġqophoof": 2317,
      "Ġqaroodha": 2318,
      "Warra": 2319,
      "aawaa": 2320,
      "Ġhaaraan": 2321,
      "Ġquuf": 2322,
      "Ġdeemna": 2323,
      "diyoo": 2324,
      "Ġkennu": 2325,
      "Hirri": 2326,
      "Ġdhiiraa": 2327,
      "Ġjabeessa": 2328,
      "Tas": 2329,
      "Ġkufe": 2330,
      "oostaa": 2331,
      "Ġbiqiltuu": 2332,
      "Duu": 2333,
      "Hogg": 2334,
      "Qalama": 2335,
      "Sitti": 2336,
      "Ġbaatee": 2337,
      "Ġqabamee": 2338,
      "taniif": 2339,
      "Ġdandeenyaa": 2340,
      "Ġbarreessaa": 2341,
      "Ġaanutti": 2342,
      "Hiriyoonni": 2343,
      "Kol": 2344,
      "ola": 2345,
      "Ġqus": 2346,
      "ataniiru": 2347,
      "Ġdhageenye": 2348,
      "Ġanaaf": 2349,
      "eessite": 2350,
      "Ġgalateeff": 2351,
      "Ġafur": 2352,
      "Qilleensi": 2353,
      "Gatiin": 2354,
      "Kom": 2355,
      "Ġhamaadha": 2356,
      "amtu": 2357,
      "amarr": 2358,
      "Ġwagg": 2359,
      "Ġargeera": 2360,
      "Ġargachuun": 2361,
      "Ġofitti": 2362,
      "Ġmurteesse": 2363,
      "Duraanis": 2364,
      "Baabura": 2365,
      "spitaala": 2366,
      "et": 2367,
      "ikaa": 2368,
      "Ġqaana": 2369,
      "Ġcirra": 2370,
      "Ġqofatu": 2371,
      "Baaburri": 2372,
      "Wantoota": 2373,
      "etti": 2374,
      "tinaa": 2375,
      "Ġturtan": 2376,
      "imm": 2377,
      "Ġeega": 2378,
      "qaaquu": 2379,
      "Ġeessatti": 2380,
      "Ġuffatte": 2381,
      "Ġboqo": 2382,
      "Ġtorb": 2383,
      "Ġhiika": 2384,
      "ombol": 2385,
      "Bee": 2386,
      "goo": 2387,
      "xii": 2388,
      "alaan": 2389,
      "Ġdandeettii": 2390,
      "Ġdubbachuun": 2391,
      "Ġkuta": 2392,
      "ppii": 2393,
      "Qormaata": 2394,
      "Obboleessi": 2395,
      "Obboleettiin": 2396,
      "Kitaabota": 2397,
      "Ġrafe": 2398,
      "Ġobboleettii": 2399,
      "ĠIngiliffaa": 2400,
      "Achitti": 2401,
      "Sababni": 2402,
      "iiz": 2403,
      "Ġtuq": 2404,
      "Ġgaluu": 2405,
      "Ġbiroo": 2406,
      "Ġliqeessuu": 2407,
      "Balb": 2408,
      "eessuuf": 2409,
      "Ġqabadheen": 2410,
      "Ġjaalala": 2411,
      "Ġilma": 2412,
      "Ġdhuguu": 2413,
      "Ġpoostaa": 2414,
      "Ġyaadee": 2415,
      "Magaalaa": 2416,
      "eenisii": 2417,
      "Biskileetii": 2418,
      "ele": 2419,
      "Ġhaal": 2420,
      "Ġteenisii": 2421,
      "Ġaduu": 2422,
      "jjab": 2423,
      "Ġargamu": 2424,
      "Anillee": 2425,
      "Ġgaariidha": 2426,
      "Ġhimu": 2427,
      "ress": 2428,
      "Ġhubachuu": 2429,
      "Ġdhaquu": 2430,
      "iyaanoo": 2431,
      "Wantoonni": 2432,
      "Aniifi": 2433,
      "Ġintala": 2434,
      "Kanneen": 2435,
      "ook": 2436,
      "Ġseeraa": 2437,
      "umm": 2438,
      "Ġhojjechuun": 2439,
      "chif": 2440,
      "eerum": 2441,
      "Barattoonni": 2442,
      "Ġmiliq": 2443,
      "Gammachuu": 2444,
      "Ġurgaa": 2445,
      "acc": 2446,
      "Ġsaa": 2447,
      "Ġlaaqana": 2448,
      "Ġhimte": 2449,
      "Guyyoota": 2450,
      "essaa": 2451,
      "Ġargitee": 2452,
      "Ġut": 2453,
      "Ġhayyamamu": 2454,
      "imaa": 2455,
      "aaleen": 2456,
      "ila": 2457,
      "Ġtokkotu": 2458,
      "Ġjecha": 2459,
      "Ġyaaduu": 2460,
      "Ġakkasuma": 2461,
      "Ġdhuftee": 2462,
      "Ġdadhabeera": 2463,
      "Ġdabarseera": 2464,
      "Walgahii": 2465,
      "Kaa": 2466,
      "isu": 2467,
      "Ġbarachaa": 2468,
      "llaa": 2469,
      "Ġgorsa": 2470,
      "Ġsuuta": 2471,
      "Tik": 2472,
      "Ġhumna": 2473,
      "Ġbitaa": 2474,
      "ineens": 2475,
      "choo": 2476,
      "Ġfiilmii": 2477,
      "Ġhundaa": 2478,
      "Dhi": 2479,
      "Ġfakkaattu": 2480,
      "llaan": 2481,
      "Ġgale": 2482,
      "Guyyaan": 2483,
      "Ġdubbisaa": 2484,
      "Ġbitadhe": 2485,
      "Akkamittan": 2486,
      "Ġdirqama": 2487,
      "Ġdoktora": 2488,
      "san": 2489,
      "uutti": 2490,
      "Ġjiraadha": 2491,
      "Ġkoottaa": 2492,
      "Ġdeemsa": 2493,
      "Ġdhufeera": 2494,
      "Namichi": 2495,
      "Ġnyaanne": 2496,
      "Ġbilbiluu": 2497,
      "iyoo": 2498,
      "Ġseenaa": 2499,
      "Ġgurbaa": 2500,
      "Obboleessa": 2501,
      "Ġcimaadha": 2502,
      "Ġafeer": 2503,
      "Ġgaafatamummaa": 2504,
      "Ġbareedaadha": 2505,
      "Mil": 2506,
      "neen": 2507,
      "taaf": 2508,
      "Ġball": 2509,
      "amuuf": 2510,
      "isee": 2511,
      "Ġfin": 2512,
      "Dhuf": 2513,
      "Ġbarbaaddan": 2514,
      "Ġtir": 2515,
      "Ġbarreesse": 2516,
      "Ġqac": 2517,
      "Ġajaj": 2518,
      "Ġmaxxan": 2519,
      "Han": 2520,
      "Lamm": 2521,
      "Ġdaandii": 2522,
      "Ġcaala": 2523,
      "Ġwall": 2524,
      "Ġdubbattu": 2525,
      "Ġdubbachuuf": 2526,
      "Ġlaaf": 2527,
      "Ġeegga": 2528,
      "Ġnyaadhu": 2529,
      "ubbii": 2530,
      "Ġbahu": 2531,
      "Ġfilannoo": 2532,
      "Umuriin": 2533,
      "Ġbalali": 2534,
      "accab": 2535,
      "Siin": 2536,
      "chaan": 2537,
      "aarri": 2538,
      "umsi": 2539,
      "Ġyaaddaa": 2540,
      "teela": 2541,
      "Ġgaafadhu": 2542,
      "Ġdhiiseen": 2543,
      "ĠFaransaayiin": 2544,
      "Ġbahee": 2545,
      "Shaayii": 2546,
      "Ġumriin": 2547,
      "Ġboru": 2548,
      "poortii": 2549,
      "Al": 2550,
      "ek": 2551,
      "kayy": 2552,
      "eetiin": 2553,
      "Ġdoonii": 2554,
      "ddi": 2555,
      "jjiir": 2556,
      "Ġwaam": 2557,
      "Asirratti": 2558,
      "kaakayy": 2559,
      "Ġdadhabe": 2560,
      "Ġdhukkuba": 2561,
      "Ġnaanna": 2562,
      "Dubar": 2563,
      "Saroonni": 2564,
      "Ġhogganaa": 2565,
      "Siif": 2566,
      "vi": 2567,
      "amii": 2568,
      "Ġmuuziqaa": 2569,
      "aayin": 2570,
      "org": 2571,
      "Ġdubbatte": 2572,
      "Ġlol": 2573,
      "Ġiddoo": 2574,
      "Ġdandeessan": 2575,
      "Ġdursee": 2576,
      "Ġdhagahamu": 2577,
      "Ġkaroora": 2578,
      "Ġxiyyaaraa": 2579,
      "Jijjiir": 2580,
      "Ġadii": 2581,
      "chumaan": 2582,
      "Ġyaadadhu": 2583,
      "Ġeegu": 2584,
      "Ġfidaa": 2585,
      "arraan": 2586,
      "Ġtole": 2587,
      "Abdii": 2588,
      "ĠdandaÊ¼u": 2589,
      "Ġtasumaa": 2590,
      "Ġroobaa": 2591,
      "eekkachiis": 2592,
      "Qorqorroo": 2593,
      "sona": 2594,
      "Lakki": 2595,
      "fiin": 2596,
      "Ġv": 2597,
      "Ġtarkaan": 2598,
      "alti": 2599,
      "Ġyaadachuu": 2600,
      "Ġdhuftu": 2601,
      "Ġamansiis": 2602,
      "Ġhojjetame": 2603,
      "iilmiin": 2604,
      "Ġimala": 2605,
      "Ġmagaal": 2606,
      "Ġsuukan": 2607,
      "Ġdide": 2608,
      "Yaal": 2609,
      "rri": 2610,
      "Ġamala": 2611,
      "Ġdhabuun": 2612,
      "Ġwayinii": 2613,
      "Sirba": 2614,
      "Ġcicc": 2615,
      "Ġagarsiisi": 2616,
      "Dafee": 2617,
      "Barsiisaan": 2618,
      "Ġkabaj": 2619,
      "Ġtorbee": 2620,
      "Laaqana": 2621,
      "Muuziqaa": 2622,
      "ooress": 2623,
      "Ġgan": 2624,
      "Ġabbaan": 2625,
      "Ġsilaa": 2626,
      "chiif": 2627,
      "Ġqabuuf": 2628,
      "Ġhojjedheera": 2629,
      "Ġmak": 2630,
      "Ġharkaa": 2631,
      "Ġijaan": 2632,
      "Ġtilmaame": 2633,
      "Ġkompiit": 2634,
      "amarran": 2635,
      "tuun": 2636,
      "aataadha": 2637,
      "agan": 2638,
      "Ġod": 2639,
      "Deemuun": 2640,
      "Ġargamuun": 2641,
      "Milkaa": 2642,
      "Haa": 2643,
      "isuun": 2644,
      "Ġqabeessa": 2645,
      "atama": 2646,
      "anatti": 2647,
      "ĠToomitti": 2648,
      "Hundaa": 2649,
      "Hiriyaan": 2650,
      "Ġgowwoom": 2651,
      "Fedhii": 2652,
      "Ġutaal": 2653,
      "Ib": 2654,
      "Lol": 2655,
      "Nag": 2656,
      "skii": 2657,
      "Ġheerum": 2658,
      "Ġhirk": 2659,
      "Ġibsuu": 2660,
      "Deebiin": 2661,
      "Ġdaak": 2662,
      "Ġyoomiitti": 2663,
      "uuxannoo": 2664,
      "Ġijooll": 2665,
      "Booda": 2666,
      "Ġqacar": 2667,
      "es": 2668,
      "Ġbaane": 2669,
      "Ġbuna": 2670,
      "irii": 2671,
      "altee": 2672,
      "Ġseera": 2673,
      "Ġarga": 2674,
      "Ġduruu": 2675,
      "Ġtapha": 2676,
      "Obboleettii": 2677,
      "Hirriba": 2678,
      "Ha": 2679,
      "Og": 2680,
      "idda": 2681,
      "Ġsar": 2682,
      "Ġbarre": 2683,
      "Ġbarbaadan": 2684,
      "Ġhunduu": 2685,
      "Ġjedhan": 2686,
      "Ġeege": 2687,
      "Ġilaaluuf": 2688,
      "Ġkeenyayyuu": 2689,
      "Ġamanne": 2690,
      "Ġmachaa": 2691,
      "Ġbaq": 2692,
      "Ġbiraatti": 2693,
      "Ġnageenya": 2694,
      "Ġsaandu": 2695,
      "Abaaboo": 2696,
      "Buufata": 2697,
      "Fiilmiin": 2698,
      "Iccitii": 2699,
      "Ġaann": 2700,
      "amuun": 2701,
      "chu": 2702,
      "Ġdubbatin": 2703,
      "Ġhundatti": 2704,
      "Ġpaarkii": 2705,
      "Ġhangas": 2706,
      "Ġgodhinaa": 2707,
      "Kitaabicha": 2708,
      "Ġoofuu": 2709,
      "Imala": 2710,
      "Ġaannan": 2711,
      "Ġgeenye": 2712,
      "Ġdhork": 2713,
      "Ġciree": 2714,
      "Ġfiduu": 2715,
      "Ġfudhatu": 2716,
      "Ġhafuura": 2717,
      "Ġjijjiiruu": 2718,
      "Ġliqii": 2719,
      "Ġfiige": 2720,
      "Intalti": 2721,
      "Ġamanachuu": 2722,
      "Ġburjaa": 2723,
      "Balballi": 2724,
      "elevi": 2725,
      "Ġsaanduqa": 2726,
      "Foddaa": 2727,
      "Haf": 2728,
      "ĠP": 2729,
      "anaan": 2730,
      "Ġqaala": 2731,
      "aase": 2732,
      "imni": 2733,
      "Ġdeeman": 2734,
      "ĠToomiif": 2735,
      "Ġilaallu": 2736,
      "Ġabda": 2737,
      "Waadaa": 2738,
      "Borsaa": 2739,
      "Ġhawwata": 2740,
      "Ġeeggadhaa": 2741,
      "Ġfufi": 2742,
      "Ġqawwee": 2743,
      "Galgala": 2744,
      "Ġdhumaaf": 2745,
      "Ġhangamii": 2746,
      "oni": 2747,
      "eeb": 2748,
      "irri": 2749,
      "erre": 2750,
      "Ġxur": 2751,
      "Ġfudhadhaa": 2752,
      "Ġmucaa": 2753,
      "Sirritti": 2754,
      "Ġfurdaa": 2755,
      "Ġimal": 2756,
      "Ġmorm": 2757,
      "Ġdhangala": 2758,
      "Dadhab": 2759,
      "Jaappaan": 2760,
      "Sim": 2761,
      "TV": 2762,
      "ite": 2763,
      "otaa": 2764,
      "qii": 2765,
      "ĠM": 2766,
      "Ġyaala": 2767,
      "Ġgochaa": 2768,
      "ugg": 2769,
      "Ġbarbaachisaadha": 2770,
      "Ġsaf": 2771,
      "Ġgahuu": 2772,
      "Ġibs": 2773,
      "Nyaanni": 2774,
      "birr": 2775,
      "Ken": 2776,
      "ed": 2777,
      "Ġquba": 2778,
      "Ġdhuma": 2779,
      "baatti": 2780,
      "Ġargattu": 2781,
      "iisa": 2782,
      "Ġcaccab": 2783,
      "Ġdeemtee": 2784,
      "Ġkunooti": 2785,
      "Ġgalmee": 2786,
      "arsii": 2787,
      "Ġjaallatti": 2788,
      "Saff": 2789,
      "Ġroobu": 2790,
      "Ġdagadheera": 2791,
      "Ġhayyama": 2792,
      "Ġagarsiisa": 2793,
      "Ġsanaan": 2794,
      "Meeshaa": 2795,
      "Murtoo": 2796,
      "Guutummaatti": 2797,
      "Ġtiraaf": 2798,
      "Tamboo": 2799,
      "siin": 2800,
      "Ġhat": 2801,
      "Ġgeesse": 2802,
      "eessee": 2803,
      "Ġturuun": 2804,
      "Ġgaree": 2805,
      "Ġdhiisuun": 2806,
      "Ġnyaatu": 2807,
      "Ġhojiitti": 2808,
      "Ġgammachiisu": 2809,
      "Karoorri": 2810,
      "Ġdargaggeessa": 2811,
      "jeel": 2812,
      "Ġgoonu": 2813,
      "Ga": 2814,
      "Qoph": 2815,
      "amtii": 2816,
      "Ġtuff": 2817,
      "Ġfee": 2818,
      "Ġif": 2819,
      "Ġhimuuf": 2820,
      "Injif": 2821,
      "Ġsoba": 2822,
      "aggeeff": 2823,
      "Qoricha": 2824,
      "Ġboona": 2825,
      "Ġmijataa": 2826,
      "Biiraa": 2827,
      "Naaf": 2828,
      "ksii": 2829,
      "Ġdhibaa": 2830,
      "Ġjalqabuu": 2831,
      "Ġqabaachuun": 2832,
      "Ġqoricha": 2833,
      "Siree": 2834,
      "Ġkolfaa": 2835,
      "Ġaanu": 2836,
      "Seenaan": 2837,
      "elevijiin": 2838,
      "Ibi": 2839,
      "Qurxummii": 2840,
      "ca": 2841,
      "ĠIsniina": 2842,
      "Ġde": 2843,
      "Ġaww": 2844,
      "dhiin": 2845,
      "Ġmad": 2846,
      "Ġhojjetan": 2847,
      "Ġkennine": 2848,
      "stoni": 2849,
      "Ġhawwatu": 2850,
      "leejjii": 2851,
      "Ġqophii": 2852,
      "Barsiisaa": 2853,
      "Ġbaabura": 2854,
      "Lakkoofsa": 2855,
      "stonitti": 2856,
      "uph": 2857,
      "ĠCh": 2858,
      "aanna": 2859,
      "Ġqabuu": 2860,
      "aayil": 2861,
      "Ġlakkoof": 2862,
      "Ġeegal": 2863,
      "Ġkak": 2864,
      "ppaa": 2865,
      "Ġhawwataa": 2866,
      "Ġfiladha": 2867,
      "Dogoggor": 2868,
      "Ġimmoo": 2869,
      "Daftee": 2870,
      "Ġhaasofsiisuu": 2871,
      "Biyya": 2872,
      "orgom": 2873,
      "Dargagg": 2874,
      "Gaar": 2875,
      "Mataa": 2876,
      "Salph": 2877,
      "Ġqabame": 2878,
      "aarf": 2879,
      "bboo": 2880,
      "Ġyaali": 2881,
      "Ġqabnedha": 2882,
      "Ġulfaataadha": 2883,
      "Balaan": 2884,
      "Ġfalm": 2885,
      "Wayinii": 2886,
      "Ġmeeshaa": 2887,
      "zexaa": 2888,
      "Ġgurraacha": 2889,
      "Asoo": 2890,
      "Daan": 2891,
      "Dambalii": 2892,
      "Raa": 2893,
      "teen": 2894,
      "aachuu": 2895,
      "Ġhamaan": 2896,
      "Ġbuuf": 2897,
      "Ġtuu": 2898,
      "Ġisaati": 2899,
      "Ġamanamaa": 2900,
      "Ġdaree": 2901,
      "Ġnyaachuun": 2902,
      "Ġseenu": 2903,
      "Ġroobuu": 2904,
      "Arg": 2905,
      "ootaaf": 2906,
      "Eeyyee": 2907,
      "Ġkofalchiisu": 2908,
      "Asoos": 2909,
      "Ayyaan": 2910,
      "Fiig": 2911,
      "dir": 2912,
      "iseera": 2913,
      "Ġbarachuuf": 2914,
      "ilb": 2915,
      "Ġkanatti": 2916,
      "aasaan": 2917,
      "Ġgaafadha": 2918,
      "ubbiin": 2919,
      "Ġgodhan": 2920,
      "Ġeeggadhu": 2921,
      "Ġdaftee": 2922,
      "Ġdhukkubsa": 2923,
      "Ġcimaan": 2924,
      "Ilaal": 2925,
      "Ġ19": 2926,
      "Suuta": 2927,
      "oogidda": 2928,
      "Ġeenyuuti": 2929,
      "Ġmagaalattii": 2930,
      "Achumaan": 2931,
      "Kubbaa": 2932,
      "Waraqaa": 2933,
      "Ġ(": 2934,
      "tira": 2935,
      "eessu": 2936,
      "Ġqabadheera": 2937,
      "Ġdhugaadha": 2938,
      "Ġqabaadhu": 2939,
      "Ġqorraan": 2940,
      "Ġergaa": 2941,
      "Mucaa": 2942,
      "Ġbitatte": 2943,
      "Eeg": 2944,
      "Kennaa": 2945,
      "Ganna": 2946,
      "Nagaa": 2947,
      "qatu": 2948,
      "Ġqu": 2949,
      "Ġbaruu": 2950,
      "Toomiif": 2951,
      "Ġargina": 2952,
      "Ġkeetiin": 2953,
      "Ġkanarraa": 2954,
      "Ġmichuu": 2955,
      "Ġdhiisu": 2956,
      "eeraan": 2957,
      "Ġnyaachaa": 2958,
      "Ġpir": 2959,
      "Kanaan": 2960,
      "Waliin": 2961,
      "Ġyaaddoo": 2962,
      "Konkolaachis": 2963,
      "Dhukkubs": 2964,
      "Ġfincaan": 2965,
      "Ana": 2966,
      "Tol": 2967,
      "edha": 2968,
      "teera": 2969,
      "Ġhoo": 2970,
      "Ġqabsiis": 2971,
      "Ġqabdan": 2972,
      "Ġturu": 2973,
      "Ġargamne": 2974,
      "Dhii": 2975,
      "ffal": 2976,
      "Ġfakkaataa": 2977,
      "Ġamanamummaa": 2978,
      "Ġdadhabde": 2979,
      "Ġbarumsaatti": 2980,
      "iigaltee": 2981,
      "Ġliqim": 2982,
      "Eenyutu": 2983,
      "Ġagarsiisuu": 2984,
      "Tola": 2985,
      "Ilmi": 2986,
      "Kaffal": 2987,
      "ooressa": 2988,
      "Kaam": 2989,
      "Ul": 2990,
      "rra": 2991,
      "ĠL": 2992,
      "Ġsaam": 2993,
      "Ġsoor": 2994,
      "Ġwarraa": 2995,
      "ondii": 2996,
      "Ġxalayaa": 2997,
      "Ġid": 2998,
      "Ġreef": 2999,
      "iyee": 3000,
      "Ġuffatee": 3001,
      "Ġkamiin": 3002,
      "Ġroobe": 3003,
      "Ġkaasee": 3004,
      "Ġogummaa": 3005,
      "aashinii": 3006,
      "Ġakeekkachiis": 3007,
      "Barreeff": 3008,
      "ekondii": 3009,
      "Aann": 3010,
      "Mo": 3011,
      "qaan": 3012,
      "Ġtarree": 3013,
      "Ġqo": 3014,
      "Ġmaraa": 3015,
      "Ġgaafachuun": 3016,
      "Ġmiilaan": 3017,
      "Ġseenuu": 3018,
      "Ġhubanne": 3019,
      "Ġgammachiisaa": 3020,
      "Ġumm": 3021,
      "Walgahiin": 3022,
      "Ġsirbuu": 3023,
      "garummaa": 3024,
      "Ġkitaabota": 3025,
      "Ġreefuu": 3026,
      "Aannan": 3027,
      "?\"": 3028,
      "Ciree": 3029,
      "tt": 3030,
      "Ġ'": 3031,
      "eeyy": 3032,
      "Ġbineens": 3033,
      "Ġabaaboo": 3034,
      "Ġqabuudha": 3035,
      "attiin": 3036,
      "Ġofumaan": 3037,
      "Ġisaaniif": 3038,
      "Ġhojjettee": 3039,
      "Ġbaase": 3040,
      "Ġkaffaluu": 3041,
      "Ġmirkaneeffachuu": 3042,
      "Ġmilk": 3043,
      "ĠBoostonitti": 3044,
      "Ġdeebisee": 3045,
      "Ġerge": 3046,
      "Ġdhageessanii": 3047,
      "Ġgidduutti": 3048,
      "Ġpoolisii": 3049,
      "onsartii": 3050,
      "Ġwaraanaa": 3051,
      "Duuba": 3052,
      "Ġfincaanii": 3053,
      "Gon": 3054,
      "Pir": 3055,
      "Wagg": 3056,
      "ela": 3057,
      "Ġsagal": 3058,
      "ddee": 3059,
      "Ġgogaa": 3060,
      "Aman": 3061,
      "Ġiccitii": 3062,
      "Ġkeenyatti": 3063,
      "Ġjiraachuun": 3064,
      "Ġkut": 3065,
      "chiisa": 3066,
      "Ġfudhachuuf": 3067,
      "Ġcufaa": 3068,
      "Miila": 3069,
      "Barreess": 3070,
      "ibaati": 3071,
      "Lamaanuu": 3072,
      "Irra": 3073,
      "Bilbilli": 3074,
      "Soch": 3075,
      "Fuula": 3076,
      "Tikeetii": 3077,
      "Ġeeggadha": 3078,
      "Ġdallaa": 3079,
      "amisa": 3080,
      "aartii": 3081,
      "Ġkeessanitti": 3082,
      "Ġgalchi": 3083,
      "Ġdeebif": 3084,
      "Ġqormaata": 3085,
      "Ġgaabb": 3086,
      "Lafa": 3087,
      "ookiyoo": 3088,
      "Ġifaadha": 3089,
      "Ġmilkoof": 3090,
      "Keess": 3091,
      "Keekii": 3092,
      "Sagal": 3093,
      "Ġbiiraa": 3094,
      "kkaa": 3095,
      "yyoo": 3096,
      "anaadaa": 3097,
      "Ê¼uu": 3098,
      "Ġgammadu": 3099,
      "Ġrakkina": 3100,
      "Ġpiyaanoo": 3101,
      "Ġajjeef": 3102,
      "Ġnyaattan": 3103,
      "Odeeffannoo": 3104,
      "Rifeensa": 3105,
      "Kottaa": 3106,
      "Gonkumaa": 3107,
      "Bi": 3108,
      "Bad": 3109,
      "Moot": 3110,
      "Saan": 3111,
      "Taa": 3112,
      "ce": 3113,
      "ha": 3114,
      "sti": 3115,
      "Ġqaruuraa": 3116,
      "aall": 3117,
      "Ġjirru": 3118,
      "Ġturuuf": 3119,
      "Ġtolle": 3120,
      "Ġargadha": 3121,
      "Ġdubbachaa": 3122,
      "Ġmeeqatu": 3123,
      "shiin": 3124,
      "Ġyaalu": 3125,
      "Ġsanaatti": 3126,
      "Ġargite": 3127,
      "Ġcabse": 3128,
      "Ġcaalaan": 3129,
      "Ġbilcheessuu": 3130,
      "Dubbiin": 3131,
      "Ġdhuunfaa": 3132,
      "Ġtasgabbaa": 3133,
      "Muka": 3134,
      "ĠF": 3135,
      "Ġgamoo": 3136,
      "aannu": 3137,
      "Ġmal": 3138,
      "Ġhimtu": 3139,
      "Ammatti": 3140,
      "Ġdabar": 3141,
      "ukkaara": 3142,
      "Ġbadaa": 3143,
      "Ġolka": 3144,
      "attamaan": 3145,
      "Ġkamtu": 3146,
      "Ġmurtoo": 3147,
      "Ġmudatee": 3148,
      "Ġyoomiyyuu": 3149,
      "Ġdhaabbate": 3150,
      "ĠKanaadaa": 3151,
      "Dald": 3152,
      "koo": 3153,
      "zi": 3154,
      "Ġhiyy": 3155,
      "Ġbarachuun": 3156,
      "Ġoduu": 3157,
      "itaara": 3158,
      "Ġrafuu": 3159,
      "Ġdhaabuu": 3160,
      "Ġlafaa": 3161,
      "Ġibidda": 3162,
      "Dukk": 3163,
      "Gareen": 3164,
      "op": 3165,
      "ĠY": 3166,
      "Ġbaat": 3167,
      "Ġqabate": 3168,
      "aasii": 3169,
      "Ġgalu": 3170,
      "ĠToomiin": 3171,
      "Ġdeebitu": 3172,
      "Ġmirga": 3173,
      "Ġdhaaba": 3174,
      "Ġnyaachis": 3175,
      "Ġshakk": 3176,
      "Ġgodhi": 3177,
      "uuziyee": 3178,
      "Ġagarsiise": 3179,
      "Ġhordofaa": 3180,
      "Ġgeessu": 3181,
      "jek": 3182,
      "Doktarri": 3183,
      "Koph": 3184,
      "Mir": 3185,
      "Xumur": 3186,
      "oodha": 3187,
      "Ġsuph": 3188,
      "oll": 3189,
      "annaan": 3190,
      "Ġsirba": 3191,
      "Ġjiraachaa": 3192,
      "Ġdeebitee": 3193,
      "Ġbarbaannu": 3194,
      "Ġbahuun": 3195,
      "Gaaffiin": 3196,
      "Ġdhaqeen": 3197,
      "Deemi": 3198,
      "Ġadab": 3199,
      "Ġjajjab": 3200,
      "Ġhanqaaquu": 3201,
      "Jalqaba": 3202,
      "Call": 3203,
      "Maatiin": 3204,
      "Ġjah": 3205,
      "Ġqub": 3206,
      "isuuf": 3207,
      "Ġfoon": 3208,
      "Ġdeeskii": 3209,
      "Ġbeeknu": 3210,
      "iisaa": 3211,
      "Ġjedhama": 3212,
      "Ġjaalalaa": 3213,
      "Ġhaq": 3214,
      "Ġbosona": 3215,
      "Ġcufuu": 3216,
      "Galmee": 3217,
      "Ġjalatti": 3218,
      "Gaaddisa": 3219,
      "Ġfagaadhaa": 3220,
      "Ġsirreessuu": 3221,
      "Ġmeeshaalee": 3222,
      "Ġbarnoota": 3223,
      "Seera": 3224,
      "ikii": 3225,
      "tr": 3226,
      "ttiin": 3227,
      "Ġdachaa": 3228,
      "Ġkuma": 3229,
      "Ġfun": 3230,
      "alayaan": 3231,
      "Ġgalte": 3232,
      "arsiif": 3233,
      "Ġamantaa": 3234,
      "Ġshakkii": 3235,
      "Kanatu": 3236,
      "Ġbarsiisuu": 3237,
      "Ġagarsiif": 3238,
      "Abjuu": 3239,
      "Ġgurgu": 3240,
      "Ġjaallattan": 3241,
      "Ġdhumeera": 3242,
      "Xiyyeeffannoo": 3243,
      "Gurbaan": 3244,
      "Ġrooba": 3245,
      "Ġburjaaja": 3246,
      "Tole": 3247,
      "Sagaleen": 3248,
      "zidaan": 3249,
      "Addunyaa": 3250,
      "Gam": 3251,
      "Garee": 3252,
      "Lubb": 3253,
      "Qamisa": 3254,
      "Seerri": 3255,
      "noo": 3256,
      "okk": 3257,
      "ojek": 3258,
      "ts": 3259,
      "ysi": 3260,
      "Ġarr": 3261,
      "Ġgama": 3262,
      "aansii": 3263,
      "eensi": 3264,
      "Ġargame": 3265,
      "Ġwalgah": 3266,
      "Ġjedhiin": 3267,
      "Ġdeemtaa": 3268,
      "Ġjirutti": 3269,
      "Ġdandeessi": 3270,
      "Ġabjuu": 3271,
      "Ġmurteessuu": 3272,
      "Ġduubaan": 3273,
      "uuzii": 3274,
      "Ġqilleensa": 3275,
      "Magaal": 3276,
      "ĠOK": 3277,
      "Ġwallaal": 3278,
      "Ġkompiitara": 3279,
      "agantaa": 3280,
      "Hafuura": 3281,
      "Qophii": 3282,
      "ysib": 3283,
      "Foon": 3284,
      "fama": 3285,
      "xa": 3286,
      "Ġkaaf": 3287,
      "amaaf": 3288,
      "Ġmars": 3289,
      "dde": 3290,
      "Ġdeegg": 3291,
      "aayinaa": 3292,
      "Ġdeemi": 3293,
      "Ġdubbannu": 3294,
      "Ġlaga": 3295,
      "Ġjaalalaan": 3296,
      "Ġdhufan": 3297,
      "Ġfida": 3298,
      "Ġgaafachuuf": 3299,
      "Hoteela": 3300,
      "jaaj": 3301,
      "Ġrifa": 3302,
      "Ġcabe": 3303,
      "Uffanni": 3304,
      "Ġmufachiis": 3305,
      "Ġumrii": 3306,
      "Lakkoofsi": 3307,
      "Dhih": 3308,
      "elevijiinii": 3309,
      "Daandiin": 3310,
      "Baan": 3311,
      "Dir": 3312,
      "toob": 3313,
      "ĠD": 3314,
      "and": 3315,
      "uroo": 3316,
      "Ġwaraqaa": 3317,
      "Ġbeekee": 3318,
      "Ġleen": 3319,
      "Ġilaalte": 3320,
      "iyoon": 3321,
      "ibu": 3322,
      "ullaa": 3323,
      "Ġnyaattu": 3324,
      "Ġcimtee": 3325,
      "Ġobsa": 3326,
      "Ġdaawwachuuf": 3327,
      "Ilma": 3328,
      "Ergaa": 3329,
      "Ġtaasisa": 3330,
      "Ġgubbaa": 3331,
      "Ġibiddaa": 3332,
      "Fuuldur": 3333,
      "Kaardii": 3334,
      "Ġbaankii": 3335,
      "Sirriitti": 3336,
      "Hogganaa": 3337,
      "imaatti": 3338,
      "Ġxuraa": 3339,
      "toobis": 3340,
      "Beek": 3341,
      "Fakk": 3342,
      "Mar": 3343,
      "Ur": 3344,
      "kkeettii": 3345,
      "Ġtaan": 3346,
      "Ġbaraar": 3347,
      "iisha": 3348,
      "Ġciif": 3349,
      "Akkaataan": 3350,
      "ĠbaayÊ¼": 3351,
      "Ġhimuun": 3352,
      "Ġhiminaa": 3353,
      "Ġdeebisuu": 3354,
      "Ġdaraaraa": 3355,
      "Ġjalqabaaf": 3356,
      "Ġdarbuu": 3357,
      "Ġsadiif": 3358,
      "Ġjijjii": 3359,
      "Ġkaase": 3360,
      "Ġkaasuun": 3361,
      "Ġajjeese": 3362,
      "Yaadannoo": 3363,
      "Ġfuuldura": 3364,
      "Umurii": 3365,
      "Ġdaakuu": 3366,
      "Ġsafuu": 3367,
      "Akaakayy": 3368,
      "Eessaa": 3369,
      "Hiik": 3370,
      "Sammuu": 3371,
      "ezidaan": 3372,
      "oh": 3373,
      "Ġbaatu": 3374,
      "Ġmis": 3375,
      "Ġbarattoota": 3376,
      "Ġjechaa": 3377,
      "Ġhospitaala": 3378,
      "ong": 3379,
      "Ġbifa": 3380,
      "ataatti": 3381,
      "Ġfudhachuun": 3382,
      "Ġxumurame": 3383,
      "Ġhawwa": 3384,
      "Ġulfaatina": 3385,
      "Ofitti": 3386,
      "Ġbane": 3387,
      "Ġwaggoota": 3388,
      "iizaa": 3389,
      "Ġsaax": 3390,
      "ysiboolii": 3391,
      "Ġoo": 3392,
      "Ġkal": 3393,
      "Ġbatt": 3394,
      "aloo": 3395,
      "Ġhinaaf": 3396,
      "Ġjiraate": 3397,
      "Ġeeguun": 3398,
      "iirri": 3399,
      "Ġnyaadha": 3400,
      "Ġfudhanne": 3401,
      "arreen": 3402,
      "aannee": 3403,
      "Ġmirkaneessuu": 3404,
      "Ġbishaaniin": 3405,
      "Ġcaaludha": 3406,
      "Ariif": 3407,
      "Ġdhukaasa": 3408,
      "Ġwantoota": 3409,
      "Ġtiraafikaa": 3410,
      "Ulfaatina": 3411,
      "yoon": 3412,
      "eey": 3413,
      "Ġko": 3414,
      "Ġbaate": 3415,
      "Ġqaal": 3416,
      "eessan": 3417,
      "eessii": 3418,
      "atamu": 3419,
      "Ġdandama": 3420,
      "Meeqa": 3421,
      "Ġfide": 3422,
      "Ġilaalle": 3423,
      "Ġnyaadhe": 3424,
      "Ġyaaddee": 3425,
      "Ġbarsiisa": 3426,
      "Ġqilleensi": 3427,
      "Ġbilcheessuun": 3428,
      "Ġdig": 3429,
      "Ġfuulduratti": 3430,
      "Gowwaa": 3431,
      "Ġdogoggoraan": 3432,
      "Ġcirracha": 3433,
      "Simbirr": 3434,
      "Aw": 3435,
      "Fakkii": 3436,
      "Him": 3437,
      "Humna": 3438,
      "okol": 3439,
      "aaw": 3440,
      "Ġhii": 3441,
      "abb": 3442,
      "Ġbarbaaduu": 3443,
      "arga": 3444,
      "Ġargatta": 3445,
      "Ġkanan": 3446,
      "llama": 3447,
      "Ġguyyoota": 3448,
      "Ġdubbatta": 3449,
      "Ġxix": 3450,
      "Ġittiin": 3451,
      "Ġisheetiin": 3452,
      "Dhugumatti": 3453,
      "Ġdubbise": 3454,
      "Ġdubbisuun": 3455,
      "Ġdhagahuu": 3456,
      "ĠMaariyaamiif": 3457,
      "Ġmudateera": 3458,
      "Miillaan": 3459,
      "Ġmagar": 3460,
      "Ġciisichaa": 3461,
      "Daaww": 3462,
      "Dhufuu": 3463,
      "Ġlakkoofsa": 3464,
      "Kaffaltii": 3465,
      "Sob": 3466,
      "itu": 3467,
      "Ġakkanatti": 3468,
      "Ġbaradheera": 3469,
      "Ġisaatiif": 3470,
      "ilab": 3471,
      "Ġbeekan": 3472,
      "teetti": 3473,
      "Ġjaalanne": 3474,
      "umatti": 3475,
      "Ġqofti": 3476,
      "Ġraaf": 3477,
      "Ġnyaate": 3478,
      "Ġtikkeettii": 3479,
      "Ġfudhachaa": 3480,
      "Ġgahu": 3481,
      "Manatti": 3482,
      "Ġfayyadama": 3483,
      "Ġcufe": 3484,
      "Ġdabalataan": 3485,
      "duraalee": 3486,
      "kaana": 3487,
      "Ġgaaddisa": 3488,
      "Ġulfaata": 3489,
      "Ġcimee": 3490,
      "Ġdhumarratti": 3491,
      "Intalli": 3492,
      "qqii": 3493,
      "Ġkaardii": 3494,
      "Obombol": 3495,
      "Ġmalu": 3496,
      "Cim": 3497,
      "Haasaa": 3498,
      "Minjaala": 3499,
      "Ol": 3500,
      "aakk": 3501,
      "Ġharoo": 3502,
      "aang": 3503,
      "Ġmuk": 3504,
      "attaniittuu": 3505,
      "Ġfir": 3506,
      "Ġargan": 3507,
      "Ġkanarra": 3508,
      "Amala": 3509,
      "Ġhaqa": 3510,
      "Ġjaallatta": 3511,
      "Ġhirmaa": 3512,
      "Ġhojjetteetta": 3513,
      "Ġbaasee": 3514,
      "ibe": 3515,
      "ulluu": 3516,
      "Ġdhukkubbii": 3517,
      "Shubb": 3518,
      "Shamarran": 3519,
      "Ġdhiheesse": 3520,
      "Ġbadii": 3521,
      "Ġutuu": 3522,
      "Kanaafidha": 3523,
      "Ġumurii": 3524,
      "Gabaasa": 3525,
      "Ġdubar": 3526,
      "Saffisaan": 3527,
      "ĠChaayinaa": 3528,
      "Qophaa": 3529,
      "Sekondii": 3530,
      "duun": 3531,
      "ger": 3532,
      "kiin": 3533,
      "tonni": 3534,
      "vii": 3535,
      "ĠN": 3536,
      "Ġz": 3537,
      "Ġre": 3538,
      "Ġhate": 3539,
      "Ġqabeenya": 3540,
      "Ġsiy": 3541,
      "Ġdug": 3542,
      "Kunoo": 3543,
      "Ġdhiisa": 3544,
      "Waaqa": 3545,
      "Ġqabaadhee": 3546,
      "Ġuffachuu": 3547,
      "Ġfufuu": 3548,
      "Ġbiratti": 3549,
      "Ġdhaggeeffachuu": 3550,
      "Jechoota": 3551,
      "Ġ10": 3552,
      "Ġkudhaniin": 3553,
      "Ġtilmaamuun": 3554,
      "Tokkoon": 3555,
      "Ġgammaddee": 3556,
      "ibsiifate": 3557,
      "Ġxiyyeeffannaa": 3558,
      "Ġdubartii": 3559,
      "Ġijoollummaa": 3560,
      "Ayyaanni": 3561,
      "Ġidilee": 3562,
      "Kopheen": 3563,
      "Ġwalgahii": 3564,
      "Ak": 3565,
      "Carraan": 3566,
      "Doonii": 3567,
      "Fal": 3568,
      "Jeeq": 3569,
      "sinee": 3570,
      "varsii": 3571,
      "eell": 3572,
      "Ġfii": 3573,
      "Ġbeekaa": 3574,
      "Ġqabachuuf": 3575,
      "Dhaab": 3576,
      "Waajjira": 3577,
      "Ġhubadhe": 3578,
      "Ġhayyamuu": 3579,
      "Miidh": 3580,
      "Ġargitu": 3581,
      "Ġdhalootaa": 3582,
      "Ġfurtuu": 3583,
      "Ġmiidhuu": 3584,
      "Ġhordofuu": 3585,
      "qqoll": 3586,
      "Ġgaddisiisa": 3587,
      "Ġlammata": 3588,
      "Hojjet": 3589,
      "Ġgadda": 3590,
      "Tasumaa": 3591,
      "Ġkamiinuu": 3592,
      "tton": 3593,
      "xaxaa": 3594,
      "Laga": 3595,
      "Ġkall": 3596,
      "iinsa": 3597,
      "erii": 3598,
      "teef": 3599,
      "Ġgaarummaa": 3600,
      "Ê¼aa": 3601,
      "Ġyaadattu": 3602,
      "Walitti": 3603,
      "Ġkaffala": 3604,
      "iskileetiin": 3605,
      "Ġgadhiisuu": 3606,
      "Bashann": 3607,
      "Ġfuudhuu": 3608,
      "Qawwee": 3609,
      "Ġbattal": 3610,
      "qqolloo": 3611,
      "'s": 3612,
      "Dand": 3613,
      "Hub": 3614,
      "Tur": 3615,
      "Waaree": 3616,
      "Xalayaan": 3617,
      "gaan": 3618,
      "tis": 3619,
      "tima": 3620,
      "Ġgitaara": 3621,
      "eessaadha": 3622,
      "atanii": 3623,
      "Ġakkaataa": 3624,
      "Ġbare": 3625,
      "Ġbarataa": 3626,
      "Ġkoochoo": 3627,
      "ddu": 3628,
      "Dhiy": 3629,
      "Ġmaalii": 3630,
      "Ġdhagaa": 3631,
      "Ġdhugu": 3632,
      "Ġkute": 3633,
      "Ġmirgaa": 3634,
      "Ġshakka": 3635,
      "Ġhundaan": 3636,
      "Ġfudhannu": 3637,
      "Ġibsa": 3638,
      "Ġkaam": 3639,
      "Sirb": 3640,
      "Ġtolchi": 3641,
      "Ġaangoo": 3642,
      "Ġmiidhame": 3643,
      "Dafii": 3644,
      "Ġinjifachuu": 3645,
      "Ġtasuma": 3646,
      "ĠTookiyoo": 3647,
      "Balal": 3648,
      "Ġbaaburaa": 3649,
      "Daraaraa": 3650,
      "Duubatti": 3651,
      "Ġarrab": 3652,
      "Biskileetiin": 3653,
      "Teess": 3654,
      "eff": 3655,
      "he": 3656,
      "tama": 3657,
      "Ġon": 3658,
      "arm": 3659,
      "tichi": 3660,
      "Ġqaan": 3661,
      "ataaf": 3662,
      "Ġtokkodha": 3663,
      "Ġdeemin": 3664,
      "Ġakkasumaan": 3665,
      "Ġmurtii": 3666,
      "Ġtaphatu": 3667,
      "ibsiis": 3668,
      "Ġjabaa": 3669,
      "Ġdhaggeeffachaa": 3670,
      "Ġqaama": 3671,
      "araanni": 3672,
      "Ġkofalchiisa": 3673,
      "Ġqaxxaamuree": 3674,
      "Ġnuffisiisaa": 3675,
      "Ġkonkolaachisaa": 3676,
      "Ġbuufataatti": 3677,
      "urooppaa": 3678,
      "Ġdandamachuu": 3679,
      "Haasa": 3680,
      "Mallatt": 3681,
      "Re": 3682,
      "Roo": 3683,
      "ita": 3684,
      "roon": 3685,
      "rom": 3686,
      "ziin": 3687,
      "ĠH": 3688,
      "Ġgaara": 3689,
      "isan": 3690,
      "raw": 3691,
      "Ġargateera": 3692,
      "immaan": 3693,
      "anneerra": 3694,
      "Ġofuma": 3695,
      "Ġmurtaa": 3696,
      "Ġhundarra": 3697,
      "Ġduratti": 3698,
      "Ġyookaan": 3699,
      "Ġuffadhu": 3700,
      "aamp": 3701,
      "Ġbalaan": 3702,
      "Jaalala": 3703,
      "Soba": 3704,
      "Adeerri": 3705,
      "Hidh": 3706,
      "Dhiheenya": 3707,
      "sin": 3708,
      "Ġqal": 3709,
      "atamne": 3710,
      "unni": 3711,
      "Ġce": 3712,
      "eenyaan": 3713,
      "Ġjedhamee": 3714,
      "Ê¼a": 3715,
      "Ġgalchuu": 3716,
      "ĠwaaÊ¼ee": 3717,
      "Ġmiidhaa": 3718,
      "Ġbaasii": 3719,
      "Ġjijjiirame": 3720,
      "Ġhayyamu": 3721,
      "Dhukkuba": 3722,
      "Ġlubbuu": 3723,
      "Ġgammaddan": 3724,
      "Ġdirqisiis": 3725,
      "Ġdhangal": 3726,
      "Ġjenne": 3727,
      "Ġkomachuu": 3728,
      "Kaameeraa": 3729,
      "Sochii": 3730,
      "Dirq": 3731,
      "Liq": 3732,
      "Taak": 3733,
      "achiif": 3734,
      "Ġdorgom": 3735,
      "indaa": 3736,
      "Ġseeraan": 3737,
      "Ġargatu": 3738,
      "Ġgargaaruun": 3739,
      "Ġdabalaa": 3740,
      "Ġsak": 3741,
      "Ġrakkisa": 3742,
      "Ġshaayii": 3743,
      "Ġyaaleera": 3744,
      "Ġxumuruu": 3745,
      "Ġdaabboo": 3746,
      "Ġyaadni": 3747,
      "Ġjechuudha": 3748,
      "Ġjijjiirama": 3749,
      "Ġdhiigaa": 3750,
      "Ġobombol": 3751,
      "Ġsochii": 3752,
      "Ġdaawwachuu": 3753,
      "Ġcallis": 3754,
      "Ġdhiibbaa": 3755,
      "Dubartii": 3756,
      "Ġjennee": 3757,
      "Ġmallattoo": 3758,
      "Rifeensi": 3759,
      "Lammata": 3760,
      "Ġsuukaneessaa": 3761,
      "Dab": 3762,
      "Fa": 3763,
      "Jarreen": 3764,
      "Kuf": 3765,
      "as": 3766,
      "ĠWiixata": 3767,
      "Ġherre": 3768,
      "Ġkeekii": 3769,
      "Ġman": 3770,
      "Ġqabattee": 3771,
      "ooma": 3772,
      "Ġfokk": 3773,
      "ddeet": 3774,
      "aguu": 3775,
      "Ġfakkii": 3776,
      "alleen": 3777,
      "Hospitaala": 3778,
      "Ġdhiistee": 3779,
      "Dhugaadha": 3780,
      "oolfii": 3781,
      "Ġtaphata": 3782,
      "Ġtaphachuun": 3783,
      "Ġxumureera": 3784,
      "ariitii": 3785,
      "Ġguutameera": 3786,
      "Ġqajeel": 3787,
      "Barn": 3788,
      "Ġtokkottillee": 3789,
      "Ġargiteettaa": 3790,
      "Ġalagaa": 3791,
      "Ġajjeesuuf": 3792,
      "Ġkunuunsuu": 3793,
      "Ġdaldala": 3794,
      "Ġgammadde": 3795,
      "Ġ20": 3796,
      "Ġwanta": 3797,
      "Ġawwaal": 3798,
      "aayilii": 3799,
      "Ġxixiqqoo": 3800,
      "Teessoon": 3801,
      "Ala": 3802,
      "Dallaa": 3803,
      "Gatii": 3804,
      "Kir": 3805,
      "Karaan": 3806,
      "Mul": 3807,
      "Qaruuraa": 3808,
      "aw": 3809,
      "maat": 3810,
      "ous": 3811,
      "Ġ5": 3812,
      "ĠG": 3813,
      "Ġhad": 3814,
      "amiin": 3815,
      "Ġbaradhe": 3816,
      "Ġfar": 3817,
      "jjirri": 3818,
      "Ġwalxaxaa": 3819,
      "Yeroodhaan": 3820,
      "Ġdubbii": 3821,
      "Ġlamaa": 3822,
      "Ġdhibba": 3823,
      "Ġjaallachuu": 3824,
      "ukaat": 3825,
      "Ġrakkisuu": 3826,
      "atteetti": 3827,
      "Ġsham": 3828,
      "Ġboba": 3829,
      "Ġfayyadamu": 3830,
      "Ġdagadhu": 3831,
      "Ġeeggannoodhaan": 3832,
      "Ġsobduu": 3833,
      "Ġburuu": 3834,
      "Xiyyaarri": 3835,
      "Ġtarkaanfii": 3836,
      "diruu": 3837,
      "Ġliqimf": 3838,
      "Ġsakatta": 3839,
      "Ġhadoo": 3840,
      "Hayy": 3841,
      "Tarree": 3842,
      "mm": 3843,
      "rraa": 3844,
      "tota": 3845,
      "xe": 3846,
      "xee": 3847,
      "anaaf": 3848,
      "Ġkeenyaa": 3849,
      "Ġkiisha": 3850,
      "Ġqama": 3851,
      "atni": 3852,
      "Ġfaay": 3853,
      "Ġtureera": 3854,
      "Ġbarbaadeen": 3855,
      "ddoon": 3856,
      "Ġturetti": 3857,
      "Ġqabadhaa": 3858,
      "aasni": 3859,
      "Ġsibii": 3860,
      "Ġdubbadha": 3861,
      "Isp": 3862,
      "Ġsirbi": 3863,
      "Ġras": 3864,
      "Ġhaati": 3865,
      "Ġfudhadhe": 3866,
      "Guyyaatti": 3867,
      "Ġfiladhu": 3868,
      "Ġdhaqe": 3869,
      "Ġdhaqee": 3870,
      "Ġargitan": 3871,
      "Ġdhukkube": 3872,
      "Ġsuuqii": 3873,
      "Ġajjeesuu": 3874,
      "Ġlaf": 3875,
      "Ġciisee": 3876,
      "Ġgaraagarummaa": 3877,
      "jedheen": 3878,
      "Ġshubbisaa": 3879,
      "Ġlammii": 3880,
      "aarfannaa": 3881,
      "Waggoota": 3882,
      "Ollaa": 3883,
      "Sad": 3884,
      "juun": 3885,
      "innoo": 3886,
      "Ġsareen": 3887,
      "Ġqabatu": 3888,
      "atuu": 3889,
      "Ġbaranne": 3890,
      "eekiin": 3891,
      "tutti": 3892,
      "Ġeebb": 3893,
      "Ġeegne": 3894,
      "Ġeeguuf": 3895,
      "Ġdhuge": 3896,
      "Ġrafaa": 3897,
      "Ġdarban": 3898,
      "Ġshaak": 3899,
      "Ġhojjetamuu": 3900,
      "Ġkennitu": 3901,
      "Ġcufamee": 3902,
      "Ġgammachiise": 3903,
      "Ġcabee": 3904,
      "Ġaansee": 3905,
      "Doktora": 3906,
      "Dhaabbata": 3907,
      "Ġkireeff": 3908,
      "Ġbarreeffame": 3909,
      "chifne": 3910,
      "Jijjiirama": 3911,
      "Asoosama": 3912,
      "Ġmagariisa": 3913,
      "Dandeettii": 3914,
      "Buuf": 3915,
      "sanii": 3916,
      "ĠC": 3917,
      "Ġquf": 3918,
      "Ġsoogidda": 3919,
      "Ġqabaman": 3920,
      "Ġbarumsi": 3921,
      "Ġjiruuf": 3922,
      "Ġwarq": 3923,
      "Ġtura": 3924,
      "Ġabjoo": 3925,
      "Ġdhabdee": 3926,
      "Ġxumurre": 3927,
      "Ġbaasu": 3928,
      "Sirna": 3929,
      "Ġcufi": 3930,
      "Ġduukaa": 3931,
      "Ġtaaksii": 3932,
      "Ġguutuun": 3933,
      "ĠJoon": 3934,
      "Ġhojjennu": 3935,
      "Ġsanarra": 3936,
      "Dhukkubbiin": 3937,
      "Ġbittaaf": 3938,
      "pitara": 3939,
      "Adaraa": 3940,
      "Ġdibu": 3941,
      "Daandii": 3942,
      "Jaar": 3943,
      "Maash": 3944,
      "doo": 3945,
      "Ġoom": 3946,
      "eetti": 3947,
      "Ġkala": 3948,
      "Ġkonsartii": 3949,
      "Ġgaggeeff": 3950,
      "Ġmuuxannoo": 3951,
      "Ġbaratte": 3952,
      "Ġargatan": 3953,
      "Ġwalq": 3954,
      "laqaa": 3955,
      "Ġjedhanii": 3956,
      "Ġdeemnee": 3957,
      "Ġlall": 3958,
      "Ġdhuftan": 3959,
      "Ġdhuguuf": 3960,
      "Ġdursitee": 3961,
      "Ġilaali": 3962,
      "Ġdarbeera": 3963,
      "Ġrafee": 3964,
      "Ġdhaquuf": 3965,
      "Ġbishaanii": 3966,
      "Ġdhaabatee": 3967,
      "Ġjabina": 3968,
      "Boston": 3969,
      "Ġkunuunsa": 3970,
      "Ġdhukkubsattee": 3971,
      "ĠOrom": 3972,
      "Ġchee": 3973,
      "Dhaabbati": 3974,
      "Dhukkubni": 3975,
      "Ġkeenyaaf": 3976,
      "Tasgab": 3977,
      "Ġmilkoofne": 3978,
      "Ġburuushiin": 3979,
      "Ġhadoochu": 3980,
      "Ġqamadii": 3981,
      "Ġoomish": 3982,
      "Daabb": 3983,
      "Fun": 3984,
      "Fag": 3985,
      "Saf": 3986,
      "Waraanni": 3987,
      "duuf": 3988,
      "Ġmarga": 3989,
      "atamuu": 3990,
      "Ġbarame": 3991,
      "Ġkeetiif": 3992,
      "Ġsiq": 3993,
      "Ġgaraan": 3994,
      "Ġmaallaqaa": 3995,
      "Ġgalata": 3996,
      "Ġasoos": 3997,
      "Ġjalqabu": 3998,
      "Ġdhabde": 3999,
      "Hojiitti": 4000,
      "Ġolaanaa": 4001,
      "Ġkenneera": 4002,
      "Ġbitadheera": 4003,
      "Ġgurra": 4004,
      "Ġtolchuu": 4005,
      "Ġraadiyoo": 4006,
      "Ġdhaggeeffadhaa": 4007,
      "Ġbilcheessi": 4008,
      "Ġgadde": 4009,
      "Kootiin": 4010,
      "zex": 4011,
      "Ġwaraana": 4012,
      "Gamoon": 4013,
      "Ġdugda": 4014,
      "Aww": 4015,
      "Boor": 4016,
      "Heey": 4017,
      "Manneen": 4018,
      "Muuxannoo": 4019,
      "ji": 4020,
      "lof": 4021,
      "per": 4022,
      "ĠR": 4023,
      "Ġda": 4024,
      "Ġtarii": 4025,
      "Ġgannaa": 4026,
      "Ġqora": 4027,
      "Ġshee": 4028,
      "Ġbaratta": 4029,
      "Ġtajaaj": 4030,
      "Ġyaadi": 4031,
      "tanne": 4032,
      "Ġduraa": 4033,
      "Ġsaddeet": 4034,
      "Ġmeetira": 4035,
      "Ġdarbu": 4036,
      "Ġpil": 4037,
      "Ġxumuruuf": 4038,
      "Ġbaasuun": 4039,
      "Borsaan": 4040,
      "Ġyaadame": 4041,
      "Ġmudatu": 4042,
      "Kitaabonni": 4043,
      "Ġqulqulluudha": 4044,
      "Ġjibbisiis": 4045,
      "Ġrukutaa": 4046,
      "Ġkolleejjii": 4047,
      "Harkif": 4048,
      "Ġhiikuu": 4049,
      "Ġdhoksaa": 4050,
      "Ġsaffisaa": 4051,
      "Ġdulloomaa": 4052,
      "Ġtorbanitti": 4053,
      "Gaazexaa": 4054,
      "iixee": 4055,
      "Ġhantuu": 4056,
      "Ġbarnootaa": 4057,
      "Hogganaan": 4058,
      "Kompitara": 4059,
      "Ġsoorama": 4060,
      "ohin": 4061,
      "tistii": 4062,
      "Faay": 4063,
      "Riq": 4064,
      "Teenis": 4065,
      "gaaraa": 4066,
      "izii": 4067,
      "ive": 4068,
      "Ġkuuf": 4069,
      "Ġbalb": 4070,
      "Ġjii": 4071,
      "Ġsooressa": 4072,
      "Ġsukkaara": 4073,
      "Ġmannaa": 4074,
      "Ġdhiir": 4075,
      "Ġqabnaa": 4076,
      "Ġbaraan": 4077,
      "Ġbarattuu": 4078,
      "Ġturaa": 4079,
      "Ġbeekamaa": 4080,
      "Ġgog": 4081,
      "ofaa": 4082,
      "ooniin": 4083,
      "Ġfakkaachuu": 4084,
      "Ġhimtee": 4085,
      "Ġruuzii": 4086,
      "iftii": 4087,
      "Waajjirri": 4088,
      "Dhugumayyuu": 4089,
      "Ġhojiirraa": 4090,
      "Ġyaalin": 4091,
      "Ġxumuramuu": 4092,
      "Ġibsi": 4093,
      "Deebi": 4094,
      "Ġhubate": 4095,
      "Ġdadhabne": 4096,
      "Ġtolche": 4097,
      "Ġbarsiise": 4098,
      "iiloo": 4099,
      "maanni": 4100,
      "Ġaarii": 4101,
      "ĠAyyaana": 4102,
      "Ġfuruu": 4103,
      "Ġfiiguu": 4104,
      "urxummiin": 4105,
      "Ġdhukkubsatee": 4106,
      "Ġqunnamuu": 4107,
      "Ġifatti": 4108,
      "Ġbarreessa": 4109,
      "Anaaf": 4110,
      "Ġbanaadha": 4111,
      "Goww": 4112,
      "ixa": 4113,
      "Ġqophoofteettaa": 4114,
      "Ġlaafessa": 4115,
      "Ġodeeffannoo": 4116,
      "Ġfeete": 4117,
      "Akaakayyuun": 4118,
      "Mis": 4119,
      "Miirri": 4120,
      "ay": 4121,
      "muu": 4122,
      "ĠS": 4123,
      "aamaa": 4124,
      "Ġdambal": 4125,
      "aantii": 4126,
      "Ġqoon": 4127,
      "Ġdhimm": 4128,
      "Ġyakk": 4129,
      "iinii": 4130,
      "mail": 4131,
      "Ġhodh": 4132,
      "Ġargachaa": 4133,
      "Ġittisuu": 4134,
      "Ġxinnoo": 4135,
      "Ġhaw": 4136,
      "Ġsirritti": 4137,
      "Ġduree": 4138,
      "Ġjiraatin": 4139,
      "Ġamansiif": 4140,
      "Ġkadha": 4141,
      "oofaa": 4142,
      "Ġbilbilli": 4143,
      "Ġmadaa": 4144,
      "Ġdhabee": 4145,
      "Ġkennuuf": 4146,
      "Ġxumuruun": 4147,
      "Ġseena": 4148,
      "Ġbarreessu": 4149,
      "Ġboqon": 4150,
      "Ġdagadhe": 4151,
      "Ġbahe": 4152,
      "Ġooltummaa": 4153,
      "Miilli": 4154,
      "ĠdandaÊ¼aa": 4155,
      "Ġulfaate": 4156,
      "Ijoollummaa": 4157,
      "Ġhojjenna": 4158,
      "Dhukkubbii": 4159,
      "Ġuww": 4160,
      "Ġdhibne": 4161,
      "Sanaaf": 4162,
      "Suuraan": 4163,
      "Ġtaasise": 4164,
      "Ġsobe": 4165,
      "Ġyaabbachuu": 4166,
      "Hanqaaquu": 4167,
      "Ġmarsariitii": 4168,
      "Ġkaleessaa": 4169,
      "Ġdigd": 4170,
      "Waaqayy": 4171,
      "Adaa": 4172,
      "Baga": 4173,
      "Lag": 4174,
      "Quba": 4175,
      "War": 4176,
      "fame": 4177,
      "tootaa": 4178,
      "Ġham": 4179,
      "Ġjiidha": 4180,
      "Ġqon": 4181,
      "Ġqalama": 4182,
      "Ġqullaa": 4183,
      "Ġsamii": 4184,
      "Ġbarsiif": 4185,
      "baay": 4186,
      "Ġfakkaatuu": 4187,
      "Ġqabudha": 4188,
      "Ġdhufta": 4189,
      "Ġdhuga": 4190,
      "Ġgargaareera": 4191,
      "chiise": 4192,
      "shur": 4193,
      "Ġhojjetta": 4194,
      "Ġyaaddan": 4195,
      "Ġgodhin": 4196,
      "ĠMaariyaamitti": 4197,
      "Shor": 4198,
      "Ġrafne": 4199,
      "Ġqophiidha": 4200,
      "Ġbanuun": 4201,
      "Ġrifate": 4202,
      "Ilkaan": 4203,
      "Ġbeeysiboolii": 4204,
      "Ġerguu": 4205,
      "ĠAwurooppaa": 4206,
      "Ġkabaja": 4207,
      "Ġfalma": 4208,
      "Ġurjii": 4209,
      "Ġkonkolaachisummaa": 4210,
      "Ġjeequmsa": 4211,
      "onsar": 4212,
      "Loltoonni": 4213,
      "Ġtuul": 4214,
      "ojektii": 4215,
      "Ġsaaxil": 4216,
      "Obomboleettiin": 4217,
      "Ġbarumsichaa": 4218,
      "Bir": 4219,
      "Giif": 4220,
      "Saam": 4221,
      "ijii": 4222,
      "uw": 4223,
      "ĠWaan": 4224,
      "Ġdog": 4225,
      "Ġdhoo": 4226,
      "Ġbeekuuf": 4227,
      "Ġgalchaa": 4228,
      "Ġhubachuun": 4229,
      "Ġyaadannoo": 4230,
      "ccaa": 4231,
      "Ġsodaadhu": 4232,
      "Ġfufaa": 4233,
      "duraa": 4234,
      "Ġcimsitee": 4235,
      "Deemu": 4236,
      "Ġjaallatamaadha": 4237,
      "Ġgiddu": 4238,
      "Ġgaafatamaa": 4239,
      "Umm": 4240,
      "Ġmorma": 4241,
      "Ġcallisee": 4242,
      "Ġsodaattuu": 4243,
      "garummaan": 4244,
      "Ġqabsiise": 4245,
      "Barreeffama": 4246,
      "Ġjijjiire": 4247,
      "geree": 4248,
      "eellisaa": 4249,
      "rawattii": 4250,
      "Ġobomboleettii": 4251,
      "Fayyaa": 4252,
      "awaar": 4253,
      "Ġeebbif": 4254,
      "Ġdambali": 4255,
      "Ajaa": 4256,
      "arf": 4257,
      "tive": 4258,
      "Ġbaa": 4259,
      "Ġjaam": 4260,
      "chaaf": 4261,
      "Ġqabxii": 4262,
      "ilba": 4263,
      "agaan": 4264,
      "Ġarganna": 4265,
      "Ġcarraan": 4266,
      "Ġjedhamu": 4267,
      "Ġfakkaatti": 4268,
      "Dhuk": 4269,
      "Ġmichoota": 4270,
      "Ġguddoo": 4271,
      "Ġdubbatan": 4272,
      "Meerii": 4273,
      "Ġdhageesse": 4274,
      "chisee": 4275,
      "Ġbeekutti": 4276,
      "Ġhimee": 4277,
      "Ġeegalee": 4278,
      "ametti": 4279,
      "Ġgaafanne": 4280,
      "Ġgalan": 4281,
      "Dhugaan": 4282,
      "Ġilaalchisee": 4283,
      "Ġjaallatan": 4284,
      "Ġnyaannu": 4285,
      "Ġamantu": 4286,
      "Ġbitu": 4287,
      "Ġjalqabnu": 4288,
      "Farda": 4289,
      "Ġmiidhe": 4290,
      "Ġtaphadha": 4291,
      "Ġtaphachuuf": 4292,
      "Ġgahaadha": 4293,
      "Ġxumura": 4294,
      "Ġdubbisu": 4295,
      "Waliigaltee": 4296,
      "Ġhubattu": 4297,
      "aamil": 4298,
      "Ġliqeesse": 4299,
      "Ġkaasaa": 4300,
      "Ġjibbu": 4301,
      "Ġdhaladhe": 4302,
      "Ġcarraaqqii": 4303,
      "Ġxuuxuun": 4304,
      "Ġafuuf": 4305,
      "Jaalalleen": 4306,
      "Ġhaasofsiis": 4307,
      "Ġkolfe": 4308,
      "Ġdhaamsuu": 4309,
      "Ġajaje": 4310,
      "Ġdhungachuu": 4311,
      "Gurbaa": 4312,
      "Ġdhuunf": 4313,
      "birroo": 4314,
      "Ġsodaachisaa": 4315,
      "Ġfuudhuuf": 4316,
      "Kaayyoo": 4317,
      "Ġsuukaneessaadha": 4318,
      "Ġfeetan": 4319,
      "Ibidda": 4320,
      "Mirkan": 4321,
      "Ġsiyaasaa": 4322,
      "Ġfokkisaa": 4323,
      "ukaatoo": 4324,
      "Tasgabbaa": 4325,
      "Teenisiin": 4326,
      "Waraana": 4327,
      "koolii": 4328,
      "sk": 4329,
      "tara": 4330,
      "xaba": 4331,
      "ootti": 4332,
      "Ġhaguu": 4333,
      "Ġkrawattii": 4334,
      "ari": 4335,
      "ineerra": 4336,
      "amti": 4337,
      "Ġmata": 4338,
      "Ġdho": 4339,
      "eessine": 4340,
      "Ġwarri": 4341,
      "Ġbeekte": 4342,
      "Ġargata": 4343,
      "Ġjedhi": 4344,
      "Ġhimeera": 4345,
      "Ġdursa": 4346,
      "Ġilaalcha": 4347,
      "Ġjalqabeera": 4348,
      "Ġbarbaaddi": 4349,
      "ooftaa": 4350,
      "Ġisaaniitti": 4351,
      "Ġdhabne": 4352,
      "Ġduras": 4353,
      "Ġfudhatama": 4354,
      "Ġguutame": 4355,
      "Ġdhume": 4356,
      "Ġgabaasa": 4357,
      "ĠdhagaÊ¼ama": 4358,
      "ĠIngiliff": 4359,
      "Ġinjifate": 4360,
      "taniittu": 4361,
      "Gammachuun": 4362,
      "Ġakeek": 4363,
      "Waxaba": 4364,
      "Koochoo": 4365,
      "Garaagarummaan": 4366,
      "Ġtarkaanf": 4367,
      "Ġsarara": 4368,
      "Fiigicha": 4369,
      "ilbata": 4370,
      "Ġwarqee": 4371,
      "Kon": 4372,
      "riif": 4373,
      "ĠAni": 4374,
      "ĠYoo": 4375,
      "Ġ30": 4376,
      "Ġhaar": 4377,
      "Ġhatame": 4378,
      "Ġkiyy": 4379,
      "Ġqabe": 4380,
      "atamaa": 4381,
      "Ġfaal": 4382,
      "Ġfanni": 4383,
      "aateera": 4384,
      "Ġlamaaf": 4385,
      "Ġdhufuuf": 4386,
      "Ġeegdu": 4387,
      "Ġgalmaan": 4388,
      "Ġilaalamu": 4389,
      "Ġgargaare": 4390,
      "Ġjaallanna": 4391,
      "bilii": 4392,
      "Ġbittaa": 4393,
      "ĠMeeriitti": 4394,
      "Ġdhaba": 4395,
      "Ġfudhattu": 4396,
      "Ġyaalne": 4397,
      "Ġgahumsa": 4398,
      "Ġkenname": 4399,
      "Ġseente": 4400,
      "Ġhubatu": 4401,
      "Ġeenyullee": 4402,
      "Ġfilachuu": 4403,
      "Ġkaasuu": 4404,
      "Abjuun": 4405,
      "lek": 4406,
      "Ġdhalatte": 4407,
      "Ġraawwate": 4408,
      "Ġgaabba": 4409,
      "Ġgorse": 4410,
      "Ġajjees": 4411,
      "Ġbaafadhu": 4412,
      "Ġsodaata": 4413,
      "Jechi": 4414,
      "Ġhaasofne": 4415,
      "Suur": 4416,
      "Ġkolfuu": 4417,
      "Ġguddif": 4418,
      "Ġguddachaa": 4419,
      "Ġgaddisiisaa": 4420,
      "Obsa": 4421,
      "Ġbaqate": 4422,
      "Mobaay": 4423,
      "eeyyii": 4424,
      "Ġhiyyeessa": 4425,
      "Lubbuun": 4426,
      "Ġfiigaa": 4427,
      "Ġshamizii": 4428,
      "Hayyama": 4429,
      "Ġasoosama": 4430,
      "Ġdogong": 4431,
      "Di": 4432,
      "Hat": 4433,
      "Paar": 4434,
      "Paas": 4435,
      "Tom": 4436,
      "qe": 4437,
      "tni": 4438,
      "Ġaanaa": 4439,
      "Ġquu": 4440,
      "Ġbaradha": 4441,
      "oomi": 4442,
      "Dhagaa": 4443,
      "Dhaggeeff": 4444,
      "Ġbarbaachise": 4445,
      "Ġgalch": 4446,
      "Ġkeessattin": 4447,
      "Ġnuts": 4448,
      "Ġjalqabuuf": 4449,
      "Ġkutuu": 4450,
      "Ġhiriy": 4451,
      "Ġyaaleen": 4452,
      "Ġyaaltu": 4453,
      "Ġibsu": 4454,
      "Ġseenin": 4455,
      "Ġyaaddessa": 4456,
      "Ġhawwat": 4457,
      "Ġsodaadheera": 4458,
      "BaayÊ¼ee": 4459,
      "Ġdhalate": 4460,
      "Deemuuf": 4461,
      "Ġbeellama": 4462,
      "Ġgurgurtaa": 4463,
      "Ġdiriir": 4464,
      "Ġgeessan": 4465,
      "Filannoon": 4466,
      "Ġajaja": 4467,
      "Ġjechoota": 4468,
      "Ġinter": 4469,
      "Ġhammamii": 4470,
      "Oduun": 4471,
      "Ġsaanii": 4472,
      "Qabxii": 4473,
      "Ġnuffisiisa": 4474,
      "Lafti": 4475,
      "Barruu": 4476,
      "Kolleejjii": 4477,
      "Ġpoostaadhaan": 4478,
      "iriimii": 4479,
      "Gaarii": 4480,
      "Ġjaha": 4481,
      "ĠOromoo": 4482,
      "Adaadaan": 4483,
      "shuraansii": 4484,
      "Fir": 4485,
      "Ijj": 4486,
      "Qurxummiin": 4487,
      "el": 4488,
      "ĠHin": 4489,
      "Ġkur": 4490,
      "Ġkaraan": 4491,
      "ameef": 4492,
      "Ġtaatu": 4493,
      "Ġtelevijiinii": 4494,
      "Ġgeessuu": 4495,
      "Ġgoolfii": 4496,
      "aannis": 4497,
      "Ġakaakayy": 4498,
      "Ġsaayin": 4499,
      "Ġqabamuu": 4500,
      "Ġqabamtee": 4501,
      "Ġbaratamne": 4502,
      "Toomitti": 4503,
      "Ġiskii": 4504,
      "Ġbarbaachifne": 4505,
      "tukaana": 4506,
      "immi": 4507,
      "lloo": 4508,
      "alaqq": 4509,
      "Amalli": 4510,
      "Ġdandeessee": 4511,
      "Ġgalma": 4512,
      "Ġsirraa": 4513,
      "Ġjaallanne": 4514,
      "Ġamane": 4515,
      "Ġbitanne": 4516,
      "Ġshamarran": 4517,
      "Ġeessayyuu": 4518,
      "Ġhojjetamu": 4519,
      "Ġdubbiseera": 4520,
      "Ġdubbisuuf": 4521,
      "Walaloo": 4522,
      "Ġkennitaniif": 4523,
      "Ġhafu": 4524,
      "Ġkaffalu": 4525,
      "Ġkaasi": 4526,
      "Ġciisuu": 4527,
      "Ġmuraasni": 4528,
      "aaqanaaf": 4529,
      "Kanaafuu": 4530,
      "Ġtaasif": 4531,
      "Ġoofaa": 4532,
      "Ġmurteesseen": 4533,
      "Ġadeera": 4534,
      "eekkachiif": 4535,
      "Ġdibe": 4536,
      "Ġgalateeffadha": 4537,
      "Ġwaggaan": 4538,
      "Ġxiyyaaraatti": 4539,
      "Ġoolle": 4540,
      "ilabii": 4541,
      "Ġonnee": 4542,
      "Dhaabbatichi": 4543,
      "Waaqayyo": 4544,
      "Ijji": 4545,
      "Fayy": 4546,
      "Herre": 4547,
      "Qarqara": 4548,
      "Raf": 4549,
      "Sagantaa": 4550,
      "famee": 4551,
      "ut": 4552,
      "wiit": 4553,
      "xiin": 4554,
      "yla": 4555,
      "andh": 4556,
      "andan": 4557,
      "Ġtaata": 4558,
      "dhim": 4559,
      "eessaan": 4560,
      "Ġqabneef": 4561,
      "unaa": 4562,
      "Ġargitaa": 4563,
      "Ġargattan": 4564,
      "Ġwaliigaltee": 4565,
      "Dhiir": 4566,
      "Ġmaallaq": 4567,
      "Ġqofaaf": 4568,
      "Ġsirr": 4569,
      "Ġgammadaa": 4570,
      "Ġdhiisuuf": 4571,
      "Ġamansiisuu": 4572,
      "Ġguutee": 4573,
      "ĠMeeriif": 4574,
      "Ġmiiccaa": 4575,
      "Ġqabaadhaa": 4576,
      "ommuu": 4577,
      "Ġdubbisa": 4578,
      "Ġbaasuuf": 4579,
      "Ġgodhame": 4580,
      "Ġtolch": 4581,
      "ĠtaÊ¼u": 4582,
      "iileen": 4583,
      "ĠJarm": 4584,
      "Barbaa": 4585,
      "Ġaartii": 4586,
      "Gargaaruuf": 4587,
      "Ġgaazexaa": 4588,
      "Ġmootummaa": 4589,
      "Ġdhiqachuu": 4590,
      "Meeshaan": 4591,
      "Ġsirbu": 4592,
      "Ifatti": 4593,
      "Ġjiraatan": 4594,
      "Kootii": 4595,
      "Ġiyye": 4596,
      "Haww": 4597,
      "Ġqux": 4598,
      "Ġummata": 4599,
      "Keessattuu": 4600,
      "Ġhirmaachuu": 4601,
      "Buufatni": 4602,
      "Ġlallaaf": 4603,
      "Ajj": 4604,
      "Baree": 4605,
      "Dug": 4606,
      "Iddoo": 4607,
      "Piyaanoo": 4608,
      "ick": 4609,
      "zinaa": 4610,
      "Ġ3": 4611,
      "ĠSi": 4612,
      "Ġkaatee": 4613,
      "Ġgamm": 4614,
      "Ġjilb": 4615,
      "Ġbarate": 4616,
      "nikii": 4617,
      "Ġyommuu": 4618,
      "Ġnaive": 4619,
      "Ġkeelloo": 4620,
      "Ġlakki": 4621,
      "Ġhimame": 4622,
      "Ġeegeen": 4623,
      "qaq": 4624,
      "Ġgaafatan": 4625,
      "Kunis": 4626,
      "Ġsirnaan": 4627,
      "Ġnyaadhee": 4628,
      "Ġfudhatinaa": 4629,
      "Ġdubbisteettaa": 4630,
      "Ġgurmaa": 4631,
      "iilaan": 4632,
      "Qorichi": 4633,
      "neetii": 4634,
      "Ġemail": 4635,
      "Gargaarsi": 4636,
      "Ġnyaatan": 4637,
      "ddunyaan": 4638,
      "Boqo": 4639,
      "Torbanitti": 4640,
      "Ġmiidhamne": 4641,
      "Ġharkifate": 4642,
      "Ġjiraattu": 4643,
      "Ġsaawwan": 4644,
      "Ġbineensota": 4645,
      "Daldala": 4646,
      "Urgaa": 4647,
      "varsiitii": 4648,
      "Ġhantuuta": 4649,
      "wiiterii": 4650,
      "Cirra": 4651,
      "Kuk": 4652,
      "Moo": 4653,
      "Saayin": 4654,
      "Til": 4655,
      "Tarkaan": 4656,
      "buu": 4657,
      "ow": 4658,
      "uuni": 4659,
      "arjii": 4660,
      "ineensa": 4661,
      "Ġganna": 4662,
      "Ġbarii": 4663,
      "Ġwaraa": 4664,
      "Ġisk": 4665,
      "Ġispoortii": 4666,
      "eraa": 4667,
      "Ġhoteela": 4668,
      "Ġdeemti": 4669,
      "ent": 4670,
      "Ġdubbanna": 4671,
      "Ġdandeesse": 4672,
      "Ġdhugoom": 4673,
      "Ġdhiisinaa": 4674,
      "Ġrafa": 4675,
      "Ġjetta": 4676,
      "ukkeen": 4677,
      "Ġbilbiluun": 4678,
      "Ġdhabeera": 4679,
      "Ġeenyuuf": 4680,
      "Ġuffattu": 4681,
      "Ġhubattee": 4682,
      "Ġyaaddof": 4683,
      "Ġboh": 4684,
      "Ġfedhiin": 4685,
      "Ġdabarsine": 4686,
      "iigni": 4687,
      "Ġmudata": 4688,
      "Ġqulqulleessi": 4689,
      "Ġdhaabbata": 4690,
      "Ġkolfa": 4691,
      "ĠgaaÊ¼e": 4692,
      "Boqon": 4693,
      "Ġhiike": 4694,
      "Ġgurguruu": 4695,
      "Ġsaffisa": 4696,
      "Ġdhiphina": 4697,
      "Ġkudhanitti": 4698,
      "Ġboonuu": 4699,
      "Meeshaalee": 4700,
      "Qorqorroon": 4701,
      "Ġkirk": 4702,
      "Ġkabajuuf": 4703,
      "Dhiyeessii": 4704,
      "Dhukaasa": 4705,
      "Waxabajjii": 4706,
      "Hatattamaan": 4707,
      "Dugda": 4708,
      "Aja": 4709,
      "Cidha": 4710,
      "Gi": 4711,
      "Gan": 4712,
      "Leen": 4713,
      "Muuziyee": 4714,
      "Yakka": 4715,
      "saaf": 4716,
      "sarii": 4717,
      "ĠE": 4718,
      "ĠYeroo": 4719,
      "Ġor": 4720,
      "oojii": 4721,
      "Ġdiina": 4722,
      "Ġkiiloo": 4723,
      "ariin": 4724,
      "arvii": 4725,
      "Ġbakki": 4726,
      "amanii": 4727,
      "amtoonni": 4728,
      "Ġqaane": 4729,
      "abaa": 4730,
      "Ġmanni": 4731,
      "Ġjirraa": 4732,
      "ummii": 4733,
      "eenyu": 4734,
      "Ġwaliig": 4735,
      "Akkanatti": 4736,
      "Ġkunneen": 4737,
      "Ġdhufee": 4738,
      "Ġgaafachaa": 4739,
      "Ġgaltu": 4740,
      "Ġguddaadhaan": 4741,
      "Ġjalqabde": 4742,
      "Ġxiqqaan": 4743,
      "Gudd": 4744,
      "Ġqorannoo": 4745,
      "Ġfudhatte": 4746,
      "Ġfayya": 4747,
      "Ġhafan": 4748,
      "Ġegeree": 4749,
      "aatin": 4750,
      "Ġdhaabe": 4751,
      "Ġdhaabbachuu": 4752,
      "Ġdhaabbati": 4753,
      "Ġfurmaata": 4754,
      "Ġjaalladhudha": 4755,
      "Galat": 4756,
      "Harki": 4757,
      "Ġhaasoftu": 4758,
      "Sodaa": 4759,
      "Ġfuulduraa": 4760,
      "Ġguddina": 4761,
      "Ġshubbisuu": 4762,
      "Ġnagaan": 4763,
      "Ġchokol": 4764,
      "oogii": 4765,
      "Qajeel": 4766,
      "Kompiit": 4767,
      "Dubartoonni": 4768,
      "Ġamansiisuuf": 4769,
      "Ġhatattamaan": 4770,
      "Raadiyoo": 4771,
      "ĠbaayÊ¼een": 4772,
      "Ġkottaa": 4773,
      "Ġmukaa": 4774,
      "Jeequmsa": 4775,
      "Ġmanca": 4776,
      "Ġqufa": 4777,
      "Ġcheezii": 4778,
      "Ġsheel": 4779,
      "Ġuwwif": 4780,
      "onsartiin": 4781,
      "Ġhaarom": 4782,
      "Barbaachis": 4783,
      "Ġjilbeen": 4784,
      "qaqsanii": 4785,
      "Tilmaa": 4786,
      "Ġqaaness": 4787,
      "Ġchokoleetii": 4788,
      "Diin": 4789,
      "Halluu": 4790,
      "Otoobis": 4791,
      "Sooressa": 4792,
      "micha": 4793,
      "zz": 4794,
      "Ġ6": 4795,
      "Ġhuba": 4796,
      "Ġbadh": 4797,
      "Ġgib": 4798,
      "Ġsaayi": 4799,
      "Ġmanneen": 4800,
      "Ġmuuziyee": 4801,
      "Ġbaradhu": 4802,
      "ers": 4803,
      "Ġkoobilii": 4804,
      "agdee": 4805,
      "Ġkanas": 4806,
      "Ġwalakk": 4807,
      "Ġwaldaa": 4808,
      "orri": 4809,
      "Ġirrattis": 4810,
      "Ġhaxaa": 4811,
      "Ġdureessa": 4812,
      "Ġragaa": 4813,
      "Ġbirraa": 4814,
      "Ġjaallatte": 4815,
      "Ġbilbilu": 4816,
      "Ġollaa": 4817,
      "Ġboqqolloo": 4818,
      "Ġkamiif": 4819,
      "Ġfuudhe": 4820,
      "Ġduute": 4821,
      "Ġdhihaate": 4822,
      "Ġelek": 4823,
      "Ġqajee": 4824,
      "Ġrukutuu": 4825,
      "Ġaarsa": 4826,
      "Ġfuruuf": 4827,
      "Ġnyaatte": 4828,
      "Galata": 4829,
      "Ġbalaadhaaf": 4830,
      "Ġsodaate": 4831,
      "Ġdhiqannaa": 4832,
      "Ġbeelof": 4833,
      "Mas": 4834,
      "Ġgadhiise": 4835,
      "Ġdhaamsaa": 4836,
      "Ġdulloomeera": 4837,
      "Ġsirratti": 4838,
      "Ġhammaataa": 4839,
      "Daraaraan": 4840,
      "Ġqisaasess": 4841,
      "Dubartiin": 4842,
      "Ġijoolleen": 4843,
      "uggu": 4844,
      "Konkolaachisaa": 4845,
      "ĠLandan": 4846,
      "Pirezidaan": 4847,
      "Falmii": 4848,
      "Taaksii": 4849,
      "Ġkuufamaa": 4850,
      "Lagni": 4851,
      "Ġbohaartii": 4852,
      "Ġjilbeenf": 4853,
      "Bur": 4854,
      "Faayidaa": 4855,
      "Faarfannaa": 4856,
      "Hii": 4857,
      "Iyy": 4858,
      "Jaakk": 4859,
      "Machaa": 4860,
      "Qo": 4861,
      "Qulqull": 4862,
      "Soogidda": 4863,
      "dina": 4864,
      "egg": 4865,
      "ic": 4866,
      "luu": 4867,
      "rk": 4868,
      "ver": 4869,
      "tion": 4870,
      "tiri": 4871,
      "amtuu": 4872,
      "Ġdhandh": 4873,
      "Ġqabsaa": 4874,
      "ateef": 4875,
      "Dhohin": 4876,
      "Isk": 4877,
      "Ê¼aatii": 4878,
      "Ġdhufuun": 4879,
      "Atis": 4880,
      "Ġsirna": 4881,
      "Sunis": 4882,
      "Ġilaaltu": 4883,
      "Ġmuraa": 4884,
      "ummaadha": 4885,
      "Ġjiraachuuf": 4886,
      "Ġbidiruu": 4887,
      "ubbaan": 4888,
      "Ġpoolii": 4889,
      "Ġeenyuun": 4890,
      "Ġibse": 4891,
      "Ġdhukkubbiin": 4892,
      "Ġjijjiiru": 4893,
      "Ġkaffale": 4894,
      "Ġkaffaluun": 4895,
      "Ġtorba": 4896,
      "Ġgalatoomi": 4897,
      "Ġraawwatame": 4898,
      "ĠdhagaÊ¼amaa": 4899,
      "Doktara": 4900,
      "Ġqaxxaamuraa": 4901,
      "Ġqabaattu": 4902,
      "Ġciniiname": 4903,
      "Dubartoota": 4904,
      "Yaaluun": 4905,
      "Ibsa": 4906,
      "Ibiddi": 4907,
      "Ġdegg": 4908,
      "Ġmadaal": 4909,
      "Eeguu": 4910,
      "Ġdabarsaa": 4911,
      "Ġqubee": 4912,
      "Ġfunyoo": 4913,
      "Ġleenj": 4914,
      "Hojjettoonni": 4915,
      "Bakk": 4916,
      "Baasii": 4917,
      "Bunni": 4918,
      "Daree": 4919,
      "Gamoo": 4920,
      "Konsartiin": 4921,
      "Kubbaan": 4922,
      "Lola": 4923,
      "Mor": 4924,
      "wa": 4925,
      "Ġaa": 4926,
      "aap": 4927,
      "iitii": 4928,
      "Ġdiig": 4929,
      "Ġkor": 4930,
      "dhab": 4931,
      "Ġdheeb": 4932,
      "aaliyaan": 4933,
      "ddeen": 4934,
      "Ġtokkicha": 4935,
      "umaaf": 4936,
      "Ġhotee": 4937,
      "Ġgaariidhaa": 4938,
      "Ê¼u": 4939,
      "ogaa": 4940,
      "Ġfidu": 4941,
      "Ġgalg": 4942,
      "Ġisiniin": 4943,
      "Ġilaall": 4944,
      "sif": 4945,
      "oolee": 4946,
      "Ġamanee": 4947,
      "Ġamantii": 4948,
      "Ġdarba": 4949,
      "Ġsada": 4950,
      "Ġhirmaat": 4951,
      "Ġbilbilte": 4952,
      "Ġbilbilame": 4953,
      "Ġmaqaan": 4954,
      "Ġrakkachaa": 4955,
      "Ġhojjette": 4956,
      "Ġhafne": 4957,
      "Ġhedduutu": 4958,
      "Ġaarte": 4959,
      "Ġdheeraan": 4960,
      "Ġdheeratta": 4961,
      "Ġgabaab": 4962,
      "Ġhaasaa": 4963,
      "Ġsodaatu": 4964,
      "unnamtii": 4965,
      "Ġgadhee": 4966,
      "uuziqaan": 4967,
      "Hiriyyaa": 4968,
      "Ġtaasiseera": 4969,
      "Ġkonkolaat": 4970,
      "Aduun": 4971,
      "Ġcallise": 4972,
      "Ġfagaachuu": 4973,
      "Ġaduun": 4974,
      "Murtee": 4975,
      "Ġbarreessite": 4976,
      "000": 4977,
      "Ġdhiibe": 4978,
      "Ġfagoodha": 4979,
      "Ġbashannana": 4980,
      "Ġrukutte": 4981,
      "Ġrukutame": 4982,
      "Ġjennu": 4983,
      "Ġdhiifte": 4984,
      "Ġdhiiftu": 4985,
      "Ġgalateeffachuu": 4986,
      "jjabbii": 4987,
      "Ġcaccabee": 4988,
      "Ġdeddee": 4989,
      "Ġeegaleera": 4990,
      "Salphaa": 4991,
      "Ġbineensotaa": 4992,
      "Bittaa": 4993,
      "Badii": 4994,
      "iyoona": 4995,
      "Ispeen": 4996,
      "Ġdogongora": 4997,
      "Dhiironni": 4998,
      "ĠJarmanii": 4999,
      "Bah": 5000,
      "Biqil": 5001,
      "Dorgom": 5002,
      "Gama": 5003,
      "Qub": 5004,
      "ip": 5005,
      "reen": 5006,
      "iidiyoo": 5007,
      "amin": 5008,
      "Ġgegg": 5009,
      "Ġmindaa": 5010,
      "urra": 5011,
      "eengoo": 5012,
      "Ġweellisaa": 5013,
      "Ġbeektan": 5014,
      "Ġhojj": 5015,
      "Ġqabachuun": 5016,
      "imaata": 5017,
      "Ġammoo": 5018,
      "Ġyaadachiisa": 5019,
      "Ġgammaduu": 5020,
      "Ġragg": 5021,
      "Ġbilisaan": 5022,
      "Ġring": 5023,
      "Ġjiraadhu": 5024,
      "situ": 5025,
      "Ġjalqabee": 5026,
      "Ġjaalladhe": 5027,
      "Ġtaphataa": 5028,
      "Ġxumure": 5029,
      "Ġxumurteettaa": 5030,
      "Ġhubatte": 5031,
      "Ġbut": 5032,
      "Ġgodhee": 5033,
      "Ġfayyadamaa": 5034,
      "Ġbarsiisaadha": 5035,
      "Ġdabaluu": 5036,
      "Ġjijjiiruun": 5037,
      "Qorannoon": 5038,
      "Ġaaree": 5039,
      "Ġraawwachuu": 5040,
      "Ġnyaattee": 5041,
      "Deemtee": 5042,
      "Bosona": 5043,
      "Jaalalli": 5044,
      "Ġdidde": 5045,
      "Ġdhumaatti": 5046,
      "Ġdhukkubsate": 5047,
      "Suuqii": 5048,
      "Ġqunnamtii": 5049,
      "Ġuumamaa": 5050,
      "Meeshaaleen": 5051,
      "Kaartaa": 5052,
      "Ġbeeksisa": 5053,
      "Ġkeenyaan": 5054,
      "Ġqusachuu": 5055,
      "Ġbitaatti": 5056,
      "Ġheerumte": 5057,
      "Salphaatti": 5058,
      "Keessumm": 5059,
      "Ġgurguddoo": 5060,
      "Ġdeeggar": 5061,
      "Shubbisuu": 5062,
      "Ġbattaluma": 5063,
      "Maashiniin": 5064,
      "Daabboo": 5065,
      "Riqichi": 5066,
      "Ġyakkamaa": 5067,
      "Ġaadaa": 5068,
      "Ġraggaas": 5069,
      "Ag": 5070,
      "Kaba": 5071,
      "Muk": 5072,
      "Paarkii": 5073,
      "Ragaa": 5074,
      "Xaaliyaan": 5075,
      "Yuuni": 5076,
      "elaa": 5077,
      "itee": 5078,
      "Ġdaan": 5079,
      "ind": 5080,
      "amneerra": 5081,
      "Ġjaamaa": 5082,
      "Ġjilba": 5083,
      "Ġyoon": 5084,
      "Ġkeessumm": 5085,
      "Ġqabadhee": 5086,
      "aasti": 5087,
      "Ġgarba": 5088,
      "Ġdubbif": 5089,
      "Ġdubbatti": 5090,
      "Ġicc": 5091,
      "Ġdeebisaa": 5092,
      "Ġgaafata": 5093,
      "Ġgalm": 5094,
      "Ġdhuguun": 5095,
      "alaatti": 5096,
      "Ġsobaa": 5097,
      "Ġreeb": 5098,
      "siyoon": 5099,
      "Ġjaallate": 5100,
      "Ġabd": 5101,
      "Ġjalqaban": 5102,
      "Ġjalqabne": 5103,
      "Ġguututti": 5104,
      "Ġhaadda": 5105,
      "ĠFaransaayitti": 5106,
      "Ġshawaar": 5107,
      "Ġfudhatan": 5108,
      "Ġhojjettan": 5109,
      "Walumaa": 5110,
      "Ġbutton": 5111,
      "Ġdadhabuun": 5112,
      "Ġguyyaatti": 5113,
      "Ġhafuu": 5114,
      "ĠtaÊ¼a": 5115,
      "ĠtaÊ¼an": 5116,
      "Ġmurteessi": 5117,
      "Ġmurteessite": 5118,
      "Ġduune": 5119,
      "Ġulee": 5120,
      "Ġgammadan": 5121,
      "Ġrafu": 5122,
      "Ġcabsee": 5123,
      "Ġdhaabbattee": 5124,
      "Ġjabaadha": 5125,
      "Ġcimsee": 5126,
      "Ġxiyyaara": 5127,
      "Ġciise": 5128,
      "Ġbitte": 5129,
      "Ġdeebisuuf": 5130,
      "iknikii": 5131,
      "Ġbarruu": 5132,
      "Ġbule": 5133,
      "Ġkofalchiisudha": 5134,
      "Ġsirreessaa": 5135,
      "Ġbashannan": 5136,
      "Ġqabaattan": 5137,
      "Ġmaraattee": 5138,
      "Kolf": 5139,
      "Hantuu": 5140,
      "Nageenya": 5141,
      "Ogeessa": 5142,
      "Ġdhorke": 5143,
      "Asoosamni": 5144,
      "Taajjabbii": 5145,
      "Ġhinaaffaa": 5146,
      "aawun": 5147,
      "aangu": 5148,
      "Dirqama": 5149,
      "Barnoota": 5150,
      "Ġrasaasaan": 5151,
      "Ġlallaafaa": 5152,
      "Kukii": 5153,
      "Tarkaanfii": 5154,
      "Kompiitarri": 5155,
      "Bineens": 5156,
      "Kor": 5157,
      "Mata": 5158,
      "Maamil": 5159,
      "Ras": 5160,
      "ge": 5161,
      "seera": 5162,
      "ttee": 5163,
      "Ġ4": 5164,
      "Ġ8": 5165,
      "Ġchaa": 5166,
      "eel": 5167,
      "Ġbaga": 5168,
      "Ġtoo": 5169,
      "Ġgee": 5170,
      "Ġgeessa": 5171,
      "aansoo": 5172,
      "Ġqara": 5173,
      "Ġsagantaa": 5174,
      "Ġmaayilii": 5175,
      "Ġqabuun": 5176,
      "uni": 5177,
      "Ġjireenyi": 5178,
      "Ġfann": 5179,
      "Ġbeekti": 5180,
      "Ġbeekuun": 5181,
      "Ġgogg": 5182,
      "Ispoortii": 5183,
      "Ġgaleera": 5184,
      "Ġmanatti": 5185,
      "Ġdhugaan": 5186,
      "Ġilaalan": 5187,
      "Ġjiraatti": 5188,
      "Ġdarbaa": 5189,
      "Ġkuduraalee": 5190,
      "Ġmiidhu": 5191,
      "Ġtaphaa": 5192,
      "Ġbilbille": 5193,
      "Ġharkisee": 5194,
      "Ġkennan": 5195,
      "Ġkanaati": 5196,
      "attuun": 5197,
      "Ġdadhabdee": 5198,
      "Sirbi": 5199,
      "Ġyaaduun": 5200,
      "Ġkaffaltiin": 5201,
      "Ġfufa": 5202,
      "Ġkaastee": 5203,
      "Ġdhufutti": 5204,
      "Ġraawwadhu": 5205,
      "Ġdheerata": 5206,
      "Ġajjeechaa": 5207,
      "Dafnee": 5208,
      "Ġup": 5209,
      "Bilbilaan": 5210,
      "Ġkaroorfadheera": 5211,
      "Ġqunnama": 5212,
      "aakee": 5213,
      "Booston": 5214,
      "Ġdhaamse": 5215,
      "Ġfuulduraatti": 5216,
      "Ġsirreessuuf": 5217,
      "Ġguddadhe": 5218,
      "Ġgoona": 5219,
      "Otobusiidhaan": 5220,
      "Ġkitaabicha": 5221,
      "Jijjiiramni": 5222,
      "Ġheerumne": 5223,
      "Baankii": 5224,
      "Simbirroonni": 5225,
      "Jaarsi": 5226,
      "Ġdhuunfaatti": 5227,
      "Mobaayila": 5228,
      "Ġinterneetii": 5229,
      "Ġsheelfii": 5230,
      "Agarsiis": 5231,
      "Mukti": 5232,
      "Damma": 5233,
      "Dooniin": 5234,
      "Konsartii": 5235,
      "Nyaa": 5236,
      "Ollaan": 5237,
      "Qon": 5238,
      "omaa": 5239,
      "pii": 5240,
      "yii": 5241,
      "ootaan": 5242,
      "ard": 5243,
      "Ġbana": 5244,
      "Ġbubb": 5245,
      "iraaf": 5246,
      "abal": 5247,
      "Ġdhadhaa": 5248,
      "aalii": 5249,
      "Ġjirr": 5250,
      "aatte": 5251,
      "Ġyuni": 5252,
      "aarama": 5253,
      "Ġjechuuf": 5254,
      "Ġcina": 5255,
      "Ġmidhaan": 5256,
      "Ġqofaan": 5257,
      "Inshuraansii": 5258,
      "Ġisheeti": 5259,
      "Ġdhugne": 5260,
      "atudha": 5261,
      "Ġguddaatti": 5262,
      "ulfii": 5263,
      "Ġbiraatiin": 5264,
      "Ġgargaarre": 5265,
      "Ġanga": 5266,
      "ĠsaÊ¼aatii": 5267,
      "Hunda": 5268,
      "Ġbilbilaan": 5269,
      "Ġnyaadheera": 5270,
      "Ġrakkadheera": 5271,
      "Ġsirriidhaa": 5272,
      "Ġpiknikii": 5273,
      "Ġsadan": 5274,
      "Ġkaadhim": 5275,
      "Ġyaadde": 5276,
      "Ġyaaddess": 5277,
      "Ġbobba": 5278,
      "Ġdadhabbiin": 5279,
      "Ġfayyadame": 5280,
      "Ġfageenya": 5281,
      "Ġmararf": 5282,
      "Ġjedhetti": 5283,
      "Ġdinqisiis": 5284,
      "Ġalkoolii": 5285,
      "galatti": 5286,
      "Ġdeebisi": 5287,
      "Ġdeebisu": 5288,
      "Ġargamtu": 5289,
      "Ġqunnamaa": 5290,
      "Ġqunnamu": 5291,
      "Ġkonkolaataan": 5292,
      "achiisaa": 5293,
      "Ġduraanuu": 5294,
      "Ġgootaniif": 5295,
      "Ġdabarsitu": 5296,
      "Ġdhukaas": 5297,
      "Guutumaan": 5298,
      "Beela": 5299,
      "Ġafeeramne": 5300,
      "Lammiileen": 5301,
      "Gaarummaa": 5302,
      "Barreessaan": 5303,
      "Mootummaan": 5304,
      "Ġdabarsa": 5305,
      "Sobduu": 5306,
      "Ġkallattiin": 5307,
      "ibsiisa": 5308,
      "Giiftiin": 5309,
      "Ġkurn": 5310,
      "Ġelektiri": 5311,
      "Ġdegger": 5312,
      "Ġicciitii": 5313,
      "Walumaagalatti": 5314,
      "Ġchaappaa": 5315,
      "Baalli": 5316,
      "Hiyy": 5317,
      "Marii": 5318,
      "Televijiinii": 5319,
      "bni": 5320,
      "yiniin": 5321,
      "Ġbaal": 5322,
      "Ġbabal": 5323,
      "amtoota": 5324,
      "Ġsababni": 5325,
      "choonni": 5326,
      "Ġdhala": 5327,
      "Ġfirii": 5328,
      "Ġyakka": 5329,
      "yyoon": 5330,
      "Ġbarbaadi": 5331,
      "bbeen": 5332,
      "aayiin": 5333,
      "Ġqabadha": 5334,
      "Ġirrattin": 5335,
      "Ġeeyyee": 5336,
      "Ġbool": 5337,
      "Ġbooss": 5338,
      "Ġgaafattu": 5339,
      "Ġgaafatta": 5340,
      "Ġdhugee": 5341,
      "Ġriq": 5342,
      "Ġgargaarte": 5343,
      "Ġgargaarsi": 5344,
      "Fardi": 5345,
      "Haroon": 5346,
      "Ġgootee": 5347,
      "Ġyaalte": 5348,
      "Ġxumurama": 5349,
      "Ġxumurtee": 5350,
      "Ġbarreessuuf": 5351,
      "Ġdabarsan": 5352,
      "Ġdhihaa": 5353,
      "Dursee": 5354,
      "Ġmaraataa": 5355,
      "Ġqulqulleessuu": 5356,
      "Ġgowwom": 5357,
      "Ġmasaraa": 5358,
      "Ġdhaabu": 5359,
      "Ġdhaggeeffatu": 5360,
      "Ġimimmaan": 5361,
      "Ġbaafachuu": 5362,
      "Sareenis": 5363,
      "Ergaan": 5364,
      "qqee": 5365,
      "Ġdhungate": 5366,
      "Ġibiddi": 5367,
      "Ġboruutti": 5368,
      "Murt": 5369,
      "Ġaksiyoon": 5370,
      "Ġjiraatta": 5371,
      "Ġmijata": 5372,
      "Gorsi": 5373,
      "Dhaabbanni": 5374,
      "Ġdabarsitee": 5375,
      "Ġsimannaa": 5376,
      "Ġxiyyeeffachuu": 5377,
      "Ġtuqinaa": 5378,
      "Ġmiliqe": 5379,
      "Kaayyoon": 5380,
      "Tikeetiin": 5381,
      "Ġeeggachaa": 5382,
      "Ġhirkatuu": 5383,
      "Ġdhageessaniittu": 5384,
      "Hiika": 5385,
      "Simbirroon": 5386,
      "Ġkallattii": 5387,
      "Mallattoon": 5388,
      "Ġqalla": 5389,
      "Ġdeddeebi": 5390,
      "Ġelektirikii": 5391,
      "Aang": 5392,
      "Baq": 5393,
      "Doolaara": 5394,
      "Fu": 5395,
      "Haasaan": 5396,
      "Min": 5397,
      "Muf": 5398,
      "Maashinii": 5399,
      "Sukkaara": 5400,
      "id": 5401,
      "ock": 5402,
      "qi": 5403,
      "Ġaraa": 5404,
      "Ġve": 5405,
      "aniin": 5406,
      "Ġdoor": 5407,
      "Ġbabb": 5408,
      "Ġtaat": 5409,
      "Ġtulluu": 5410,
      "iraa": 5411,
      "Ġjal": 5412,
      "ist": 5413,
      "Ġqabde": 5414,
      "Ġfiixee": 5415,
      "Ġiswiiterii": 5416,
      "iinsi": 5417,
      "Ġtakkaa": 5418,
      "Ġarginee": 5419,
      "iisuu": 5420,
      "Ġfakkaanne": 5421,
      "Dhaa": 5422,
      "llaat": 5423,
      "Ġlix": 5424,
      "Ġyaadattaa": 5425,
      "Ġfideen": 5426,
      "Ġsirbaa": 5427,
      "Hotee": 5428,
      "Ġilaaleen": 5429,
      "Ġgargaartu": 5430,
      "WaaÊ¼ee": 5431,
      "Ġtaphatan": 5432,
      "Ġharki": 5433,
      "Ġpiizaa": 5434,
      "ĠhaasaÊ¼uu": 5435,
      "Ġkaazinaa": 5436,
      "Ġseenan": 5437,
      "Walakkaa": 5438,
      "Deegg": 5439,
      "Ġhubachuuf": 5440,
      "Ġlamatti": 5441,
      "Ġdabarsu": 5442,
      "Ġtolcha": 5443,
      "Ġdhugaadhaa": 5444,
      "Dura": 5445,
      "Ġdafnee": 5446,
      "Ġtorbaatti": 5447,
      "Ġulfaatu": 5448,
      "Ġbanuuf": 5449,
      "Ġalarjii": 5450,
      "Ġjedhutti": 5451,
      "Ġrifadhe": 5452,
      "Ġbiyyaa": 5453,
      "Ġsochoo": 5454,
      "Ġkufaatii": 5455,
      "Ġmufadheera": 5456,
      "Ġbadeera": 5457,
      "Eessatti": 5458,
      "Ġkabajuu": 5459,
      "Ġboruu": 5460,
      "Ġbuuse": 5461,
      "Ġjiraattaa": 5462,
      "Button": 5463,
      "Ġdargaggummaa": 5464,
      "Ġsodaatte": 5465,
      "Ġfayyadamuun": 5466,
      "Ġijaarame": 5467,
      "Ġsimbirr": 5468,
      "Ġbashannanaa": 5469,
      "Garaagarummaa": 5470,
      "Ġtasgabbii": 5471,
      "imman": 5472,
      "Ġkutachuu": 5473,
      "Ġwaamicha": 5474,
      "Ġciccim": 5475,
      "Ġganda": 5476,
      "Ġfalmuu": 5477,
      "Ġqusa": 5478,
      "Ġsagalitti": 5479,
      "ope": 5480,
      "Callis": 5481,
      "Ġmirgaatti": 5482,
      "Ġkaameraa": 5483,
      "Ġxumuramuutti": 5484,
      "Ġhodhuu": 5485,
      "Mirkaneeff": 5486,
      "Suuraalee": 5487,
      "Boqonnaan": 5488,
      "Jaakkeetii": 5489,
      "Ġdheebo": 5490,
      "Ġdaangaa": 5491,
      "Ġbabbaree": 5492,
      "Bubb": 5493,
      "Gad": 5494,
      "Kam": 5495,
      "bul": 5496,
      "qni": 5497,
      "qina": 5498,
      "saaraa": 5499,
      "ĠW": 5500,
      "iiw": 5501,
      "uusaa": 5502,
      "Ġdin": 5503,
      "Ġbaala": 5504,
      "ingil": 5505,
      "Ġthe": 5506,
      "aanaadha": 5507,
      "Ġsc": 5508,
      "isin": 5509,
      "atameera": 5510,
      "Ġjiraanna": 5511,
      "Ġsib": 5512,
      "Ġsigaaraa": 5513,
      "Ġdeemtuu": 5514,
      "Ġdeemtan": 5515,
      "Isaaf": 5516,
      "Ġbooji": 5517,
      "Ġgaafatin": 5518,
      "Ġgaleessaa": 5519,
      "Ġgalaana": 5520,
      "Ġofiif": 5521,
      "Ġdhiyaa": 5522,
      "eeffannoon": 5523,
      "iiraan": 5524,
      "Ġbilisaa": 5525,
      "umaara": 5526,
      "Ġdabareen": 5527,
      "Ġjalqabaatiif": 5528,
      "Ġsaddee": 5529,
      "Ġguute": 5530,
      "Ġdarbate": 5531,
      "siisu": 5532,
      "Ġgootaa": 5533,
      "Asirraa": 5534,
      "shina": 5535,
      "Ġuffachuun": 5536,
      "Kushina": 5537,
      "Ġyaadin": 5538,
      "Ġdagate": 5539,
      "iilee": 5540,
      "Ġjijjiiramu": 5541,
      "Shaamp": 5542,
      "Ġhayyame": 5543,
      "Ġqulqulleessuuf": 5544,
      "Ġqood": 5545,
      "Ġdhaabbatu": 5546,
      "Ġraawwatu": 5547,
      "Ġdiim": 5548,
      "Ġmufattu": 5549,
      "uummee": 5550,
      "Ġhalkanii": 5551,
      "Ġkunuunsu": 5552,
      "Chokol": 5553,
      "Taphataan": 5554,
      "Dubbachuu": 5555,
      "Dubbisuu": 5556,
      "Adab": 5557,
      "Ġadam": 5558,
      "Imimmaan": 5559,
      "Ġhammamiif": 5560,
      "Ġijaare": 5561,
      "Ġsimbirroo": 5562,
      "Ġgaragalchi": 5563,
      "Ġwallaalee": 5564,
      "Dargaggeessa": 5565,
      "Ilaaluu": 5566,
      "Ġpirojektii": 5567,
      "Barreeffamni": 5568,
      "Saanii": 5569,
      "Lubbuu": 5570,
      "Ariifachuun": 5571,
      "Ġqaaliin": 5572,
      "Sirboota": 5573,
      "Ġtolchite": 5574,
      "Ġherrega": 5575,
      "Ġfarda": 5576,
      "Ġsirbitu": 5577,
      "Ġamansiifne": 5578,
      "Ġquxisuu": 5579,
      "ugguxii": 5580,
      "Ġsaddeeti": 5581,
      "Haall": 5582,
      "Liftii": 5583,
      "Mukkeen": 5584,
      "Maangu": 5585,
      "Sofaa": 5586,
      "bbaa": 5587,
      "fni": 5588,
      "fakk": 5589,
      "leen": 5590,
      "tte": 5591,
      "zaa": 5592,
      "Ġ%": 5593,
      "ĠKan": 5594,
      "eerii": 5595,
      "Ġbet": 5596,
      "Ġbineensa": 5597,
      "ineef": 5598,
      "Ġtu": 5599,
      "Ġgagg": 5600,
      "Ġgung": 5601,
      "Ġqaam": 5602,
      "ali": 5603,
      "Ġst": 5604,
      "Ġsabab": 5605,
      "isi": 5606,
      "atamaan": 5607,
      "Ġfaashinii": 5608,
      "iinsaa": 5609,
      "eenyee": 5610,
      "Ġfakkaa": 5611,
      "Dhiq": 5612,
      "Ġfakkaatte": 5613,
      "Ġqofaadha": 5614,
      "Ġifaa": 5615,
      "Ġdeebinu": 5616,
      "Ġgaafatu": 5617,
      "Ġgalche": 5618,
      "Ġdhibbeen": 5619,
      "Ġilaaltan": 5620,
      "Ġamaninaa": 5621,
      "Ġabsh": 5622,
      "Ġbilbiluuf": 5623,
      "Ġbilbiltee": 5624,
      "Ġbaqaqsanii": 5625,
      "Ġfudhattee": 5626,
      "Ġhaasawa": 5627,
      "Ġseenee": 5628,
      "Ġhojjettoota": 5629,
      "Yaadda": 5630,
      "Yaaddoo": 5631,
      "Deeskii": 5632,
      "amnedha": 5633,
      "Ġdagachuu": 5634,
      "Ġkaffaluuf": 5635,
      "Ġsodaadhe": 5636,
      "Ġfagaata": 5637,
      "Ġfageenyaan": 5638,
      "Qormaanni": 5639,
      "Ġqulqulleessuun": 5640,
      "Miidhaan": 5641,
      "Barattoota": 5642,
      "Ġarj": 5643,
      "Ġfiigde": 5644,
      "Ġciisa": 5645,
      "Jaalalaan": 5646,
      "ĠdhagaÊ¼amu": 5647,
      "Ġmufatte": 5648,
      "Ġharkifachuu": 5649,
      "Erg": 5650,
      "Kanaafi": 5651,
      "Ġsammuutti": 5652,
      "Furmaata": 5653,
      "Ġkolfan": 5654,
      "Ġfalf": 5655,
      "Ġdhiyeessii": 5656,
      "Odola": 5657,
      "Ġsaantima": 5658,
      "Ġlammaff": 5659,
      "Ġbeeksisuu": 5660,
      "Ġquufne": 5661,
      "Ġcirrachaa": 5662,
      "Ġodola": 5663,
      "Ogeessi": 5664,
      "Ġabdadha": 5665,
      "Ġabdachaa": 5666,
      "Ġibseera": 5667,
      "Ġtiraafik": 5668,
      "Injifachuu": 5669,
      "Dogoggoraan": 5670,
      "Ilaalcha": 5671,
      "Ġgalchite": 5672,
      "Fakkeenya": 5673,
      "ĠNiiw": 5674,
      "Ġbattalumatti": 5675,
      "Balalii": 5676,
      "Ġqaanof": 5677,
      "Ġkadhadha": 5678,
      "Ġakaakayyuu": 5679,
      "Ġsaayinsii": 5680,
      "Ajaja": 5681,
      "Galatoomaa": 5682,
      "Bakkan": 5683,
      "Ġabdannu": 5684,
      "Ġkurnanii": 5685,
      "Ġaksiyoonaa": 5686,
      "Hoteelli": 5687,
      "Haalluu": 5688,
      "Badh": 5689,
      "Dull": 5690,
      "Ifni": 5691,
      "Kall": 5692,
      "Nan": 5693,
      "Qaa": 5694,
      "Ragaan": 5695,
      "Sok": 5696,
      "Sagan": 5697,
      "Samiin": 5698,
      "goof": 5699,
      "ichis": 5700,
      "kil": 5701,
      "tuuf": 5702,
      "Ġhalee": 5703,
      "Ġdiin": 5704,
      "amalee": 5705,
      "Ġteessee": 5706,
      "Ġgumaa": 5707,
      "Ġjaar": 5708,
      "Ġqalb": 5709,
      "Ġqixa": 5710,
      "Ġqamalee": 5711,
      "alaaf": 5712,
      "Ġsp": 5713,
      "Ġmarii": 5714,
      "Ġmaash": 5715,
      "Ġqabee": 5716,
      "atam": 5717,
      "erv": 5718,
      "aarjii": 5719,
      "ddug": 5720,
      "Ġjedhinaa": 5721,
      "Ġfakkeessee": 5722,
      "Ġkanarratti": 5723,
      "Ġlag": 5724,
      "Ê¼uuf": 5725,
      "Ġdhuftaniif": 5726,
      "Ġeegduu": 5727,
      "Inaaf": 5728,
      "Ġdhugdu": 5729,
      "Ġkeessattis": 5730,
      "Ġdhibbaan": 5731,
      "Ġgargaaran": 5732,
      "Ġnyaanna": 5733,
      "Ġnyaannee": 5734,
      "oofoo": 5735,
      "Ġdarbine": 5736,
      "shinii": 5737,
      "Ġhojiirra": 5738,
      "ustr": 5739,
      "Ġuffadheen": 5740,
      "Ġdubbistee": 5741,
      "Ġbaasi": 5742,
      "Ġdadhaboo": 5743,
      "Ġcufame": 5744,
      "ittoo": 5745,
      "Gaafa": 5746,
      "Shakkii": 5747,
      "Ġhayyamaa": 5748,
      "Ġoolche": 5749,
      "Ġartistii": 5750,
      "Abukaatoo": 5751,
      "Gargaaruu": 5752,
      "Ġagarsiisaa": 5753,
      "ggii": 5754,
      "Garaan": 5755,
      "Ġnyaatta": 5756,
      "Galaana": 5757,
      "Ġdiimaan": 5758,
      "Ġbiyyattii": 5759,
      "Ġxuuxe": 5760,
      "Ġ100": 5761,
      "Ġdeebisuun": 5762,
      "Ameerikaan": 5763,
      "Ġtilmaameera": 5764,
      "Gaazex": 5765,
      "Ġgammachuudhaan": 5766,
      "Ġsobde": 5767,
      "Ġmurteessee": 5768,
      "Ġfagaadhu": 5769,
      "Ġsodaattu": 5770,
      "Gabaa": 5771,
      "Qabeenya": 5772,
      "Fedhiin": 5773,
      "Ġlaafina": 5774,
      "Ibsi": 5775,
      "Ġpirezidaan": 5776,
      "Dukkana": 5777,
      "Magaalattiin": 5778,
      "Ġwallaale": 5779,
      "Ġqaaliidha": 5780,
      "Ġdirqisiise": 5781,
      "Ġdorgommii": 5782,
      "Ġsibiilaa": 5783,
      "Gowwoom": 5784,
      "Ġqoonqa": 5785,
      "Ġooltummaadhaan": 5786,
      "Ġfaallaa": 5787,
      "Ġsirreeff": 5788,
      "Dorgommii": 5789,
      "Ġtoora": 5790,
      "Ġyunivarsiitii": 5791,
      "Ġangafaa": 5792,
      "Aangoo": 5793,
      "Dhaaba": 5794,
      "Ġdinagdee": 5795,
      "Sagantaan": 5796,
      "!\"": 5797,
      "Arii": 5798,
      "Addunyaan": 5799,
      "Gaara": 5800,
      "Gingil": 5801,
      "Hamm": 5802,
      "Hattuun": 5803,
      "Kamtu": 5804,
      "Paartii": 5805,
      "ew": 5806,
      "gugg": 5807,
      "itiin": 5808,
      "ot": 5809,
      "ro": 5810,
      "sim": 5811,
      "ĠKana": 5812,
      "eere": 5813,
      "Ġkadh": 5814,
      "irt": 5815,
      "ure": 5816,
      "Ġjiraatee": 5817,
      "Ġfaarf": 5818,
      "Ġturin": 5819,
      "Ġbarbaad": 5820,
      "ĠtaÊ¼ee": 5821,
      "aartaa": 5822,
      "Ġkootu": 5823,
      "Ġtokkoffaa": 5824,
      "Ġbeekama": 5825,
      "Ġqabadhe": 5826,
      "Ġargatteettaa": 5827,
      "Ġargannu": 5828,
      "Ġargaman": 5829,
      "Ġwalaloo": 5830,
      "Ġwalfakk": 5831,
      "Ġfakkeesse": 5832,
      "Ġdubbadhe": 5833,
      "diyyaa": 5834,
      "Ġxiin": 5835,
      "Ġkeessaniin": 5836,
      "Amm": 5837,
      "Ġdhufin": 5838,
      "Ġeegamu": 5839,
      "Ġdeebiin": 5840,
      "Ġisheetti": 5841,
      "Ġisheetiif": 5842,
      "Ġdursinee": 5843,
      "oolessa": 5844,
      "Ġdandeessutti": 5845,
      "Ġnamaan": 5846,
      "Ġdarbachuu": 5847,
      "Ġnyaadhaa": 5848,
      "atteetta": 5849,
      "Ġbiraati": 5850,
      "Ġfakkaatutti": 5851,
      "illi": 5852,
      "Ġseentu": 5853,
      "Ġdubbisi": 5854,
      "Ġdubbisne": 5855,
      "ppil": 5856,
      "Ġbitachuun": 5857,
      "Ġbaaseera": 5858,
      "Ġkennitee": 5859,
      "Ġgurri": 5860,
      "Ġdadhabuu": 5861,
      "eessitu": 5862,
      "Sirni": 5863,
      "Ġfuudhee": 5864,
      "Ġcufaadha": 5865,
      "Ġmudachuu": 5866,
      "Ġduum": 5867,
      "Ġhayyaman": 5868,
      "Barataa": 5869,
      "Ġdhiiga": 5870,
      "Ġargituu": 5871,
      "Ġfurgugg": 5872,
      "Deemsa": 5873,
      "Ġkufaa": 5874,
      "Ġgurgurtaaf": 5875,
      "Ġharkifatte": 5876,
      "ĠJaappaanitti": 5877,
      "Ġdhokse": 5878,
      "Ġdhukkubsataa": 5879,
      "Ġkaroorfattan": 5880,
      "vel": 5881,
      "Ġkaansarii": 5882,
      "Ġdhiyeenyaan": 5883,
      "Ġmijatu": 5884,
      "Wayiniin": 5885,
      "Ġhidhamee": 5886,
      "Qabxiin": 5887,
      "Ġgaragali": 5888,
      "Ġdhukaase": 5889,
      "Ġsodaachisa": 5890,
      "poortiin": 5891,
      "Ġbarreeffamaa": 5892,
      "Dhiph": 5893,
      "Ġgowwoomsaa": 5894,
      "Konkolaachisaan": 5895,
      "ĠYeen": 5896,
      "Ġfunyaan": 5897,
      "Mariin": 5898,
      "Ġciifte": 5899,
      "Hiikni": 5900,
      "Fakkiiwwan": 5901,
      "Himata": 5902,
      "Ġdubartoota": 5903,
      "Ġdhangalaase": 5904,
      "Boorsaa": 5905,
      "Ġhawaas": 5906,
      "ĠYoork": 5907,
      "Herrega": 5908,
      "Ajjee": 5909,
      "Hiikkaa": 5910,
      "Ġgalgalaa": 5911,
      "Xaaliyaanii": 5912,
      "Hantuutni": 5913,
      "Ġboolla": 5914,
      "llaattii": 5915,
      "Ġsaddeetitti": 5916,
      "Alaa": 5917,
      "Dinq": 5918,
      "Fudha": 5919,
      "Ilaa": 5920,
      "Muuziqaan": 5921,
      "Tiyoo": 5922,
      "Un": 5923,
      "der": 5924,
      "qoo": 5925,
      "ĠIspeen": 5926,
      "ĠXaaliyaanii": 5927,
      "aazii": 5928,
      "uudhaan": 5929,
      "Ġhadhaa": 5930,
      "aroota": 5931,
      "Ġbunaa": 5932,
      "amummaan": 5933,
      "aanaatti": 5934,
      "Ġnarraa": 5935,
      "Ġadaa": 5936,
      "Ġqeeq": 5937,
      "altummaa": 5938,
      "istii": 5939,
      "eesseen": 5940,
      "Ġqabi": 5941,
      "Ġbarata": 5942,
      "Ġbaratu": 5943,
      "aattonni": 5944,
      "ert": 5945,
      "Ġkooppii": 5946,
      "uman": 5947,
      "Ġbeeksif": 5948,
      "Ġargaa": 5949,
      "ofa": 5950,
      "Ġmicc": 5951,
      "anneef": 5952,
      "alluun": 5953,
      "ahee": 5954,
      "Ġofittoo": 5955,
      "Ġdhiisanii": 5956,
      "alaamm": 5957,
      "Ġilaalla": 5958,
      "Ġbilis": 5959,
      "Ġamanuun": 5960,
      "Ġguutaa": 5961,
      "Haroo": 5962,
      "Ġqabdudha": 5963,
      "Ġtaphattu": 5964,
      "Ġtaphannu": 5965,
      "Ġtaphattaa": 5966,
      "Ġbilbili": 5967,
      "Ġhidhii": 5968,
      "Ġxumuraa": 5969,
      "Ġakkamittan": 5970,
      "Ġhojjeteera": 5971,
      "Ġbarreesseen": 5972,
      "Ġkami": 5973,
      "Ġtolf": 5974,
      "Ġgammachiisuuf": 5975,
      "Ġmudachaa": 5976,
      "Ġdabalataaf": 5977,
      "Ġjijjiiramuu": 5978,
      "Ġgammadne": 5979,
      "Ġdhiheenya": 5980,
      "Ġdhugumatti": 5981,
      "Ġqulqullaa": 5982,
      "Ġqulqulleesse": 5983,
      "Ġdhaabde": 5984,
      "Ġcabsuu": 5985,
      "Ġdheerinni": 5986,
      "Ġnyaattaniittuu": 5987,
      "Ġbanin": 5988,
      "Boqqolloo": 5989,
      "Ġdhoksite": 5990,
      "Ġkomate": 5991,
      "Ġfac": 5992,
      "Poolisii": 5993,
      "Imalli": 5994,
      "Ġnuffisiise": 5995,
      "Ġpoolisiitti": 5996,
      "Ġmaxxans": 5997,
      "Ġkomachaa": 5998,
      "Hidhii": 5999,
      "Kottu": 6000,
      "Ġqisaasuu": 6001,
      "Ġquufeera": 6002,
      "Ġboqochuu": 6003,
      "Ġmiliquu": 6004,
      "Ġdhufteetti": 6005,
      "Ġamansiise": 6006,
      "Ġdhorkuu": 6007,
      "Dadhabdee": 6008,
      "Dogoggorri": 6009,
      "Dhiibbaa": 6010,
      "Mirga": 6011,
      "Ġmufachiise": 6012,
      "Awustiraaliyaa": 6013,
      "Ġzoo": 6014,
      "Ġidileetti": 6015,
      "Balaliin": 6016,
      "Kufaatii": 6017,
      "Ġoomisha": 6018,
      "Funyoo": 6019,
      "Ġdach": 6020,
      "Paaspoortii": 6021,
      "Ġhawwatuudha": 6022,
      "Ġorma": 6023,
      "Bahuu": 6024,
      "Ġdoors": 6025,
      "Tiyoorii": 6026,
      "Chee": 6027,
      "Dilbata": 6028,
      "Fo": 6029,
      "Hima": 6030,
      "Keessa": 6031,
      "Piizaa": 6032,
      "Qullaa": 6033,
      "Seer": 6034,
      "Yakk": 6035,
      "be": 6036,
      "em": 6037,
      "hh": 6038,
      "jiif": 6039,
      "ling": 6040,
      "sine": 6041,
      "Ġ7": 6042,
      "ĠAti": 6043,
      "tist": 6044,
      "Ġbaatii": 6045,
      "Ġnarvii": 6046,
      "Ġsk": 6047,
      "Ġsoofaa": 6048,
      "eessiin": 6049,
      "aaloo": 6050,
      "Ġqabannee": 6051,
      "Ġbarte": 6052,
      "oomii": 6053,
      "aatta": 6054,
      "Ġturtu": 6055,
      "Ġbeekneef": 6056,
      "Ġargisiis": 6057,
      "Ġcilee": 6058,
      "Ġwalga": 6059,
      "maamm": 6060,
      "Ġhojjedheen": 6061,
      "Namichis": 6062,
      "Ġhimamee": 6063,
      "Ġeegi": 6064,
      "Ġeegde": 6065,
      "Ġfidde": 6066,
      "Ġgammadduu": 6067,
      "iiroo": 6068,
      "Ġilaalin": 6069,
      "Ġamanuuf": 6070,
      "Waamicha": 6071,
      "oofne": 6072,
      "Ġnyaachif": 6073,
      "Ġisaaniiyyuu": 6074,
      "Ġkennuun": 6075,
      "iyeen": 6076,
      "Ġxumuramu": 6077,
      "Ġxumurameera": 6078,
      "Ġdandeenyedha": 6079,
      "Ġbaasne": 6080,
      "Ġkennitaa": 6081,
      "Ġsalphaan": 6082,
      "Ġdadhabeen": 6083,
      "Ġhangafa": 6084,
      "Ġhafee": 6085,
      "ation": 6086,
      "Ġbarsiisaan": 6087,
      "Ġjijjiiramaa": 6088,
      "Shakk": 6089,
      "Ġfufte": 6090,
      "Ġhedduudhaaf": 6091,
      "Ġguutamee": 6092,
      "Ġmariis": 6093,
      "Ġliqeessa": 6094,
      "Ġqulqullummaa": 6095,
      "Ġtilmaamaa": 6096,
      "Barumsa": 6097,
      "Ġrukutee": 6098,
      "Ġdhaquun": 6099,
      "Ġdhaabuun": 6100,
      "aappaa": 6101,
      "Ġqoos": 6102,
      "Ġgaazex": 6103,
      "Ġdhaggeeffattu": 6104,
      "Garba": 6105,
      "Ġqopheessuu": 6106,
      "Ġbanu": 6107,
      "Ġbanuu": 6108,
      "Ġmiliyoona": 6109,
      "Ġfiigi": 6110,
      "Ġmiidhamtu": 6111,
      "Ġafeere": 6112,
      "Ġinjifata": 6113,
      "Ġgadhiif": 6114,
      "Ġdhiphisuu": 6115,
      "tiraata": 6116,
      "Furtuun": 6117,
      "Ġqunnamuuf": 6118,
      "Chaappaa": 6119,
      "Sod": 6120,
      "Ġshantama": 6121,
      "Ġgammaddu": 6122,
      "Ġdhungatte": 6123,
      "Ġmurteessuuf": 6124,
      "Ġibiddaan": 6125,
      "Ġdhageessisaa": 6126,
      "Ġbuusuu": 6127,
      "Ġbuusuun": 6128,
      "Imal": 6129,
      "Ġurgoof": 6130,
      "Fuulli": 6131,
      "Ġshubbif": 6132,
      "Ġdargaggoota": 6133,
      "Ġduraanii": 6134,
      "Sanduuqni": 6135,
      "Gabaab": 6136,
      "Ġdhiifne": 6137,
      "Ġcinaatti": 6138,
      "Hidhiin": 6139,
      "Duuti": 6140,
      "Komii": 6141,
      "Ġviidiyoo": 6142,
      "Yaalii": 6143,
      "Ġmakame": 6144,
      "Ġburjaaj": 6145,
      "Saffisa": 6146,
      "Ġkakaas": 6147,
      "Dargaggoonni": 6148,
      "eeyyiin": 6149,
      "Bade": 6150,
      "aallii": 6151,
      "Dukkaanni": 6152,
      "Ġrifachiise": 6153,
      "Ġfirijii": 6154,
      "Akeekkachiis": 6155,
      "Ummata": 6156,
      "Ġgammanne": 6157,
      "Barbaachisaa": 6158,
      "Ġgibira": 6159,
      "Ġkamiifuu": 6160,
      "Masaraan": 6161,
      "Ġshawaariin": 6162,
      "aakeejii": 6163,
      "Ġveg": 6164,
      "Ġduumessa": 6165,
      "alaammaltummaa": 6166,
      "Gom": 6167,
      "Ham": 6168,
      "Halluun": 6169,
      "Laaqanaaf": 6170,
      "Minj": 6171,
      "fir": 6172,
      "kichi": 6173,
      "lo": 6174,
      "nkol": 6175,
      "pt": 6176,
      "sc": 6177,
      "up": 6178,
      "ees": 6179,
      "oojjii": 6180,
      "Ġdaang": 6181,
      "Ġkamitti": 6182,
      "Ġkuusaa": 6183,
      "Ġbunni": 6184,
      "amneef": 6185,
      "Ġteesse": 6186,
      "Ġnurra": 6187,
      "Ġay": 6188,
      "Ġallaattii": 6189,
      "Ġmaashinii": 6190,
      "Ġmaasii": 6191,
      "Ġjirtan": 6192,
      "ilmoo": 6193,
      "ums": 6194,
      "Ġhora": 6195,
      "Ġhospit": 6196,
      "Ġfakkeenya": 6197,
      "Dhimmi": 6198,
      "Ġkanneen": 6199,
      "Ġgaramitti": 6200,
      "Ġsanas": 6201,
      "Ġloogii": 6202,
      "Ġamanaa": 6203,
      "Ê¼an": 6204,
      "Ġdhufeenya": 6205,
      "Ġhiman": 6206,
      "Ġbarbaachisuu": 6207,
      "Ġfid": 6208,
      "Ġhaquu": 6209,
      "ooliin": 6210,
      "Ġjalqabaati": 6211,
      "Ġkukii": 6212,
      "Ġdhabu": 6213,
      "Ġoliif": 6214,
      "Ġyaalan": 6215,
      "Ġyaalnu": 6216,
      "Ġxumuree": 6217,
      "Ġxumurree": 6218,
      "Ġuffate": 6219,
      "Ġdubbisee": 6220,
      "Ġdhagahamaa": 6221,
      "Ġbarreessee": 6222,
      "Ġdadhabee": 6223,
      "Ġyaadna": 6224,
      "Ġdaganne": 6225,
      "Ġkaffaleera": 6226,
      "Shaak": 6227,
      "Ġliqiin": 6228,
      "ĠJaak": 6229,
      "Ġjirtutti": 6230,
      "Barataan": 6231,
      "Ġaare": 6232,
      "Ġqilleens": 6233,
      "Ġdhaggeeffanne": 6234,
      "Ġbarbaaddetti": 6235,
      "Ġxiyyeeffannoo": 6236,
      "Ġciisin": 6237,
      "Ġkufte": 6238,
      "Ġdhiqadhaa": 6239,
      "Ġmufanne": 6240,
      "Ġ18": 6241,
      "Ġdhokatee": 6242,
      "oosaan": 6243,
      "Ġkaroorfadheen": 6244,
      "Arr": 6245,
      "Araarama": 6246,
      "Ġuume": 6247,
      "Ġuumame": 6248,
      "Ġgaraajee": 6249,
      "Ġdhaame": 6250,
      "Ġtasaatti": 6251,
      "Ġburtukaana": 6252,
      "Ġguddaatu": 6253,
      "Ġbulaa": 6254,
      "ĠOnkol": 6255,
      "Ġariifachiisaa": 6256,
      "Odeeffannoon": 6257,
      "Ġdukkana": 6258,
      "Michoota": 6259,
      "Ġfedhes": 6260,
      "Ġdogoggore": 6261,
      "Ġpoolisiin": 6262,
      "Ġsodaachise": 6263,
      "Ġqabbanaawaa": 6264,
      "etari": 6265,
      "Beellama": 6266,
      "Ġmadaala": 6267,
      "Ġeegalte": 6268,
      "Ġummataa": 6269,
      "Ġajjeefame": 6270,
      "Daldalli": 6271,
      "Xumura": 6272,
      "Ġrifachiisa": 6273,
      "Ġtaanee": 6274,
      "abbata": 6275,
      "Akeekkachiif": 6276,
      "Dhaabuu": 6277,
      "Miidhamte": 6278,
      "Hubannoo": 6279,
      "Mallattoo": 6280,
      "Barnoonni": 6281,
      "Ġ201": 6282,
      "Ġwalqunnamtii": 6283,
      "Harkifachuu": 6284,
      "Ġhamaatu": 6285,
      "Shorbaa": 6286,
      "Ġfannif": 6287,
      "Ġquub": 6288,
      "Ganda": 6289,
      "Guddina": 6290,
      "Dhohinsa": 6291,
      "Ġaraada": 6292,
      "Deeggar": 6293,
      "Ġadaadaa": 6294,
      "ĠOnkoloolessa": 6295,
      "etarian": 6296,
      "Affeer": 6297,
      "Himni": 6298,
      "ID": 6299,
      "Mad": 6300,
      "Narraa": 6301,
      "On": 6302,
      "Qoosaan": 6303,
      "Tulluu": 6304,
      "Vaay": 6305,
      "ich": 6306,
      "lug": 6307,
      "qiin": 6308,
      "troo": 6309,
      "Ġukk": 6310,
      "ĠHar": 6311,
      "ooj": 6312,
      "Ġdoolii": 6313,
      "Ġkilabii": 6314,
      "arana": 6315,
      "aramee": 6316,
      "Ġguf": 6317,
      "Ġach": 6318,
      "dhanii": 6319,
      "ataman": 6320,
      "unkaana": 6321,
      "Ġbarateera": 6322,
      "Ġjiruudha": 6323,
      "Ġtokkorra": 6324,
      "Ġargadheen": 6325,
      "Ġarginu": 6326,
      "Dhuun": 6327,
      "Ġlola": 6328,
      "diyoon": 6329,
      "Ist": 6330,
      "Ê¼uun": 6331,
      "Ġhimin": 6332,
      "Ġhimate": 6333,
      "Ġhimatame": 6334,
      "Ġgalmaa": 6335,
      "Ġgalcha": 6336,
      "Ġhafa": 6337,
      "aatiivii": 6338,
      "Ġdhugduu": 6339,
      "Ġdureeyyii": 6340,
      "Ġsom": 6341,
      "Ġdeebite": 6342,
      "Ġkutin": 6343,
      "Ġtaphadhu": 6344,
      "Ġtaphatti": 6345,
      "Ġtaphattuu": 6346,
      "Ġbas": 6347,
      "Ġharkaan": 6348,
      "Ġpaas": 6349,
      "Kantii": 6350,
      "Ġyaalii": 6351,
      "Ġkenneef": 6352,
      "Ġhihh": 6353,
      "Ġuffatu": 6354,
      "Ġseenuun": 6355,
      "Ġhojjetama": 6356,
      "Ġdubbistu": 6357,
      "Ġhubadheera": 6358,
      "Ġkenniteef": 6359,
      "Ġboson": 6360,
      "Ġdadhaboodha": 6361,
      "Ġkaffalaa": 6362,
      "eessitee": 6363,
      "essi": 6364,
      "essert": 6365,
      "Ġyaadan": 6366,
      "Ġtolchu": 6367,
      "ĠMaariyaamiin": 6368,
      "Ġbarsiisota": 6369,
      "Ġmirkaneessi": 6370,
      "Ġjijjiirameera": 6371,
      "Ġfagaatee": 6372,
      "Ġfilate": 6373,
      "Ġfilatta": 6374,
      "Ġgammadneerra": 6375,
      "Ġqulqullina": 6376,
      "Ġaaru": 6377,
      "Ġaarri": 6378,
      "Ġaarse": 6379,
      "Ġarjaa": 6380,
      "Tajaaj": 6381,
      "Deemuu": 6382,
      "Ġrifachuu": 6383,
      "Ġrifatte": 6384,
      "Ġbiyyoota": 6385,
      "iskiriimii": 6386,
      "Ġbaafta": 6387,
      "Ġkufee": 6388,
      "Jechoonni": 6389,
      "Ġinjifachuun": 6390,
      "Ġmufate": 6391,
      "Ġhordofa": 6392,
      "Ġuj": 6393,
      "Ġbitattee": 6394,
      "Ġdhiphoo": 6395,
      "aasha": 6396,
      "Ġgubate": 6397,
      "Ġmurteessine": 6398,
      "Ġdhiyeessan": 6399,
      "Ġfayyadamuuf": 6400,
      "Ġgaddisiisu": 6401,
      "Ġlammiilee": 6402,
      "Ġbashannanne": 6403,
      "Ġqabaatte": 6404,
      "Ġbeeksise": 6405,
      "Ġbaanu": 6406,
      "Ġafurtama": 6407,
      "Beeysiboolii": 6408,
      "Ġseeraati": 6409,
      "ĠPaar": 6410,
      "Dadhabe": 6411,
      "Ilaalchi": 6412,
      "Dhiiga": 6413,
      "Ġsoorata": 6414,
      "Ġakeekkachiisa": 6415,
      "Socho": 6416,
      "Ġdeebiftee": 6417,
      "Ġbaattee": 6418,
      "Ġsuphamu": 6419,
      "Fuuldura": 6420,
      "toobisii": 6421,
      "Hidhamtoonni": 6422,
      "Ġlafee": 6423,
      "Birraan": 6424,
      "Ġdhoohe": 6425,
      "Ummanni": 6426,
      "Ġhaguug": 6427,
      "Barruulee": 6428,
      "Firijii": 6429,
      "Ġkirkirri": 6430,
      "Muuziyeemii": 6431,
      "Otoobisiin": 6432,
      "dhabdee": 6433,
      "Bineensonni": 6434,
      "Ġgeejj": 6435,
      "Ġbabbareedoo": 6436,
      "Ġdhibbeentaa": 6437,
      "ervation": 6438,
      "velope": 6439,
      "Ġvegetarian": 6440,
      "Ġayiskiriimii": 6441,
      "ĠJaaksan": 6442,
      "Ġukkaam": 6443,
      "Ay": 6444,
      "Baati": 6445,
      "Diina": 6446,
      "Keekiin": 6447,
      "Mooti": 6448,
      "Qaam": 6449,
      "Res": 6450,
      "Soor": 6451,
      "Sabab": 6452,
      "Tiraaf": 6453,
      "Uum": 6454,
      "Xiqq": 6455,
      "biis": 6456,
      "doota": 6457,
      "fri": 6458,
      "mni": 6459,
      "tamaa": 6460,
      "ucc": 6461,
      "ĠIsn": 6462,
      "ticha": 6463,
      "Ġbl": 6464,
      "Ġgeengoo": 6465,
      "Ġachiis": 6466,
      "dheef": 6467,
      "Ġsekondii": 6468,
      "Ġdhiigni": 6469,
      "Ġqabamne": 6470,
      "Ġqabsiif": 6471,
      "ataadha": 6472,
      "Ġbarattu": 6473,
      "Ġisaatii": 6474,
      "Ġgocha": 6475,
      "eenyaaf": 6476,
      "aasuun": 6477,
      "Dhimm": 6478,
      "Ġhojjetinaa": 6479,
      "Ġliftii": 6480,
      "Ġlilmoo": 6481,
      "Iskii": 6482,
      "allaan": 6483,
      "Ġyaadachiis": 6484,
      "Ġdhuftaa": 6485,
      "Ġeegala": 6486,
      "Ġeegnu": 6487,
      "Ġeeginaa": 6488,
      "Ġhaxx": 6489,
      "Ġout": 6490,
      "Ġilaalama": 6491,
      "Ġilaalta": 6492,
      "Ġgargaartan": 6493,
      "Ġfudhadheen": 6494,
      "Ġway": 6495,
      "Ġxumurtaniittuu": 6496,
      "Yookaan": 6497,
      "attoo": 6498,
      "attootaa": 6499,
      "Ġseenne": 6500,
      "Ġseenuuf": 6501,
      "Ġammayyaa": 6502,
      "Ġhubannoo": 6503,
      "Ġkaffalle": 6504,
      "Ġdabarsuun": 6505,
      "Ġcufama": 6506,
      "Ġdagannu": 6507,
      "ĠmirkanaaÊ¼aa": 6508,
      "Ġbahan": 6509,
      "Ġdabaleera": 6510,
      "Ġjijjiirte": 6511,
      "Ġbarbaadetti": 6512,
      "Ġgammadnu": 6513,
      "Barachuuf": 6514,
      "Ġaarsu": 6515,
      "Ġagarsiisu": 6516,
      "Ġagarsiisuuf": 6517,
      "Ġargita": 6518,
      "Ġqooda": 6519,
      "Ġqoosan": 6520,
      "Ġdhaabbatin": 6521,
      "Ġfurdina": 6522,
      "Ġraawwadhe": 6523,
      "Jiraachuu": 6524,
      "Ġbanamu": 6525,
      "Ġajjeesu": 6526,
      "Ġciisu": 6527,
      "Ġdiduu": 6528,
      "Ġgurgura": 6529,
      "Ġargamuuf": 6530,
      "Ġargamaniiru": 6531,
      "Ġkaroorfatte": 6532,
      "Ġqunnam": 6533,
      "Eesh": 6534,
      "Dubbii": 6535,
      "Ġcallisaa": 6536,
      "Xiyyaar": 6537,
      "Xiyyaara": 6538,
      "Ġfooyyess": 6539,
      "Ġbuusi": 6540,
      "ibsiifadhe": 6541,
      "Ġjiruutti": 6542,
      "Ġshubbisa": 6543,
      "Ġbarreessitee": 6544,
      "Buddeen": 6545,
      "Ġdammaqse": 6546,
      "Ġnageenyi": 6547,
      "Ġijaaran": 6548,
      "Ġdabarsite": 6549,
      "uutni": 6550,
      "Koppii": 6551,
      "Kolfaa": 6552,
      "Ġqusadhaa": 6553,
      "Ġcicciree": 6554,
      "Ġutaale": 6555,
      "Ġutaaluu": 6556,
      "Gadi": 6557,
      "Arguu": 6558,
      "Ġidil": 6559,
      "Ġmudateeraa": 6560,
      "Magaalaan": 6561,
      "Ġbaraare": 6562,
      "Ġmiseens": 6563,
      "Ġhiikaa": 6564,
      "Ġkaampii": 6565,
      "Ġtajaajil": 6566,
      "Ġdigdamii": 6567,
      "Ġdhoqqee": 6568,
      "Hawwiin": 6569,
      "ĠgaaÊ¼ela": 6570,
      "Ġuwwifame": 6571,
      "Ġqaanessa": 6572,
      "Ġhubadha": 6573,
      "ĠLandanitti": 6574,
      "Ġgoggogaa": 6575,
      "Ġyaaddessu": 6576,
      "Ġsibiilaan": 6577,
      "Ġsababiin": 6578,
      "Ġarjoom": 6579,
      "Qaama": 6580,
      "Inaaffaa": 6581,
      "ustrali": 6582,
      "Ġmicciir": 6583,
      "Ġurgooftuu": 6584,
      "Ġ2013": 6585,
      "arameellaa": 6586,
      "Ġhihhir": 6587,
      "Aysk": 6588,
      "ĠIsniin": 6589,
      "Adda": 6590,
      "App": 6591,
      "Aarii": 6592,
      "Baal": 6593,
      "Fiixee": 6594,
      "He": 6595,
      "Soofaa": 6596,
      "Tookiyoo": 6597,
      "US": 6598,
      "Wara": 6599,
      "Yakki": 6600,
      "daaf": 6601,
      "est": 6602,
      "iti": 6603,
      "itan": 6604,
      "naaf": 6605,
      "quun": 6606,
      "ran": 6607,
      "sp": 6608,
      "uxx": 6609,
      "vard": 6610,
      "Ġun": 6611,
      "Ġann": 6612,
      "Ġhattuu": 6613,
      "Ġkon": 6614,
      "ink": 6615,
      "Ġgooftaa": 6616,
      "Ġqind": 6617,
      "Ġser": 6618,
      "Ġsaalaa": 6619,
      "Ġsofaa": 6620,
      "Ġsummii": 6621,
      "eessinu": 6622,
      "Ġbaruuf": 6623,
      "oombii": 6624,
      "aafata": 6625,
      "aaroonni": 6626,
      "aayim": 6627,
      "Ġargin": 6628,
      "Ġargamuu": 6629,
      "aasikaa": 6630,
      "ĠduÊ¼e": 6631,
      "Dhag": 6632,
      "Ġhojjetti": 6633,
      "Ġhojjetaa": 6634,
      "Ġlab": 6635,
      "Ġxuxx": 6636,
      "wween": 6637,
      "Ġyaadatu": 6638,
      "Ġhimteettaa": 6639,
      "Ġbarbaachisoo": 6640,
      "Ġfidi": 6641,
      "Ġgalaanaatti": 6642,
      "Ġgammadda": 6643,
      "Ġilaalamuu": 6644,
      "qabe": 6645,
      "ooloojii": 6646,
      "Ġjalqabi": 6647,
      "Ġkudhanii": 6648,
      "Sigaaraa": 6649,
      "Ġdarbuuf": 6650,
      "Ġharkisaa": 6651,
      "Ġrakkate": 6652,
      "Akkasuma": 6653,
      "Ġfudhatta": 6654,
      "Ġkanaatti": 6655,
      "Ġuffadha": 6656,
      "Ġkaab": 6657,
      "Ġhojjetaman": 6658,
      "Ġhubattaa": 6659,
      "eessita": 6660,
      "Ġdabarse": 6661,
      "Ġkaffalan": 6662,
      "ĠtaÊ¼us": 6663,
      "Ġcidhaa": 6664,
      "Ġjechuudhaa": 6665,
      "Ġduubaa": 6666,
      "Ġsodaatinaa": 6667,
      "Ġjijjiiruuf": 6668,
      "Qorannoo": 6669,
      "Ġoolch": 6670,
      "Ġjibbitu": 6671,
      "Ġaartee": 6672,
      "les": 6673,
      "ĠAl": 6674,
      "Ġdhaabuuf": 6675,
      "Ġqoodda": 6676,
      "Ġdhaabbataa": 6677,
      "Ġraawwatte": 6678,
      "Ġgaazii": 6679,
      "Ġcimnee": 6680,
      "Galmeen": 6681,
      "Ġmootii": 6682,
      "Ġhirribni": 6683,
      "Ġsuutaan": 6684,
      "Ġbaafadhaa": 6685,
      "Ġkufa": 6686,
      "Ilmaan": 6687,
      "Ġdhiqa": 6688,
      "Carraaqqii": 6689,
      "Ġbeeyla": 6690,
      "Ġdeebise": 6691,
      "Ġkaroorri": 6692,
      "Baaburaan": 6693,
      "Ġkunuunsi": 6694,
      "Ġkaroorfanne": 6695,
      "Ġoofu": 6696,
      "Ġuumamaan": 6697,
      "Ġgadhiisee": 6698,
      "Ġgadhiisuuf": 6699,
      "Ġmurteessan": 6700,
      "Ġmormii": 6701,
      "Ġsirbe": 6702,
      "Gurra": 6703,
      "Gurraa": 6704,
      "Ġsirreesse": 6705,
      "Ergasii": 6706,
      "Sarara": 6707,
      "Ġdhiifnu": 6708,
      "Ġkaartaa": 6709,
      "Ġcirrachaan": 6710,
      "Ġsard": 6711,
      "elevijiiniin": 6712,
      "diruun": 6713,
      "Ġmichuudha": 6714,
      "Kaameeraan": 6715,
      "Barreessuu": 6716,
      "Ġgaabbu": 6717,
      "ĠFu": 6718,
      "ĠYork": 6719,
      "Ġgurguddaa": 6720,
      "ĠDilbata": 6721,
      "Akaakayyuu": 6722,
      "Ġraafama": 6723,
      "aakkii": 6724,
      "Ġfiraasha": 6725,
      "Bashannanaa": 6726,
      "Taaksiin": 6727,
      "Ġherregaa": 6728,
      "Ġqajeelfama": 6729,
      "Ġliqimfamuu": 6730,
      "Ġshaakal": 6731,
      "Ġshaakala": 6732,
      "Boorsaan": 6733,
      "ĠRaash": 6734,
      "Faayila": 6735,
      "Ġbarsiifte": 6736,
      "Ġsodaattuudha": 6737,
      "Cirracha": 6738,
      "Ġdhaabbatichaa": 6739,
      "Qajeelfama": 6740,
      "Ġsaayikil": 6741,
      "Hiyyeessa": 6742,
      "Ġriqicha": 6743,
      "Ġqusachaa": 6744,
      "Bubbeen": 6745,
      "Chokolaataa": 6746,
      "Ġgungumaa": 6747,
      "Unka": 6748,
      "Minjaalli": 6749,
      "ĠPaaris": 6750,
      "Soorama": 6751,
      "Ayskiriimii": 6752,
      "Ach": 6753,
      "By": 6754,
      "Duum": 6755,
      "Gol": 6756,
      "Kilabii": 6757,
      "Paan": 6758,
      "Saa": 6759,
      "Tuutni": 6760,
      "ast": 6761,
      "ctive": 6762,
      "michi": 6763,
      "niin": 6764,
      "one": 6765,
      "qama": 6766,
      "xu": 6767,
      "xuu": 6768,
      "Ġ9": 6769,
      "ĠI": 6770,
      "ĠMaaliif": 6771,
      "ĠEesh": 6772,
      "Ġdamee": 6773,
      "Ġkoph": 6774,
      "Ġkaate": 6775,
      "amteetta": 6776,
      "eenii": 6777,
      "Ġbarba": 6778,
      "Ġwaraan": 6779,
      "Ġfl": 6780,
      "Ġfaall": 6781,
      "aattuu": 6782,
      "Ġisp": 6783,
      "Ġisarraa": 6784,
      "Ġturta": 6785,
      "Ġnaq": 6786,
      "Ġbarbaaduuf": 6787,
      "Ġkoos": 6788,
      "tajjii": 6789,
      "agdeen": 6790,
      "bbo": 6791,
      "aayk": 6792,
      "Ġcalaqq": 6793,
      "Ġwalsim": 6794,
      "Ġsidha": 6795,
      "Dhok": 6796,
      "orm": 6797,
      "Waanuma": 6798,
      "Ġkeessani": 6799,
      "Ġice": 6800,
      "Ġeegamne": 6801,
      "Ġgaafadhaa": 6802,
      "Ġoff": 6803,
      "alaada": 6804,
      "Ġreeff": 6805,
      "Ġamanan": 6806,
      "Ġanis": 6807,
      "Ġmeetii": 6808,
      "Ġdarbadhu": 6809,
      "Ġfudhadhee": 6810,
      "Ġshall": 6811,
      "Ġqorichaa": 6812,
      "Ġgaheera": 6813,
      "Ġkenneeraa": 6814,
      "Ġmudd": 6815,
      "Ġxumuramee": 6816,
      "Ġxumuramne": 6817,
      "Ġbitadhu": 6818,
      "Ġbaasisa": 6819,
      "Ġguutuutti": 6820,
      "eessitoota": 6821,
      "Ġdabarsee": 6822,
      "Ġfayyadamee": 6823,
      "Ġcufameera": 6824,
      "Ġdagatte": 6825,
      "ittii": 6826,
      "Ġcidha": 6827,
      "Ġgammachiisuu": 6828,
      "Miidhaa": 6829,
      "Ġrafan": 6830,
      "Ġdhiira": 6831,
      "Ġdhiibaa": 6832,
      "Ġdhiita": 6833,
      "Ġfurda": 6834,
      "Ġjabaatta": 6835,
      "Gariin": 6836,
      "Ġrifanne": 6837,
      "Ġdinqisiifamne": 6838,
      "Ġmiidhameera": 6839,
      "Ġsanyii": 6840,
      "deem": 6841,
      "deela": 6842,
      "Ġmuraasaa": 6843,
      "Ġdhiqachaa": 6844,
      "Ġgurgurama": 6845,
      "Ġhordofe": 6846,
      "Ġdhoksuu": 6847,
      "Ġhaasofna": 6848,
      "Ġdhiphisaa": 6849,
      "Ġdhiphisu": 6850,
      "Ġkudhaniif": 6851,
      "Santa": 6852,
      "Ġkomii": 6853,
      "Ġkonkolaa": 6854,
      "Taphichi": 6855,
      "Ġkolfisiis": 6856,
      "Gurg": 6857,
      "Ġkaanii": 6858,
      "Ġbaaburri": 6859,
      "Ġdammaqsuu": 6860,
      "Ġguddate": 6861,
      "Ġchaarjii": 6862,
      "Gabatee": 6863,
      "Ġbashannans": 6864,
      "Ġtasgabb": 6865,
      "Jalqabuuf": 6866,
      "Daraaroonni": 6867,
      "Ġboqote": 6868,
      "Ġboqodhu": 6869,
      "Beeyla": 6870,
      "Ġhaalaan": 6871,
      "Ġhaaleera": 6872,
      "Ġajajamuu": 6873,
      "Ġwaamu": 6874,
      "Ġlolaa": 6875,
      "Ġamansiisaa": 6876,
      "Ġmakamuu": 6877,
      "Ġkompiitaraa": 6878,
      "Haqa": 6879,
      "Ġkakadha": 6880,
      "Bidiruu": 6881,
      "Ġbaatan": 6882,
      "Ġdeeggara": 6883,
      "Fuuldurri": 6884,
      "Fuulduratti": 6885,
      "Fakkiin": 6886,
      "Daawwattoonni": 6887,
      "Ġfiiga": 6888,
      "Dhiyeessiin": 6889,
      "Ġqaanfa": 6890,
      "ibsiise": 6891,
      "Ġsobduudha": 6892,
      "Sadarkaa": 6893,
      "Ġkalaqe": 6894,
      "Safuu": 6895,
      "Ġdadd": 6896,
      "Faaya": 6897,
      "Ġjiidh": 6898,
      "Ġdhiirota": 6899,
      "Ġqoonqoo": 6900,
      "Ġquuqama": 6901,
      "Ġbadhaasa": 6902,
      "Ġwalakkaan": 6903,
      "Iskuw": 6904,
      "Ġsadaff": 6905,
      "Kabaja": 6906,
      "Ġcinatti": 6907,
      "Ġqaanoftuu": 6908,
      "Ġxiinx": 6909,
      "Ġburjaajess": 6910,
      "Akeekkachiisa": 6911,
      "Deeggarsa": 6912,
      "ustralia": 6913,
      "ĠEeshiyaa": 6914,
      "Baa": 6915,
      "Bul": 6916,
      "Biiraan": 6917,
      "Dessert": 6918,
      "Ij": 6919,
      "Ruuzii": 6920,
      "Warsh": 6921,
      "Zay": 6922,
      "fi": 6923,
      "ious": 6924,
      "ĠSaan": 6925,
      "aniif": 6926,
      "iira": 6927,
      "Ġhool": 6928,
      "Ġkib": 6929,
      "are": 6930,
      "Ġbaasa": 6931,
      "Ġgeenyu": 6932,
      "Ġnarsii": 6933,
      "ttin": 6934,
      "Ġqeen": 6935,
      "Ġqeensa": 6936,
      "Ġqulfii": 6937,
      "Ġsabbata": 6938,
      "chummaa": 6939,
      "Ġmuuziq": 6940,
      "Ġdham": 6941,
      "Ġdheera": 6942,
      "Ġqabnee": 6943,
      "Ġqabatee": 6944,
      "Ġakkoo": 6945,
      "Ġfaarfannaa": 6946,
      "iiniin": 6947,
      "ilxuu": 6948,
      "ummoo": 6949,
      "Ġbeekamu": 6950,
      "Ġbeekamoo": 6951,
      "Ġgol": 6952,
      "taara": 6953,
      "aasiin": 6954,
      "Dhang": 6955,
      "llu": 6956,
      "Ġdubbat": 6957,
      "Ġloonii": 6958,
      "Ġlaaqanaaf": 6959,
      "Ġyerootti": 6960,
      "tuudha": 6961,
      "Ġboochis": 6962,
      "Ġhimatte": 6963,
      "Ġgaltuu": 6964,
      "Ġgammachiif": 6965,
      "Ġdhiiste": 6966,
      "Ġabukaatoo": 6967,
      "Ġdandeenyeef": 6968,
      "Ġmeetroo": 6969,
      "ukkaarri": 6970,
      "Ġdarbite": 6971,
      "Ġnyaatin": 6972,
      "ĠbaÊ¼e": 6973,
      "Ġshaamp": 6974,
      "sha": 6975,
      "Ġfudhanna": 6976,
      "Ġgahee": 6977,
      "Ġuffadhaa": 6978,
      "Ġkaayyoo": 6979,
      "Ġseennu": 6980,
      "Ġhubatan": 6981,
      "oker": 6982,
      "Ġboca": 6983,
      "Ġdadhabaa": 6984,
      "Ġdabarsitaa": 6985,
      "Ġgodhaniiru": 6986,
      "Ġhafte": 6987,
      "itoota": 6988,
      "Ġmirkaneesse": 6989,
      "Ġcite": 6990,
      "Ġdhiheessaa": 6991,
      "Dureessa": 6992,
      "Ġrukun": 6993,
      "Ġdafanii": 6994,
      "ĠAddunyaa": 6995,
      "ĠdandaÊ¼amaa": 6996,
      "Ġcabsuuf": 6997,
      "Ġqoosuu": 6998,
      "Ġdhaabbadhu": 6999,
      "Ġraawwatan": 7000,
      "Ġqopheessaa": 7001,
      "Galma": 7002,
      "Ġgodhachuu": 7003,
      "Konkolaattonni": 7004,
      "Ġmooraa": 7005,
      "Ġobbolaa": 7006,
      "Ġxuuxu": 7007,
      "Ġhiikuuf": 7008,
      "Ġgabatee": 7009,
      "Ġbaafachaa": 7010,
      "Ġsodaanne": 7011,
      "Ġharkifatta": 7012,
      "Ġdhoksuuf": 7013,
      "Ġtilmaamu": 7014,
      "Ġkaroorfattaniittuu": 7015,
      "Ġkomatamu": 7016,
      "Chick": 7017,
      "Ġboonna": 7018,
      "Kopheewwan": 7019,
      "Ġguddittii": 7020,
      "Ġdhageessif": 7021,
      "Ġakeekkachiif": 7022,
      "tooni": 7023,
      "Ġdhiibin": 7024,
      "Ġfayyadamtuu": 7025,
      "Ġdabarsiti": 7026,
      "Ġsoddom": 7027,
      "Ġhanqina": 7028,
      "Ġmallatteessi": 7029,
      "Ġdhukaasaa": 7030,
      "Ġkonkolaachisuun": 7031,
      "Ġgadii": 7032,
      "Ġkeenyaatti": 7033,
      "Ġciniinuu": 7034,
      "immanii": 7035,
      "Ġtuqe": 7036,
      "Ġakkasumas": 7037,
      "Ġafeeruun": 7038,
      "Ġballeesse": 7039,
      "Lolli": 7040,
      "Ġqacare": 7041,
      "Ġdhorkaadha": 7042,
      "Hafuu": 7043,
      "Ġkakaase": 7044,
      "Dargaggeessi": 7045,
      "Ġtuuta": 7046,
      "Pirojektii": 7047,
      "Amanamummaa": 7048,
      "Amanamummaan": 7049,
      "Irratti": 7050,
      "Bidiruun": 7051,
      "Saantima": 7052,
      "shiinaa": 7053,
      "Ġjahatti": 7054,
      "Urjii": 7055,
      "Ġbaraaruuf": 7056,
      "Ġdigrii": 7057,
      "Himannaan": 7058,
      "Obomboleettii": 7059,
      "ĠTookiyootti": 7060,
      "Dabareen": 7061,
      "Ġhaguuggii": 7062,
      "Ġmaallaqni": 7063,
      "Hawwii": 7064,
      "Tilmaama": 7065,
      "zzle": 7066,
      "Pirezidaantichi": 7067,
      "Burtukaana": 7068,
      "Yuunivarsii": 7069,
      "Ġjirreef": 7070,
      "Ġgowwomse": 7071,
      "Mindaan": 7072,
      "Soksii": 7073,
      "Ġfurguggii": 7074,
      "maammata": 7075,
      "iyeenara": 7076,
      "Ġdaangeff": 7077,
      "Waraqaan": 7078,
      "Ġanniisaa": 7079,
      "Ġserious": 7080,
      "ĠFujii": 7081,
      "Saawwan": 7082,
      "aaykir": 7083,
      "Gurgur": 7084,
      "Dhangala": 7085,
      "Addaan": 7086,
      "Bool": 7087,
      "Baafata": 7088,
      "Dallaan": 7089,
      "Foo": 7090,
      "Gii": 7091,
      "Halee": 7092,
      "Jab": 7093,
      "Kiyy": 7094,
      "Mindaa": 7095,
      "Summii": 7096,
      "bamii": 7097,
      "elli": 7098,
      "gni": 7099,
      "ice": 7100,
      "mish": 7101,
      "nnoo": 7102,
      "od": 7103,
      "pteen": 7104,
      "qu": 7105,
      "skiin": 7106,
      "toom": 7107,
      "tora": 7108,
      "wus": 7109,
      "Ġanaa": 7110,
      "ĠNi": 7111,
      "eem": 7112,
      "eetu": 7113,
      "ant": 7114,
      "uuph": 7115,
      "Ġkum": 7116,
      "Ġkaane": 7117,
      "aroonni": 7118,
      "inicha": 7119,
      "Ġqilxuu": 7120,
      "abii": 7121,
      "Ġsooress": 7122,
      "istu": 7123,
      "Ġmaatiin": 7124,
      "eessitaa": 7125,
      "Ġqabaanna": 7126,
      "Ġqabatamaa": 7127,
      "Ġjiruun": 7128,
      "Ġjiraannu": 7129,
      "aatan": 7130,
      "aatamaan": 7131,
      "Ġtursiisuu": 7132,
      "yyeff": 7133,
      "ilaan": 7134,
      "ddoota": 7135,
      "Ġbeekamtii": 7136,
      "Ġcitaa": 7137,
      "Ġcuuph": 7138,
      "Yeroodhaaf": 7139,
      "Dhung": 7140,
      "Dhiigni": 7141,
      "jjennoo": 7142,
      "Ġdeemee": 7143,
      "Ġgubaa": 7144,
      "Ġlaam": 7145,
      "Ġqabutti": 7146,
      "Kanas": 7147,
      "Ġeegnee": 7148,
      "Ġakkanumatti": 7149,
      "Ġdeebine": 7150,
      "Atillee": 7151,
      "Ġobaa": 7152,
      "Ġrama": 7153,
      "Ġjalqabna": 7154,
      "Ġjaallachuuf": 7155,
      "Ġmiidha": 7156,
      "Ġturtetti": 7157,
      "Ġisaaniiti": 7158,
      "ĠFaransaayiis": 7159,
      "Ġdhabameera": 7160,
      "Ġpar": 7161,
      "Ġfudhattaa": 7162,
      "Ġyaalla": 7163,
      "Ġyaaltaniittuu": 7164,
      "Ġyaalluu": 7165,
      "Ġkenninu": 7166,
      "Ġhidha": 7167,
      "Ġmud": 7168,
      "Ġmudhii": 7169,
      "Ġxumurtu": 7170,
      "Ġibsuuf": 7171,
      "Ġkaayyeff": 7172,
      "Ġbarreessine": 7173,
      "Kuduraalee": 7174,
      "Ġdadhabeef": 7175,
      "Ġhawwu": 7176,
      "Sirreess": 7177,
      "Ġhafeera": 7178,
      "Ġdhugaati": 7179,
      "Ġmirkaneessa": 7180,
      "Ġmudateen": 7181,
      "Ġdhiheessa": 7182,
      "Ġkaasuuf": 7183,
      "Ġdafqaan": 7184,
      "uuziin": 7185,
      "Ġrafte": 7186,
      "Ġdhaqxee": 7187,
      "ĠdandaÊ¼eera": 7188,
      "Ġraawwanne": 7189,
      "Ġdhaggeeffadhu": 7190,
      "Ġdhaggeeffachuun": 7191,
      "Galuu": 7192,
      "Ġyaaddutti": 7193,
      "Ġbiyyaatti": 7194,
      "Ġobboleessi": 7195,
      "Ġfiigicha": 7196,
      "Ġdinqisiifadhu": 7197,
      "Ġmiidhamaniiru": 7198,
      "Ġbilcheef": 7199,
      "Ġbilcheessite": 7200,
      "Ġdaawwachuun": 7201,
      "Ġdaawwattan": 7202,
      "Ġdhiqadha": 7203,
      "Ġdhokate": 7204,
      "Ġkaroorfat": 7205,
      "qqiin": 7206,
      "Ġuumama": 7207,
      "Ġgubbaatti": 7208,
      "Ġbulchaa": 7209,
      "Ġdulloome": 7210,
      "Ġariifachuu": 7211,
      "Ġdammaqee": 7212,
      "Ġdammaqxe": 7213,
      "Ġsodaatan": 7214,
      "Ġdabarsitan": 7215,
      "Ġfagootti": 7216,
      "Gabaasni": 7217,
      "Qilleensa": 7218,
      "Ġhidhaatti": 7219,
      "Ġciniinee": 7220,
      "Ġqusachuuf": 7221,
      "Ġkutatin": 7222,
      "Balbal": 7223,
      "Ġhaaluu": 7224,
      "Ġmiliquuf": 7225,
      "Albamii": 7226,
      "Ġciccir": 7227,
      "Ġgante": 7228,
      "Ibsuun": 7229,
      "Ġimaluu": 7230,
      "Ġimaluuf": 7231,
      "Ġmormu": 7232,
      "Ġeegale": 7233,
      "Ġ197": 7234,
      "Ġqabsiisi": 7235,
      "Ġqodaa": 7236,
      "Ġadabame": 7237,
      "Beeks": 7238,
      "Ġciiftee": 7239,
      "Ġmiseensa": 7240,
      "Kirk": 7241,
      "Ġkireeffachuu": 7242,
      "Ġkalaqa": 7243,
      "Fagoo": 7244,
      "Fagootti": 7245,
      "Ġjibbisiisaadha": 7246,
      "Ġdigdama": 7247,
      "Shorbaan": 7248,
      "Kontiraata": 7249,
      "Ġhawwataadha": 7250,
      "ĠHindii": 7251,
      "Fayyaan": 7252,
      "Rafuu": 7253,
      "Ġtolchan": 7254,
      "ĠgaaÊ¼elaa": 7255,
      "Gidduu": 7256,
      "Ġwaliigalaa": 7257,
      "Ġleenjise": 7258,
      "Ġilaallatu": 7259,
      "Ġbuttooni": 7260,
      "aawuntii": 7261,
      "bulaansii": 7262,
      "Shaampoo": 7263,
      "Ġfalfalaa": 7264,
      "Ġlammaffaati": 7265,
      "Ġhawaasummaa": 7266,
      "Cheezii": 7267,
      "Imaltoonni": 7268,
      "Ġqilleensarra": 7269,
      "Akeekkachiifameera": 7270,
      "Ġquubsaa": 7271,
      "oojikii": 7272,
      "Ġujummoo": 7273,
      "Ġgeejjibaa": 7274,
      "Ġxuxxuq": 7275,
      "ormal": 7276,
      "Ġmuddamaa": 7277,
      "Ġdhamdh": 7278,
      "Chicken": 7279,
      "Giitaara": 7280,
      "Ġkumaatamaan": 7281,
      "Aa": 7282,
      "Cimaa": 7283,
      "Caccab": 7284,
      "Daak": 7285,
      "Ele": 7286,
      "Gitaara": 7287,
      "Haaloo": 7288,
      "Jimaata": 7289,
      "Kaan": 7290,
      "Kann": 7291,
      "OK": 7292,
      "Quuf": 7293,
      "Su": 7294,
      "Sukkaarri": 7295,
      "Ulaa": 7296,
      "ber": 7297,
      "barr": 7298,
      "iff": 7299,
      "iteettaa": 7300,
      "jin": 7301,
      "moon": 7302,
      "ps": 7303,
      "ttii": 7304,
      "ula": 7305,
      "waantii": 7306,
      "zaan": 7307,
      "ĠWanti": 7308,
      "ĠHaa": 7309,
      "uul": 7310,
      "Ġhum": 7311,
      "Ġkaasa": 7312,
      "Ġkuff": 7313,
      "tichaa": 7314,
      "ameen": 7315,
      "Ġteenyu": 7316,
      "Ġgeenya": 7317,
      "aansa": 7318,
      "Ġne": 7319,
      "Ġadiin": 7320,
      "Ġachumaan": 7321,
      "chee": 7322,
      "chii": 7323,
      "isti": 7324,
      "Ġdhimmi": 7325,
      "unk": 7326,
      "Ġbarattootaa": 7327,
      "Ġturedha": 7328,
      "eekni": 7329,
      "Ġargataniiru": 7330,
      "iisi": 7331,
      "Ġca": 7332,
      "Ġwaliif": 7333,
      "Ġjedhii": 7334,
      "Ġjedheera": 7335,
      "Ġfakkeessuu": 7336,
      "Ġdeeminaa": 7337,
      "Ġgaragalee": 7338,
      "Ġhojjetin": 7339,
      "Ġhojjedheef": 7340,
      "Ġguba": 7341,
      "Ġjirudha": 7342,
      "Ġdubbatama": 7343,
      "dicha": 7344,
      "Ġittisu": 7345,
      "umayyuu": 7346,
      "Ġilmaan": 7347,
      "Ġdhufti": 7348,
      "Ġgaafatinaa": 7349,
      "Ġoper": 7350,
      "Ġjiraachis": 7351,
      "sikoo": 7352,
      "Ġdeebita": 7353,
      "Ġbitin": 7354,
      "Ġkasaaraa": 7355,
      "Ġjalqabdu": 7356,
      "Ġxiqqeessuu": 7357,
      "Ġsass": 7358,
      "Hundaaf": 7359,
      "Fardeen": 7360,
      "qaaquun": 7361,
      "Ġmiil": 7362,
      "Ġmiidhaan": 7363,
      "Ġtaphatta": 7364,
      "Ġtiyaa": 7365,
      "Ġdhabneerra": 7366,
      "Ġharkisuu": 7367,
      "shalaa": 7368,
      "shirt": 7369,
      "Ġqabaachuuf": 7370,
      "Ġgahaan": 7371,
      "Ġxumurru": 7372,
      "Ġuffannee": 7373,
      "Ġibsaan": 7374,
      "Walii": 7375,
      "Waldaa": 7376,
      "Ġbarreessuun": 7377,
      "Ġhubata": 7378,
      "Ġbulle": 7379,
      "Ġafaanota": 7380,
      "Sirumayyuu": 7381,
      "Ġsadiitti": 7382,
      "Ġfuudhan": 7383,
      "Ġfayyadamne": 7384,
      "Ġroobaatiin": 7385,
      "eettiidha": 7386,
      "Shugguxii": 7387,
      "Ġfufuuf": 7388,
      "ariitiin": 7389,
      "Ġhayyamne": 7390,
      "isiisaa": 7391,
      "Ġfilatame": 7392,
      "Dursa": 7393,
      "Dursitee": 7394,
      "Ġharkatti": 7395,
      "Ġhiriyyoonni": 7396,
      "Ġliqeessite": 7397,
      "Ġkaasu": 7398,
      "Ġoolchuu": 7399,
      "ĠAr": 7400,
      "Ġqoose": 7401,
      "Ġraawwatamu": 7402,
      "Ġdhaggeeffate": 7403,
      "raanf": 7404,
      "Ġhiikuun": 7405,
      "Ġsuuq": 7406,
      "Ġajjeesa": 7407,
      "Ġalatti": 7408,
      "Ġbaafte": 7409,
      "Ġdippil": 7410,
      "Ġgurguru": 7411,
      "Ġgurguruuf": 7412,
      "Ġharkifateera": 7413,
      "Ġ16": 7414,
      "Ġhojjetudha": 7415,
      "Ġdhoksee": 7416,
      "Irraanf": 7417,
      "Ġdhiphatte": 7418,
      "Ġkunuunsaa": 7419,
      "Ġergite": 7420,
      "Ġdhukkubsadheera": 7421,
      "Suuqiin": 7422,
      "ootni": 7423,
      "Ġfashalaa": 7424,
      "Cheekii": 7425,
      "ĠKib": 7426,
      "Ġuumeera": 7427,
      "Ġgadhiiste": 7428,
      "Ġmormaa": 7429,
      "Ġdulloomtuun": 7430,
      "Ġjiraatte": 7431,
      "Ġyaabbachuun": 7432,
      "Ġgaddisiisudha": 7433,
      "Ġqabaattee": 7434,
      "Ġdoktoraa": 7435,
      "Ġsodaachisu": 7436,
      "Ġbarreeffama": 7437,
      "Ġgurraach": 7438,
      "Qawween": 7439,
      "Ġqisaasessaa": 7440,
      "Ġqophooftaniittuu": 7441,
      "Ġquufte": 7442,
      "Ġkutachiisa": 7443,
      "Kaapteen": 7444,
      "Lammii": 7445,
      "Ġfilannoowwan": 7446,
      "Ġlolu": 7447,
      "Ġdaakuun": 7448,
      "Simbirroo": 7449,
      "TVn": 7450,
      "Ġtuffate": 7451,
      "Dogoggortee": 7452,
      "Raadiyoon": 7453,
      "Fiiguun": 7454,
      "Pirojek": 7455,
      "Ġagarsiifte": 7456,
      "Ġgurguddoon": 7457,
      "Ġdeeggaraa": 7458,
      "Ġmufachiisuu": 7459,
      "Cimsitee": 7460,
      "Turtii": 7461,
      "Liqiin": 7462,
      "Ġabjoodha": 7463,
      "Ġwalqixa": 7464,
      "Daabboon": 7465,
      "Ġqonna": 7466,
      "Ġqonnaan": 7467,
      "Ġakeeke": 7468,
      "Ġkiyyoo": 7469,
      "Ġajjeeste": 7470,
      "Ġmaallaqaan": 7471,
      "Cirrachi": 7472,
      "Ġkirkira": 7473,
      "Ġqisaasessuu": 7474,
      "aastikii": 7475,
      "Ġbarruulee": 7476,
      "Dammaqaa": 7477,
      "Ġciccimoodha": 7478,
      "Dhiphina": 7479,
      "ĠYoorkitti": 7480,
      "Foddaan": 7481,
      "Gommaa": 7482,
      "Shaakala": 7483,
      "Ġmadaalawaa": 7484,
      "uccuu": 7485,
      "Appaartaa": 7486,
      "Akkasumas": 7487,
      "Ġbeeyladaa": 7488,
      "Ġqeenxee": 7489,
      "mishni": 7490,
      "Ġsooressaa": 7491,
      "Ġlaamsha": 7492,
      "50": 7493,
      "Jii": 7494,
      "Kiisha": 7495,
      "Nars": 7496,
      "Omishni": 7497,
      "Qeensa": 7498,
      "Qumaara": 7499,
      "Ti": 7500,
      "bannoo": 7501,
      "eat": 7502,
      "ksi": 7503,
      "man": 7504,
      "os": 7505,
      "tar": 7506,
      "tootaaf": 7507,
      "uzzle": 7508,
      "Ġen": 7509,
      "ĠWaaqayyo": 7510,
      "andii": 7511,
      "ookii": 7512,
      "ary": 7513,
      "Ġbakk": 7514,
      "Ġbanama": 7515,
      "Ġqaq": 7516,
      "Ġminj": 7517,
      "Ġmataan": 7518,
      "Ġmanaan": 7519,
      "Ġqabama": 7520,
      "Ġqabaata": 7521,
      "Ġqabattu": 7522,
      "atamee": 7523,
      "Ġbarumsa": 7524,
      "aatteettaa": 7525,
      "Ġnaquu": 7526,
      "erk": 7527,
      "aarii": 7528,
      "Ġbeekin": 7529,
      "Ġniw": 7530,
      "Ġjedhaa": 7531,
      "Ġjedhameera": 7532,
      "Dhab": 7533,
      "Dhadhaa": 7534,
      "Ġkann": 7535,
      "ffa": 7536,
      "Ġdubbattaa": 7537,
      "Ġloomii": 7538,
      "Ġittisa": 7539,
      "ries": 7540,
      "Ġyaadachiif": 7541,
      "taniiru": 7542,
      "Ġhimeen": 7543,
      "Ġeegin": 7544,
      "Ġfiduuf": 7545,
      "Ġgaafannu": 7546,
      "Kunniin": 7547,
      "Ġgaltee": 7548,
      "oonnicha": 7549,
      "Ġdhugi": 7550,
      "Ġdhugda": 7551,
      "Ġdhugnu": 7552,
      "Ġdhiisan": 7553,
      "Ġisaanitti": 7554,
      "Ġgargaartaniif": 7555,
      "eeroo": 7556,
      "Ġamante": 7557,
      "Ġkaka": 7558,
      "Ġwaaq": 7559,
      "Ġhiriyaa": 7560,
      "Ġbarbaaddee": 7561,
      "oofees": 7562,
      "Ġnamootaa": 7563,
      "Guddaa": 7564,
      "Ġisaaniitiin": 7565,
      "Ġgahan": 7566,
      "Ġkenninaa": 7567,
      "iyoot": 7568,
      "Ġhidhu": 7569,
      "miidha": 7570,
      "Ġibsite": 7571,
      "Ġseentee": 7572,
      "Yaabannoo": 7573,
      "Ġammatti": 7574,
      "Deeskiin": 7575,
      "Ġhubatta": 7576,
      "ppiin": 7577,
      "Ġkamirraa": 7578,
      "aambaa": 7579,
      "aamila": 7580,
      "Ġdadhabaadha": 7581,
      "Rakkoolee": 7582,
      "Ġcufte": 7583,
      "Ġcufamanii": 7584,
      "Ġroobne": 7585,
      "Ġhafta": 7586,
      "Ġdagattee": 7587,
      "iteen": 7588,
      "Ġmurtoofne": 7589,
      "Ġdabale": 7590,
      "Ġdabali": 7591,
      "Ġsodaachif": 7592,
      "Shaayiin": 7593,
      "Ġdhihaatti": 7594,
      "Ġmaraate": 7595,
      "Ġliqeessitaa": 7596,
      "Ġqulqulleessaa": 7597,
      "Ġdafqa": 7598,
      "Ġarmaan": 7599,
      "Gargaaraa": 7600,
      "ĠAn": 7601,
      "Ġcabsite": 7602,
      "Ġdhaabbatee": 7603,
      "Ġjabeessee": 7604,
      "Ġraawwatiin": 7605,
      "Garuu": 7606,
      "Ġqopheesse": 7607,
      "Ġbanee": 7608,
      "Ġbante": 7609,
      "Ġalaatti": 7610,
      "Ġmiliyeenara": 7611,
      "Gaaffiiwwan": 7612,
      "Ġxuuxa": 7613,
      "Ġhiikte": 7614,
      "Ġxiyyaar": 7615,
      "Ġsalphaadhaan": 7616,
      "ĠdhagaÊ¼amuu": 7617,
      "Carraaqqiin": 7618,
      "Ġinjifanne": 7619,
      "Bilis": 7620,
      "Ġdirree": 7621,
      "Ġgaafatameera": 7622,
      "tirob": 7623,
      "Ameerikaatti": 7624,
      "Ġshanitti": 7625,
      "Ġsobu": 7626,
      "Ġdhaamte": 7627,
      "Adeera": 7628,
      "Ġhammachuu": 7629,
      "Ġgubatee": 7630,
      "Ġburtu": 7631,
      "Ġbulchuu": 7632,
      "Ġbultii": 7633,
      "Ġfagaadheen": 7634,
      "Ġbuune": 7635,
      "Ġbaaburaan": 7636,
      "Maallaqaaf": 7637,
      "Ġbarreessitu": 7638,
      "Ġariifataa": 7639,
      "Ġariifadhu": 7640,
      "Mic": 7641,
      "Michuu": 7642,
      "Ġhidhame": 7643,
      "Ġfayyadaminaa": 7644,
      "Ġijaaruuf": 7645,
      "Ġhawwiidhaan": 7646,
      "Ġgaragalche": 7647,
      "Ġqabaattaa": 7648,
      "Ġmallatteessuu": 7649,
      "Ġjeeqame": 7650,
      "Ġkomadhu": 7651,
      "Ġsodaachisuu": 7652,
      "Ġgowwummaadha": 7653,
      "Biyyoonni": 7654,
      "Hanqaaquun": 7655,
      "Ġloltoota": 7656,
      "Yaaliin": 7657,
      "Ibsuu": 7658,
      "Nagaan": 7659,
      "Nageenyi": 7660,
      "Nagahee": 7661,
      "Ġhatatt": 7662,
      "Kaffaltiin": 7663,
      "Ġummataaf": 7664,
      "Barreessaa": 7665,
      "Ġgaabbita": 7666,
      "Ġajjeefamaniiru": 7667,
      "kooppii": 7668,
      "Ġjajjabeesse": 7669,
      "Ġmisoom": 7670,
      "Daawwitii": 7671,
      "Ġzay": 7672,
      "Jeequmsi": 7673,
      "Liqaa": 7674,
      "Ġdarbaniif": 7675,
      "Ġbilcheessitu": 7676,
      "Awwaara": 7677,
      "Ġpilaastikii": 7678,
      "Ġpilaambaa": 7679,
      "Ġbalbalaa": 7680,
      "Gowwummaa": 7681,
      "Ġboqonnaan": 7682,
      "Ġhiriyoota": 7683,
      "Bareedduu": 7684,
      "ĠSiw": 7685,
      "Ġgammoojjii": 7686,
      "Ġiskeetii": 7687,
      "Ġiskuw": 7688,
      "Diinagdeen": 7689,
      "Ġbeelofne": 7690,
      "Ġsadaffaa": 7691,
      "Ġbashannantee": 7692,
      "Maamiltoonni": 7693,
      "Agarsiisa": 7694,
      "Nyaachuu": 7695,
      "Ġtuquu": 7696,
      "Badhaasa": 7697,
      "Dulloom": 7698,
      "Ġqalbiin": 7699,
      "Gingilchaan": 7700,
      "Ġkamittiyyuu": 7701,
      "Dhuunfaa": 7702,
      "Ġpaaspoortii": 7703,
      "Reservation": 7704,
      "frikaa": 7705,
      "Ġbluff": 7706,
      "Gurraacha": 7707,
      "ĠRaashiyaa": 7708,
      "Boolla": 7709,
      "barruu": 7710,
      "Appaartaamaa": 7711,
      "Narsiin": 7712,
      "Ġraawwatiinsa": 7713,
      "Araa": 7714,
      "Baandii": 7715,
      "CD": 7716,
      "Gamm": 7717,
      "Gaarri": 7718,
      "Hol": 7719,
      "Ja": 7720,
      "Muuz": 7721,
      "Mataan": 7722,
      "Muummee": 7723,
      "Naanna": 7724,
      "Oom": 7725,
      "Paantii": 7726,
      "Suph": 7727,
      "Taatee": 7728,
      "cuma": 7729,
      "filee": 7730,
      "gii": 7731,
      "kaanaa": 7732,
      "otaaf": 7733,
      "tarri": 7734,
      "uck": 7735,
      "uice": 7736,
      "vent": 7737,
      "ĠV": 7738,
      "eeti": 7739,
      "eewwan": 7740,
      "oorii": 7741,
      "Ġkarameellaa": 7742,
      "Ġbus": 7743,
      "Ġgatame": 7744,
      "Ġadd": 7745,
      "Ġqall": 7746,
      "Ġsil": 7747,
      "istaan": 7748,
      "Ġmin": 7749,
      "eessina": 7750,
      "eessaniiru": 7751,
      "Ġqabanne": 7752,
      "Ġqabaatu": 7753,
      "Ġqabateera": 7754,
      "Ġqabatamaan": 7755,
      "atamaadha": 7756,
      "Ġfan": 7757,
      "aatni": 7758,
      "Ġyakki": 7759,
      "ĠtoÊ¼": 7760,
      "Ġtasa": 7761,
      "aarra": 7762,
      "umsaaf": 7763,
      "Ġbeekamti": 7764,
      "Ġjetti": 7765,
      "Ġhojiif": 7766,
      "Ġargeen": 7767,
      "Ġargameera": 7768,
      "Ġwalqab": 7769,
      "laus": 7770,
      "Ġfakkaatin": 7771,
      "Dhib": 7772,
      "Dhiisuu": 7773,
      "Ġdeemaniiru": 7774,
      "Ġhojjetee": 7775,
      "Ġmichummaa": 7776,
      "Ġkunis": 7777,
      "Ġdubbataa": 7778,
      "Ġdubbatee": 7779,
      "Ġqofaa": 7780,
      "Namicha": 7781,
      "Ġhimeeraa": 7782,
      "Ġdeebisa": 7783,
      "Ġfidee": 7784,
      "Ġdhugan": 7785,
      "Ġdurbaa": 7786,
      "Ġofumaa": 7787,
      "eeffame": 7788,
      "Ġjiraadhee": 7789,
      "sita": 7790,
      "Ġdaran": 7791,
      "Ġjalqabuun": 7792,
      "Ġmiilli": 7793,
      "Harmee": 7794,
      "Ġdhaabaa": 7795,
      "siisa": 7796,
      "Ġdhabin": 7797,
      "Ġrakkinaa": 7798,
      "Ġqoree": 7799,
      "jiinii": 7800,
      "omp": 7801,
      "Ġfudhateera": 7802,
      "Ġfudhattan": 7803,
      "Ġkennama": 7804,
      "Ġkennameef": 7805,
      "Hiree": 7806,
      "Ġuffadhee": 7807,
      "Ġuffatteetti": 7808,
      "Ġseensaa": 7809,
      "Ġhojjettuu": 7810,
      "Deeb": 7811,
      "Ġhubattan": 7812,
      "ibuun": 7813,
      "Ġsalphina": 7814,
      "Ġeenyutti": 7815,
      "eessituu": 7816,
      "Ġfuudhu": 7817,
      "Ġfayyadamte": 7818,
      "Ġcufamuu": 7819,
      "Ġroobeef": 7820,
      "Ġyaadeen": 7821,
      "Ġtolchaa": 7822,
      "Ġtolchuuf": 7823,
      "ĠBir": 7824,
      "Ġkaffalamu": 7825,
      "Ġaddatti": 7826,
      "Ġbarsiisu": 7827,
      "Ġsodaatin": 7828,
      "Ġjijjiireera": 7829,
      "Shaaw": 7830,
      "Ġfagaateera": 7831,
      "Ġfilanne": 7832,
      "Ġfilattu": 7833,
      "Ġwaggaatti": 7834,
      "Ġdhihaata": 7835,
      "Ġguutamtee": 7836,
      "Ġhiriyyaadha": 7837,
      "Ġaansuun": 7838,
      "Ġdheerina": 7839,
      "Nutis": 7840,
      "Galii": 7841,
      "Ġbanamee": 7842,
      "Ġbaniinsaa": 7843,
      "Ġdinqisiifadhe": 7844,
      "Dafanii": 7845,
      "Ġbaafate": 7846,
      "Ġbaafadhe": 7847,
      "Ġbaafachuun": 7848,
      "Ġbaafamee": 7849,
      "Ġkufan": 7850,
      "Ġbilcheessuuf": 7851,
      "Ġdhiqatu": 7852,
      "Ġdhiqadhu": 7853,
      "Ġgurguraa": 7854,
      "Ġharkifne": 7855,
      "Ġ12": 7856,
      "Ġhaasoftee": 7857,
      "bichaa": 7858,
      "Ġduriiti": 7859,
      "ĠQilleedhaaf": 7860,
      "Ġdhiphate": 7861,
      "Ġgaafattan": 7862,
      "Ġkaroorfadhu": 7863,
      "Ġkaroorfattee": 7864,
      "Poolisoonni": 7865,
      "Poolisichi": 7866,
      "Ġtaasisaa": 7867,
      "Ġsobuu": 7868,
      "Dubbisuun": 7869,
      "Balfa": 7870,
      "Ġdhungattee": 7871,
      "Ġdhungachuuf": 7872,
      "Ġgube": 7873,
      "Ġmurteessu": 7874,
      "michaa": 7875,
      "Ġbanaadhaa": 7876,
      "Ġsirbuun": 7877,
      "Ġfagaachuun": 7878,
      "Ġbuusuuf": 7879,
      "Ġdhiyeessuu": 7880,
      "Ġdammaqsi": 7881,
      "Gosti": 7882,
      "Ġdhiibuu": 7883,
      "Ġsodaataniiru": 7884,
      "Ġgooneerra": 7885,
      "Ġdhiiftan": 7886,
      "Ġjeeqe": 7887,
      "Kaka": 7888,
      "Ġaddaati": 7889,
      "Ġilkaanii": 7890,
      "iizaan": 7891,
      "Ġhundaatti": 7892,
      "Ġtiruu": 7893,
      "Ġvol": 7894,
      "Ġoduun": 7895,
      "Haw": 7896,
      "Ġmorme": 7897,
      "Ġmormaniiru": 7898,
      "Ġmadda": 7899,
      "Dhukkubsattee": 7900,
      "Ġmaraachis": 7901,
      "Mootar": 7902,
      "Mootorri": 7903,
      "Ġsuphaa": 7904,
      "Ġsuphuu": 7905,
      "Ġrifachiis": 7906,
      "Ġtaaneetti": 7907,
      "Ġjijjiira": 7908,
      "Ġkalaasikaa": 7909,
      "Ġhinaafe": 7910,
      "Shubbisa": 7911,
      "Miidhamtee": 7912,
      "Ġmaaliiti": 7913,
      "Ġqalamaa": 7914,
      "Dirqiin": 7915,
      "Kiraa": 7916,
      "Ġsibiilli": 7917,
      "ĠClaus": 7918,
      "Funyaan": 7919,
      "Ġpilaan": 7920,
      "Ġbalballi": 7921,
      "Miseensa": 7922,
      "Giiftii": 7923,
      "Ġbaratamnedha": 7924,
      "alaqqeessaan": 7925,
      "Ġ300": 7926,
      "Saayintist": 7927,
      "Ġwaraab": 7928,
      "Leenj": 7929,
      "Tilmaamni": 7930,
      "Otoobisii": 7931,
      "Biqiltoonni": 7932,
      "ipe": 7933,
      "Agarsiisni": 7934,
      "Ġbubbee": 7935,
      "Ġlixe": 7936,
      "Ġdhiyaachaa": 7937,
      "Ergama": 7938,
      "Kallattiin": 7939,
      "ddugala": 7940,
      "Ariitiin": 7941,
      "Ammaaf": 7942,
      "Hamilee": 7943,
      "Arraba": 7944,
      "Onneen": 7945,
      "ĠHarvard": 7946,
      "Isteekii": 7947,
      "biisota": 7948,
      "Ġdaddar": 7949,
      "ĠSaantaa": 7950,
      "Ġgolgaa": 7951,
      "Ġsoddomaaf": 7952,
      "Yuunivarsiitiin": 7953,
      "Aadaa": 7954,
      "Ġtiyaatira": 7955,
      "Ġniwuk": 7956,
      "Ġhatattamaa": 7957,
      "Oomish": 7958,
      "Anaa": 7959,
      "Dambal": 7960,
      "Dunkaana": 7961,
      "En": 7962,
      "Faal": 7963,
      "Heerum": 7964,
      "Jala": 7965,
      "Juice": 7966,
      "Lakkii": 7967,
      "Marga": 7968,
      "Miilaan": 7969,
      "Raak": 7970,
      "Sii": 7971,
      "Tattoo": 7972,
      "co": 7973,
      "dinni": 7974,
      "ful": 7975,
      "ixx": 7976,
      "oy": 7977,
      "osaa": 7978,
      "pet": 7979,
      "ram": 7980,
      "tokk": 7981,
      "yp": 7982,
      "ĠNa": 7983,
      "Ġariitiin": 7984,
      "eeqa": 7985,
      "ootii": 7986,
      "artuu": 7987,
      "Ġnormal": 7988,
      "Ġjarana": 7989,
      "Ġaddunyaan": 7990,
      "dhuuf": 7991,
      "Ġqar": 7992,
      "istoonni": 7993,
      "Ġmim": 7994,
      "Ġdhohin": 7995,
      "Ġqabata": 7996,
      "Ġqabamte": 7997,
      "Ġqabatanii": 7998,
      "oombiin": 7999
    },
    "merges": [
      [
        "a",
        "a"
      ],
      [
        "e",
        "e"
      ],
      [
        "a",
        "n"
      ],
      [
        "i",
        "i"
      ],
      [
        "o",
        "o"
      ],
      [
        "u",
        "u"
      ],
      [
        "Ġ",
        "h"
      ],
      [
        "Ġ",
        "d"
      ],
      [
        "Ġ",
        "k"
      ],
      [
        "a",
        "r"
      ],
      [
        "t",
        "i"
      ],
      [
        "Ġ",
        "b"
      ],
      [
        "k",
        "k"
      ],
      [
        "i",
        "n"
      ],
      [
        "a",
        "m"
      ],
      [
        "Ġ",
        "t"
      ],
      [
        "Ġ",
        "g"
      ],
      [
        "aa",
        "n"
      ],
      [
        "i",
        "r"
      ],
      [
        "Ġ",
        "n"
      ],
      [
        "t",
        "ti"
      ],
      [
        "Ġ",
        "j"
      ],
      [
        "Ġ",
        "a"
      ],
      [
        "d",
        "h"
      ],
      [
        "Ġ",
        "q"
      ],
      [
        "a",
        "l"
      ],
      [
        "Ġh",
        "in"
      ],
      [
        "a",
        "b"
      ],
      [
        "Ġ",
        "s"
      ],
      [
        "c",
        "h"
      ],
      [
        "i",
        "s"
      ],
      [
        "Ġ",
        "m"
      ],
      [
        "d",
        "a"
      ],
      [
        "u",
        "r"
      ],
      [
        "Ġd",
        "h"
      ],
      [
        "s",
        "s"
      ],
      [
        "ee",
        "ss"
      ],
      [
        "aa",
        "l"
      ],
      [
        "Ġq",
        "ab"
      ],
      [
        "a",
        "t"
      ],
      [
        "Ġa",
        "kk"
      ],
      [
        "r",
        "a"
      ],
      [
        "u",
        "n"
      ],
      [
        "ee",
        "n"
      ],
      [
        "an",
        "a"
      ],
      [
        "Ġb",
        "ar"
      ],
      [
        "oo",
        "m"
      ],
      [
        "Ġj",
        "ir"
      ],
      [
        "Ġ",
        "w"
      ],
      [
        "Ġ",
        "f"
      ],
      [
        "aa",
        "t"
      ],
      [
        "ch",
        "uu"
      ],
      [
        "T",
        "oom"
      ],
      [
        "Ġ",
        "is"
      ],
      [
        "n",
        "i"
      ],
      [
        "Ġakk",
        "a"
      ],
      [
        "b",
        "aa"
      ],
      [
        "Ġt",
        "ur"
      ],
      [
        "Ġ",
        "y"
      ],
      [
        "ii",
        "n"
      ],
      [
        "m",
        "a"
      ],
      [
        "Ġd",
        "an"
      ],
      [
        "Ġt",
        "o"
      ],
      [
        "y",
        "y"
      ],
      [
        "i",
        "l"
      ],
      [
        "dh",
        "a"
      ],
      [
        "Ġn",
        "a"
      ],
      [
        "Ġbar",
        "baa"
      ],
      [
        "Ġt",
        "a"
      ],
      [
        "i",
        "tti"
      ],
      [
        "e",
        "r"
      ],
      [
        "Ġk",
        "eess"
      ],
      [
        "aa",
        "f"
      ],
      [
        "aa",
        "r"
      ],
      [
        "Ġk",
        "oo"
      ],
      [
        "am",
        "a"
      ],
      [
        "d",
        "d"
      ],
      [
        "ar",
        "g"
      ],
      [
        "Ġto",
        "kk"
      ],
      [
        "ii",
        "f"
      ],
      [
        "er",
        "oo"
      ],
      [
        "t",
        "a"
      ],
      [
        "Ġtur",
        "e"
      ],
      [
        "ee",
        "k"
      ],
      [
        "Ġtokk",
        "o"
      ],
      [
        "u",
        "m"
      ],
      [
        "a",
        "kk"
      ],
      [
        "Ġd",
        "ee"
      ],
      [
        "a",
        "g"
      ],
      [
        "b",
        "b"
      ],
      [
        "Ġb",
        "eek"
      ],
      [
        "Ġj",
        "e"
      ],
      [
        "t",
        "e"
      ],
      [
        "Ġh",
        "o"
      ],
      [
        "aa",
        "y"
      ],
      [
        "Ġg",
        "o"
      ],
      [
        "Ġ",
        "ir"
      ],
      [
        "j",
        "j"
      ],
      [
        "t",
        "u"
      ],
      [
        "t",
        "aa"
      ],
      [
        "r",
        "aa"
      ],
      [
        "Ġqab",
        "a"
      ],
      [
        "n",
        "e"
      ],
      [
        "Ġdan",
        "da"
      ],
      [
        "Ġ",
        "arg"
      ],
      [
        "uu",
        "n"
      ],
      [
        "ii",
        "s"
      ],
      [
        "Ġn",
        "an"
      ],
      [
        "Ġ",
        "c"
      ],
      [
        "Ġy",
        "aa"
      ],
      [
        "Ġk",
        "ana"
      ],
      [
        "u",
        "f"
      ],
      [
        "een",
        "y"
      ],
      [
        "o",
        "f"
      ],
      [
        "Ġw",
        "al"
      ],
      [
        "ee",
        "ra"
      ],
      [
        "Ġk",
        "ee"
      ],
      [
        "l",
        "a"
      ],
      [
        "m",
        "aa"
      ],
      [
        "Ġis",
        "aa"
      ],
      [
        "oo",
        "n"
      ],
      [
        "uu",
        "f"
      ],
      [
        "Ġkeess",
        "a"
      ],
      [
        "Ġna",
        "tti"
      ],
      [
        "Y",
        "eroo"
      ],
      [
        "aa",
        "s"
      ],
      [
        "Ġjir",
        "a"
      ],
      [
        "Ġh",
        "un"
      ],
      [
        "Ġw",
        "aan"
      ],
      [
        "Ġs",
        "i"
      ],
      [
        "Ġdan",
        "d"
      ],
      [
        "Ġd",
        "u"
      ],
      [
        "Ġn",
        "i"
      ],
      [
        "Ġir",
        "ra"
      ],
      [
        "o",
        "l"
      ],
      [
        "a",
        "chuu"
      ],
      [
        "t",
        "ee"
      ],
      [
        "p",
        "h"
      ],
      [
        "t",
        "ii"
      ],
      [
        "Ġje",
        "dh"
      ],
      [
        "A",
        "kk"
      ],
      [
        "Ġb",
        "aay"
      ],
      [
        "a",
        "dh"
      ],
      [
        "i",
        "m"
      ],
      [
        "Ġf",
        "akk"
      ],
      [
        "D",
        "h"
      ],
      [
        "Ġk",
        "an"
      ],
      [
        "jj",
        "e"
      ],
      [
        "Ġdee",
        "m"
      ],
      [
        "Ġg",
        "ar"
      ],
      [
        "Ġho",
        "jje"
      ],
      [
        "Ġm",
        "i"
      ],
      [
        "f",
        "f"
      ],
      [
        "o",
        "r"
      ],
      [
        "u",
        "g"
      ],
      [
        "Ġs",
        "ana"
      ],
      [
        "Ġfakk",
        "aat"
      ],
      [
        "W",
        "aan"
      ],
      [
        "l",
        "l"
      ],
      [
        "o",
        "n"
      ],
      [
        "Ġm",
        "aal"
      ],
      [
        "M",
        "aal"
      ],
      [
        "d",
        "aa"
      ],
      [
        "Ġk",
        "un"
      ],
      [
        "Ġg",
        "u"
      ],
      [
        "am",
        "ma"
      ],
      [
        "an",
        "n"
      ],
      [
        "eess",
        "a"
      ],
      [
        "e",
        "n"
      ],
      [
        "Ġjir",
        "u"
      ],
      [
        "Ġdu",
        "bb"
      ],
      [
        "M",
        "ee"
      ],
      [
        "Ġakka",
        "s"
      ],
      [
        "Ġirra",
        "tti"
      ],
      [
        "Ġ",
        "l"
      ],
      [
        "A",
        "ni"
      ],
      [
        "d",
        "i"
      ],
      [
        "Ġy",
        "eroo"
      ],
      [
        "i",
        "q"
      ],
      [
        "Ġg",
        "aar"
      ],
      [
        "Ġj",
        "aal"
      ],
      [
        "Ġgo",
        "chuu"
      ],
      [
        "Ġ",
        "itti"
      ],
      [
        "Ġ",
        "x"
      ],
      [
        "Ġbarbaa",
        "da"
      ],
      [
        "an",
        "aa"
      ],
      [
        "w",
        "w"
      ],
      [
        "u",
        "ma"
      ],
      [
        "I",
        "s"
      ],
      [
        "dd",
        "aa"
      ],
      [
        "al",
        "l"
      ],
      [
        "Ġn",
        "ama"
      ],
      [
        "Ġqab",
        "u"
      ],
      [
        "d",
        "u"
      ],
      [
        "al",
        "a"
      ],
      [
        "Ġdh",
        "ag"
      ],
      [
        "y",
        "aa"
      ],
      [
        "n",
        "a"
      ],
      [
        "Ġgaar",
        "ii"
      ],
      [
        "ch",
        "is"
      ],
      [
        "aal",
        "aa"
      ],
      [
        "Ġ",
        "am"
      ],
      [
        "Ġq",
        "of"
      ],
      [
        "s",
        "a"
      ],
      [
        "i",
        "yy"
      ],
      [
        "at",
        "a"
      ],
      [
        "Ġhun",
        "da"
      ],
      [
        "oo",
        "ta"
      ],
      [
        "r",
        "i"
      ],
      [
        "Ê",
        "¼"
      ],
      [
        "Ġdh",
        "a"
      ],
      [
        "Ġyaa",
        "da"
      ],
      [
        "Ġ",
        "il"
      ],
      [
        "Ġkeess",
        "an"
      ],
      [
        "Ġwal",
        "iin"
      ],
      [
        "eeny",
        "a"
      ],
      [
        "a",
        "h"
      ],
      [
        "A",
        "m"
      ],
      [
        "Akk",
        "a"
      ],
      [
        "Ġdh",
        "uf"
      ],
      [
        "t",
        "uu"
      ],
      [
        "ch",
        "aa"
      ],
      [
        "r",
        "ii"
      ],
      [
        "N",
        "am"
      ],
      [
        "o",
        "g"
      ],
      [
        "Ġjedh",
        "een"
      ],
      [
        "b",
        "a"
      ],
      [
        "s",
        "aa"
      ],
      [
        "t",
        "an"
      ],
      [
        "Ġk",
        "en"
      ],
      [
        "Ġbeek",
        "u"
      ],
      [
        "Ġ",
        "ee"
      ],
      [
        "Ġ",
        "i"
      ],
      [
        "Ġmi",
        "ti"
      ],
      [
        "K",
        "ana"
      ],
      [
        "Ġn",
        "aaf"
      ],
      [
        "Ġb",
        "oo"
      ],
      [
        "h",
        "ee"
      ],
      [
        "Ġh",
        "im"
      ],
      [
        "Ġdand",
        "eess"
      ],
      [
        "Ġee",
        "g"
      ],
      [
        "I",
        "n"
      ],
      [
        "yy",
        "ee"
      ],
      [
        "aa",
        "dha"
      ],
      [
        "Ġbarbaa",
        "chis"
      ],
      [
        "a",
        "d"
      ],
      [
        "Ġakk",
        "an"
      ],
      [
        "q",
        "a"
      ],
      [
        "Ġdee",
        "b"
      ],
      [
        "A",
        "ti"
      ],
      [
        "aa",
        "yyee"
      ],
      [
        "Ġqof",
        "a"
      ],
      [
        "Ġgar",
        "a"
      ],
      [
        "j",
        "ii"
      ],
      [
        "Ġis",
        "a"
      ],
      [
        "dh",
        "u"
      ],
      [
        "Ġf",
        "i"
      ],
      [
        "at",
        "e"
      ],
      [
        "am",
        "e"
      ],
      [
        "Ġis",
        "hee"
      ],
      [
        "Ġg",
        "aaf"
      ],
      [
        "K",
        "un"
      ],
      [
        "Ġg",
        "al"
      ],
      [
        "Ġh",
        "a"
      ],
      [
        "oon",
        "ni"
      ],
      [
        "Ġs",
        "ir"
      ],
      [
        "Ġm",
        "ana"
      ],
      [
        "Ġqab",
        "da"
      ],
      [
        "al",
        "ee"
      ],
      [
        "o",
        "ph"
      ],
      [
        "g",
        "a"
      ],
      [
        "S",
        "un"
      ],
      [
        "aat",
        "ii"
      ],
      [
        "Ġdh",
        "ug"
      ],
      [
        "Ġg",
        "amma"
      ],
      [
        "aat",
        "aa"
      ],
      [
        "Ġs",
        "un"
      ],
      [
        "Ġir",
        "raa"
      ],
      [
        "r",
        "e"
      ],
      [
        "Ġf",
        "u"
      ],
      [
        "Ġfakkaat",
        "a"
      ],
      [
        "arg",
        "aar"
      ],
      [
        "Ġd",
        "ur"
      ],
      [
        "Ġa",
        "s"
      ],
      [
        "Ġ",
        "Toom"
      ],
      [
        "H",
        "o"
      ],
      [
        "Ġkeessa",
        "tti"
      ],
      [
        "u",
        "b"
      ],
      [
        "Ġboo",
        "da"
      ],
      [
        "Ġbeek",
        "a"
      ],
      [
        "Ġ",
        "of"
      ],
      [
        "d",
        "e"
      ],
      [
        "Ġdh",
        "i"
      ],
      [
        "ar",
        "s"
      ],
      [
        "d",
        "uu"
      ],
      [
        "Ġ",
        "o"
      ],
      [
        "d",
        "da"
      ],
      [
        "at",
        "u"
      ],
      [
        "k",
        "an"
      ],
      [
        "k",
        "ol"
      ],
      [
        "Ġgu",
        "ddaa"
      ],
      [
        "aat",
        "a"
      ],
      [
        "u",
        "l"
      ],
      [
        "Ġdh",
        "iis"
      ],
      [
        "Dh",
        "ug"
      ],
      [
        "ee",
        "ff"
      ],
      [
        "iq",
        "q"
      ],
      [
        "ar",
        "k"
      ],
      [
        "aas",
        "a"
      ],
      [
        "yy",
        "aa"
      ],
      [
        "ch",
        "i"
      ],
      [
        "f",
        "aan"
      ],
      [
        "al",
        "aa"
      ],
      [
        "ii",
        "r"
      ],
      [
        "Ġis",
        "in"
      ],
      [
        "on",
        "kol"
      ],
      [
        "Ġs",
        "o"
      ],
      [
        "ll",
        "ee"
      ],
      [
        "Ġil",
        "aal"
      ],
      [
        "Ġ",
        "ra"
      ],
      [
        "Ġkeess",
        "aa"
      ],
      [
        "Ġb",
        "il"
      ],
      [
        "Ġm",
        "ur"
      ],
      [
        "Ġ",
        "r"
      ],
      [
        "Ġk",
        "eenya"
      ],
      [
        "um",
        "aa"
      ],
      [
        "am",
        "aa"
      ],
      [
        "um",
        "maa"
      ],
      [
        "i",
        "taa"
      ],
      [
        "Maal",
        "iif"
      ],
      [
        "an",
        "ti"
      ],
      [
        "Ġs",
        "iif"
      ],
      [
        "Am",
        "ma"
      ],
      [
        "Ġb",
        "ir"
      ],
      [
        "g",
        "aa"
      ],
      [
        "Ġc",
        "aalaa"
      ],
      [
        "Ġb",
        "aayyee"
      ],
      [
        "â",
        "Ģ"
      ],
      [
        "âĢ",
        "Ļ"
      ],
      [
        "Ġjir",
        "aa"
      ],
      [
        "Ġa",
        "ti"
      ],
      [
        "ar",
        "a"
      ],
      [
        "Nam",
        "ni"
      ],
      [
        "Ġis",
        "aan"
      ],
      [
        "s",
        "i"
      ],
      [
        "ch",
        "a"
      ],
      [
        "Ġdeeb",
        "i"
      ],
      [
        "q",
        "ab"
      ],
      [
        "oo",
        "l"
      ],
      [
        "Ġg",
        "argaar"
      ],
      [
        "ee",
        "r"
      ],
      [
        "am",
        "itti"
      ],
      [
        "Ġjaal",
        "l"
      ],
      [
        "Ġn",
        "y"
      ],
      [
        "al",
        "qab"
      ],
      [
        "Ġn",
        "u"
      ],
      [
        "Ġg",
        "a"
      ],
      [
        "Ġdhag",
        "a"
      ],
      [
        "b",
        "il"
      ],
      [
        "Ġs",
        "itti"
      ],
      [
        "Ġam",
        "an"
      ],
      [
        "Ġb",
        "i"
      ],
      [
        "Ġd",
        "ab"
      ],
      [
        "Ġk",
        "a"
      ],
      [
        "s",
        "oo"
      ],
      [
        "n",
        "u"
      ],
      [
        "Ġd",
        "ar"
      ],
      [
        "at",
        "te"
      ],
      [
        "Ġqab",
        "na"
      ],
      [
        "t",
        "iin"
      ],
      [
        "am",
        "u"
      ],
      [
        "Ġbarbaa",
        "du"
      ],
      [
        "Ġa",
        "b"
      ],
      [
        "Ġj",
        "alqab"
      ],
      [
        "a",
        "yy"
      ],
      [
        "Ġx",
        "iqq"
      ],
      [
        "Ġ",
        "an"
      ],
      [
        "Ġk",
        "u"
      ],
      [
        "Ġs",
        "a"
      ],
      [
        "Ġw",
        "aa"
      ],
      [
        "Ġm",
        "ir"
      ],
      [
        "Ġg",
        "uu"
      ],
      [
        "Ġj",
        "i"
      ],
      [
        "ann",
        "oo"
      ],
      [
        "Ġdand",
        "eeny"
      ],
      [
        "i",
        "f"
      ],
      [
        "Ġh",
        "ir"
      ],
      [
        "Ġh",
        "aa"
      ],
      [
        "Ġjaal",
        "la"
      ],
      [
        "dh",
        "aa"
      ],
      [
        "Ġ",
        "in"
      ],
      [
        "ee",
        "f"
      ],
      [
        "W",
        "aa"
      ],
      [
        "Ġbarbaa",
        "dd"
      ],
      [
        "yy",
        "aan"
      ],
      [
        "aal",
        "a"
      ],
      [
        "at",
        "aa"
      ],
      [
        "akk",
        "a"
      ],
[...]
